{
  "version": "1.0",
  "truncation": null,
  "padding": null,
  "added_tokens": [
    {
      "id": 0,
      "content": "[UNK]",
      "single_word": false,
      "lstrip": false,
      "rstrip": false,
      "normalized": false,
      "special": true
    },
    {
      "id": 1,
      "content": "[CLS]",
      "single_word": false,
      "lstrip": false,
      "rstrip": false,
      "normalized": false,
      "special": true
    },
    {
      "id": 2,
      "content": "[SEP]",
      "single_word": false,
      "lstrip": false,
      "rstrip": false,
      "normalized": false,
      "special": true
    },
    {
      "id": 3,
      "content": "[PAD]",
      "single_word": false,
      "lstrip": false,
      "rstrip": false,
      "normalized": false,
      "special": true
    },
    {
      "id": 4,
      "content": "[MASK]",
      "single_word": false,
      "lstrip": false,
      "rstrip": false,
      "normalized": false,
      "special": true
    }
  ],
  "normalizer": null,
  "pre_tokenizer": {
    "type": "Sequence",
    "pretokenizers": [
      {
        "type": "Split",
        "pattern": {
          "String": " "
        },
        "behavior": "Removed",
        "invert": false
      },
      {
        "type": "Split",
        "pattern": {
          "String": "([^\\u0C00-\\u0C7F])"
        },
        "behavior": "Isolated",
        "invert": false
      },
      {
        "type": "Split",
        "pattern": {
          "String": "([\\u0C00-\\u0C7F])"
        },
        "behavior": "Contiguous",
        "invert": false
      }
    ]
  },
  "post_processor": {
    "type": "TemplateProcessing",
    "single": [
      {
        "SpecialToken": {
          "id": "[CLS]",
          "type_id": 0
        }
      },
      {
        "Sequence": {
          "id": "A",
          "type_id": 0
        }
      },
      {
        "SpecialToken": {
          "id": "[SEP]",
          "type_id": 0
        }
      }
    ],
    "pair": [
      {
        "SpecialToken": {
          "id": "[CLS]",
          "type_id": 0
        }
      },
      {
        "Sequence": {
          "id": "A",
          "type_id": 0
        }
      },
      {
        "SpecialToken": {
          "id": "[SEP]",
          "type_id": 0
        }
      },
      {
        "Sequence": {
          "id": "B",
          "type_id": 0
        }
      },
      {
        "SpecialToken": {
          "id": "[SEP]",
          "type_id": 0
        }
      }
    ],
    "special_tokens": {
      "[CLS]": {
        "id": "[CLS]",
        "ids": [
          1
        ],
        "tokens": [
          "[CLS]"
        ]
      },
      "[MASK]": {
        "id": "[MASK]",
        "ids": [
          4
        ],
        "tokens": [
          "[MASK]"
        ]
      },
      "[PAD]": {
        "id": "[PAD]",
        "ids": [
          3
        ],
        "tokens": [
          "[PAD]"
        ]
      },
      "[SEP]": {
        "id": "[SEP]",
        "ids": [
          2
        ],
        "tokens": [
          "[SEP]"
        ]
      },
      "[UNK]": {
        "id": "[UNK]",
        "ids": [
          0
        ],
        "tokens": [
          "[UNK]"
        ]
      }
    }
  },
  "decoder": {
    "type": "WordPiece",
    "prefix": "##",
    "cleanup": true
  },
  "model": {
    "type": "WordPiece",
    "unk_token": "[UNK]",
    "continuing_subword_prefix": "##",
    "max_input_chars_per_word": 200,
    "vocab": {
      "[UNK]": 0,
      "[CLS]": 1,
      "[SEP]": 2,
      "[PAD]": 3,
      "[MASK]": 4,
      " ": 5,
      "!": 6,
      ",": 7,
      ".": 8,
      "?": 9,
      "ఁ": 10,
      "ం": 11,
      "ః": 12,
      "అ": 13,
      "ఆ": 14,
      "ఇ": 15,
      "ఈ": 16,
      "ఉ": 17,
      "ఊ": 18,
      "ఋ": 19,
      "ఎ": 20,
      "ఏ": 21,
      "ఐ": 22,
      "ఒ": 23,
      "ఓ": 24,
      "ఔ": 25,
      "క": 26,
      "ఖ": 27,
      "గ": 28,
      "ఘ": 29,
      "ఙ": 30,
      "చ": 31,
      "ఛ": 32,
      "జ": 33,
      "ఝ": 34,
      "ఞ": 35,
      "ట": 36,
      "ఠ": 37,
      "డ": 38,
      "ఢ": 39,
      "ణ": 40,
      "త": 41,
      "థ": 42,
      "ద": 43,
      "ధ": 44,
      "న": 45,
      "ప": 46,
      "ఫ": 47,
      "బ": 48,
      "భ": 49,
      "మ": 50,
      "య": 51,
      "ర": 52,
      "ఱ": 53,
      "ల": 54,
      "ళ": 55,
      "ఴ": 56,
      "వ": 57,
      "శ": 58,
      "ష": 59,
      "స": 60,
      "హ": 61,
      "ఽ": 62,
      "ా": 63,
      "ి": 64,
      "ీ": 65,
      "ు": 66,
      "ూ": 67,
      "ృ": 68,
      "ౄ": 69,
      "ె": 70,
      "ే": 71,
      "ై": 72,
      "ొ": 73,
      "ో": 74,
      "ౌ": 75,
      "్": 76,
      "ౘ": 77,
      "ౢ": 78,
      "౦": 79,
      "౧": 80,
      "౪": 81,
      "౫": 82,
      "౯": 83,
      "##ు": 84,
      "##ద": 85,
      "##్": 86,
      "##ధ": 87,
      "##ా": 88,
      "##ల": 89,
      "##ో": 90,
      "##,": 91,
      "##ర": 92,
      "##జ": 93,
      "##ీ": 94,
      "##గ": 95,
      "##త": 96,
      "##న": 97,
      "##ే": 98,
      "##క": 99,
      "##ణ": 100,
      "##ూ": 101,
      "##ొ": 102,
      "##య": 103,
      "##ి": 104,
      "##శ": 105,
      "##.": 106,
      "##ె": 107,
      "##ట": 108,
      "##ౌ": 109,
      "##వ": 110,
      "##ం": 111,
      "##డ": 112,
      "##చ": 113,
      "##ై": 114,
      "##ప": 115,
      "##మ": 116,
      "##థ": 117,
      "##హ": 118,
      "##భ": 119,
      "##ళ": 120,
      "##స": 121,
      "##ఎ": 122,
      "##ఫ": 123,
      "##ష": 124,
      "##బ": 125,
      "##ఇ": 126,
      "##ృ": 127,
      "##ఖ": 128,
      "##ఘ": 129,
      "##?": 130,
      "##ఐ": 131,
      "##అ": 132,
      "##ఉ": 133,
      "##ఠ": 134,
      "##ః": 135,
      "##ఆ": 136,
      "##ఁ": 137,
      "##ఛ": 138,
      "##ఞ": 139,
      "##ఈ": 140,
      "##ఒ": 141,
      "##!": 142,
      "##ఋ": 143,
      "##ఢ": 144,
      "##ఏ": 145,
      "##ఱ": 146,
      "##ఓ": 147,
      "##ౢ": 148,
      "##ఔ": 149,
      "##ఙ": 150,
      "##ఝ": 151,
      "##౦": 152,
      "##ౄ": 153,
      "##ఊ": 154,
      "##౯": 155,
      "##౫": 156,
      "##ఽ": 157,
      "##ఴ": 158,
      "##౪": 159,
      "##ౘ": 160,
      "##్ర": 161,
      "##్య": 162,
      "##ార": 163,
      "##ి.": 164,
      "##లో": 165,
      "##న్": 166,
      "##ంద": 167,
      "##ాల": 168,
      "##ని": 169,
      "##ర్": 170,
      "##స్": 171,
      "##్రా": 172,
      "##డి": 173,
      "##ంలో": 174,
      "##న్న": 175,
      "##ాయ": 176,
      "##క్": 177,
      "##లు": 178,
      "##్రామ": 179,
      "##ిం": 180,
      "గ్రామ": 181,
      "##ంది.": 182,
      "##ు.": 183,
      "##రు": 184,
      "ప్ర": 185,
      "##ుం": 186,
      "##ల్": 187,
      "##త్": 188,
      "##కు": 189,
      "##మీ": 190,
      "##కి": 191,
      "##ట్": 192,
      "##గా": 193,
      "వి": 194,
      "##ను": 195,
      "నుం": 196,
      "##ాయి.": 197,
      "నుండి": 198,
      "ఉన్న": 199,
      "##ించ": 200,
      "##ిక": 201,
      "##తు": 202,
      "##ాలు": 203,
      "##ూర": 204,
      "##గు": 205,
      "##కర": 206,
      "సం": 207,
      "##డు": 208,
      "ఉన్నాయి.": 209,
      "##డ్": 210,
      "దూర": 211,
      "##తి": 212,
      "కి.": 213,
      "##టి": 214,
      "##రి": 215,
      "##ద్య": 216,
      "దూరంలో": 217,
      "##లి": 218,
      "గ్రామం": 219,
      "కి.మీ": 220,
      "##ం,": 221,
      "##ార్": 222,
      "ఉంది.": 223,
      "కి.మీ.": 224,
      "##ాం": 225,
      "##ారు.": 226,
      "##ాని": 227,
      "##టు": 228,
      "##ిన": 229,
      "లో": 230,
      "##శాల": 231,
      "##్వ": 232,
      "సౌ": 233,
      "##ాడ": 234,
      "##కర్య": 235,
      "##తో": 236,
      "సౌకర్య": 237,
      "##సు": 238,
      "##ేంద": 239,
      "చే": 240,
      "##పు": 241,
      "##ారి": 242,
      "##మా": 243,
      "##త్ర": 244,
      "##ేంద్ర": 245,
      "పా": 246,
      "వ్య": 247,
      "కేంద్ర": 248,
      "గ్రామంలో": 249,
      "##ద్": 250,
      "##ానికి": 251,
      "##ంట": 252,
      "##వా": 253,
      "##ంగా": 254,
      "##రా": 255,
      "##ాన": 256,
      "##గ్": 257,
      "##వు": 258,
      "##ండ": 259,
      "##ల్ల": 260,
      "##ైన": 261,
      "ని": 262,
      "రా": 263,
      "##ాడు.": 264,
      "##ది": 265,
      "##క్ష": 266,
      "##ంది": 267,
      "##ోగ": 268,
      "##డా": 269,
      "##వి": 270,
      "పో": 271,
      "##ుత్": 272,
      "వ్యవ": 273,
      "##ప్": 274,
      "##స్థ": 275,
      "వై": 276,
      "##మీప": 277,
      "##వే": 278,
      "##బడి": 279,
      "##ష్": 280,
      "##ారా": 281,
      "##బ్": 282,
      "##స్త": 283,
      "##ము": 284,
      "##రుగు": 285,
      "ప్రా": 286,
      "##నే": 287,
      "##న్ని": 288,
      "##స్తు": 289,
      "##మ్": 290,
      "సా": 291,
      "ము": 292,
      "##ారు": 293,
      "స్": 294,
      "వైద్య": 295,
      "సమీప": 296,
      "ఒక": 297,
      "##ేద": 298,
      "##ెం": 299,
      "విద్య": 300,
      "##సి": 301,
      "##మి": 302,
      "##నా": 303,
      "##ంత": 304,
      "##ిల్ల": 305,
      "కొ": 306,
      "సౌకర్యం": 307,
      "##చ్": 308,
      "నీ": 309,
      "##క్క": 310,
      "చె": 311,
      "కు": 312,
      "##ధ్య": 313,
      "ప్రభ": 314,
      "##ారం": 315,
      "##చి": 316,
      "కూ": 317,
      "##ఖ్య": 318,
      "##ందు": 319,
      "పాఠ": 320,
      "మొ": 321,
      "పై": 322,
      "##త్త": 323,
      "##టీ": 324,
      "##దు": 325,
      "ద్వ": 326,
      "పాఠశాల": 327,
      "##ించి": 328,
      "##ుత్వ": 329,
      "##బడిన": 330,
      "##మిక": 331,
      "ప్రభుత్వ": 332,
      "##మె": 333,
      "##్యా": 334,
      "కో": 335,
      "##ేశ": 336,
      "##ంగ": 337,
      "జిల్ల": 338,
      "సి": 339,
      "కేంద్రం,": 340,
      "కళ": 341,
      "##నీ": 342,
      "ద్వారా": 343,
      "కూడా": 344,
      "##నియ": 345,
      "##సర": 346,
      "కళా": 347,
      "సర": 348,
      "##ెట్": 349,
      "పైబడిన": 350,
      "కి.మీ.కి": 351,
      "##మైన": 352,
      "##ీసు": 353,
      "##సాయ": 354,
      "రో": 355,
      "##క్ట": 356,
      "మా": 357,
      "##యం": 358,
      "సౌకర్యాలు": 359,
      "లేద": 360,
      "కళాశాల": 361,
      "##ూర్": 362,
      "##్రీ": 363,
      "##గి": 364,
      "తె": 365,
      "జిల్లా": 366,
      "##తా": 367,
      "##ద్ధ": 368,
      "##హి": 369,
      "##జు": 370,
      "##ింగ్": 371,
      "వ్యవసాయ": 372,
      "సరఫ": 373,
      "##ను,": 374,
      "సంఖ్య": 375,
      "##ళ్": 376,
      "కి": 377,
      "ఆర": 378,
      "మార్": 379,
      "##ీయ": 380,
      "##్యాం": 381,
      "##పా": 382,
      "##్యూ": 383,
      "మూ": 384,
      "##ష్ట": 385,
      "కా": 386,
      "వా": 387,
      "##థమిక": 388,
      "##త్య": 389,
      "##లు,": 390,
      "భార": 391,
      "##ేష": 392,
      "పు": 393,
      "##లా": 394,
      "##శు": 395,
      "ప్రాథమిక": 396,
      "##నూ": 397,
      "##ోగ్య": 398,
      "సామా": 399,
      "జన": 400,
      "##హద": 401,
      "ఆరోగ్య": 402,
      "##ివ": 403,
      "##దల": 404,
      "##పి": 405,
      "గ్రామానికి": 406,
      "##ైవే": 407,
      "##లలో": 408,
      "రహద": 409,
      "##కా": 410,
      "వ్యవస్థ": 411,
      "##త్తి": 412,
      "రహదారి": 413,
      "##యా": 414,
      "##ఫీసు": 415,
      "##భా": 416,
      "##ట్ట": 417,
      "డి": 418,
      "కార": 419,
      "##చ్చ": 420,
      "##ైవేటు": 421,
      "##ధాన": 422,
      "##స్ట": 423,
      "లేదు.": 424,
      "##సం": 425,
      "##బా": 426,
      "సరఫరా": 427,
      "వె": 428,
      "ప్రైవేటు": 429,
      "##క్కు": 430,
      "నిర్": 431,
      "భారత": 432,
      "కేంద్రం": 433,
      "##ణా": 434,
      "##ప్ప": 435,
      "##ంచ": 436,
      "##ద్ద": 437,
      "పొ": 438,
      "##త్రి": 439,
      "##లను": 440,
      "ఉత్": 441,
      "##ండల": 442,
      "##్రి": 443,
      "##రణ": 444,
      "విద్యా": 445,
      "##తుంది.": 446,
      "నా": 447,
      "గు": 448,
      "##ేవ": 449,
      "##న్నారు.": 450,
      "##తోంది.": 451,
      "మీ": 452,
      "నీరు": 453,
      "##ాల్": 454,
      "స్వ": 455,
      "మండల": 456,
      "##జిక": 457,
      "బ్యాం": 458,
      "సహ": 459,
      "##ోన్": 460,
      "##ేషన్": 461,
      "అత": 462,
      "##న్నాయి.": 463,
      "తి": 464,
      "భూ": 465,
      "సామాజిక": 466,
      "చి": 467,
      "మూల": 468,
      "##కె": 469,
      "##ణి": 470,
      "##ాత": 471,
      "శి": 472,
      "ఇది": 473,
      "ప్రధాన": 474,
      "##ష్ట్ర": 475,
      "విద్యుత్": 476,
      "ఆమె": 477,
      "కార్య": 478,
      "##ాలను": 479,
      "##క్కువ": 480,
      "టె": 481,
      "##ఫ్": 482,
      "##ంటే": 483,
      "##ుల": 484,
      "రాజ": 485,
      "వీ": 486,
      "పరి": 487,
      "##యి": 488,
      "సిని": 489,
      "##దేశ": 490,
      "భా": 491,
      "##ించిన": 492,
      "ఇం": 493,
      "##య్య": 494,
      "అభ": 495,
      "తన": 496,
      "##ాయి": 497,
      "##డం": 498,
      "రాష్ట్ర": 499,
      "లోపు": 500,
      "అనే": 501,
      "##స్తుంది.": 502,
      "##ేక": 503,
      "మూలాలు": 504,
      "##ద్ధి": 505,
      "కింది": 506,
      "##రీ": 507,
      "పం": 508,
      "అందు": 509,
      "##వాత": 510,
      "##స్సు": 511,
      "జరుగు": 512,
      "అవ": 513,
      "##సిన": 514,
      "##ాలు,": 515,
      "##ల్లి": 516,
      "ఇత": 517,
      "బా": 518,
      "##క్షణ": 519,
      "##రకు": 520,
      "ఎక్కువ": 521,
      "##ైల్": 522,
      "##ైన్": 523,
      "##చార": 524,
      "##ించాడు.": 525,
      "##కో": 526,
      "##వారి": 527,
      "రోజు": 528,
      "##సరాల": 529,
      "మురుగు": 530,
      "##జి": 531,
      "స్థ": 532,
      "##పతి": 533,
      "##ర్త": 534,
      "మురుగునీ": 535,
      "##శా": 536,
      "##లకు": 537,
      "##ల్లో": 538,
      "సే": 539,
      "ఉప": 540,
      "##ెడ": 541,
      "ప్రక": 542,
      "##ల్డ్": 543,
      "##ించారు.": 544,
      "##జ్య": 545,
      "సినిమా": 546,
      "##మ్మ": 547,
      "ఆట": 548,
      "ఇంట": 549,
      "##యన": 550,
      "##ర్థ": 551,
      "బాల": 552,
      "వే": 553,
      "##గణ": 554,
      "##పో": 555,
      "##కాల": 556,
      "పారి": 557,
      "##స్ట్": 558,
      "జనా": 559,
      "పాటు": 560,
      "##వల": 561,
      "జనాభా": 562,
      "##ెన్": 563,
      "స్ట": 564,
      "##ోగం": 565,
      "##తం": 566,
      "##ంధ": 567,
      "పోష": 568,
      "##లీ": 569,
      "##లిక్": 570,
      "##లోను,": 571,
      "##డ్డి": 572,
      "పె": 573,
      "##ప్ర": 574,
      "##హా": 575,
      "##లోని": 576,
      "నే": 577,
      "ప్రాంత": 578,
      "##చే": 579,
      "కంటే": 580,
      "##వం": 581,
      "##స్తారు.": 582,
      "ఉత్ప": 583,
      "##లతో": 584,
      "##ర్శ": 585,
      "##కం": 586,
      "##జీ": 587,
      "##పూర్": 588,
      "##రం": 589,
      "వినియ": 590,
      "##బ్లిక్": 591,
      "##ళ్ళ": 592,
      "నీటి": 593,
      "చేయ": 594,
      "##జ్": 595,
      "పర": 596,
      "టెలి": 597,
      "##ూరు": 598,
      "శా": 599,
      "##వాణా": 600,
      "##ింగు": 601,
      "తా": 602,
      "##ాతీయ": 603,
      "కలి": 604,
      "సమ": 605,
      "##ందిన": 606,
      "##గణన": 607,
      "##రిగి": 608,
      "##సుప": 609,
      "జనగణన": 610,
      "రవాణా": 611,
      "బ్యాంకు": 612,
      "షెడ": 613,
      "##ప్పు": 614,
      "షెడ్యూ": 615,
      "పథ": 616,
      "రూ": 617,
      "ఆసుప": 618,
      "సు": 619,
      "బస్సు": 620,
      "రోడ్": 621,
      "##ుకు": 622,
      "##డానికి": 623,
      "ఆసుపత్రి": 624,
      "పబ్లిక్": 625,
      "షెడ్యూల్డ్": 626,
      "వినియోగం": 627,
      "##ర్లు": 628,
      "మార్కె": 629,
      "మార్కెట": 630,
      "కోసం": 631,
      "ఉండ": 632,
      "పాల": 633,
      "##రంగ": 634,
      "మే": 635,
      "గ్ర": 636,
      "##స్టా": 637,
      "వాణి": 638,
      "పారిశు": 639,
      "ఉన్నారు.": 640,
      "పారిశుధ్య": 641,
      "##డు,": 642,
      "గంట": 643,
      "##కృ": 644,
      "##్యు": 645,
      "##ాన్": 646,
      "##టిక": 647,
      "మి": 648,
      "ఇతర": 649,
      "వైద్యశాల": 650,
      "##నం": 651,
      "వాణిజ్య": 652,
      "ఫోన్": 653,
      "వారం": 654,
      "అం": 655,
      "ఉత్పత్తి": 656,
      "తరు": 657,
      "##రించి": 658,
      "##ాలలో": 659,
      "అని": 660,
      "##ించే": 661,
      "##పై": 662,
      "మరణ": 663,
      "ఆఫీసు": 664,
      "##స్టాఫీసు": 665,
      "##యోగ": 666,
      "కళాశాల,": 667,
      "మొదల": 668,
      "పోస్టాఫీసు": 669,
      "సమా": 670,
      "సౌకర్యం,": 671,
      "ఆసుపత్రి,": 672,
      "##టర్": 673,
      "##ాండ్": 674,
      "కె": 675,
      "పే": 676,
      "ఆర్": 677,
      "దీ": 678,
      "##ోద": 679,
      "##ంగ్": 680,
      "##ైద": 681,
      "##కొ": 682,
      "గణ": 683,
      "వాడ": 684,
      "##బ్బ": 685,
      "##తున్నాయి.": 686,
      "##నరు": 687,
      "గంటల": 688,
      "##ాలయ": 689,
      "సంస్థ": 690,
      "##ుంబ": 691,
      "##దే": 692,
      "బి": 693,
      "##్రమ": 694,
      "##వత్": 695,
      "##సా": 696,
      "##ించింది.": 697,
      "##ర్వ": 698,
      "##ానం": 699,
      "డా": 700,
      "తరువాత": 701,
      "##డుగు": 702,
      "ప్రత్య": 703,
      "చెందిన": 704,
      "##గ్రీ": 705,
      "##ర్మ": 706,
      "మీ.": 707,
      "పని": 708,
      "లే": 709,
      "##రియ": 710,
      "##గిన": 711,
      "జీ": 712,
      "వ్యవసాయానికి": 713,
      "##క్షి": 714,
      "పట్ట": 715,
      "##కార": 716,
      "##ెక్": 717,
      "పార్": 718,
      "##జా": 719,
      "##ధిక": 720,
      "జూ": 721,
      "##ృద్ధి": 722,
      "##ట్టు": 723,
      "మొదలైన": 724,
      "##స్తున్నారు.": 725,
      "##పే": 726,
      "అను": 727,
      "డిగ్రీ": 728,
      "##రాల": 729,
      "##ట్స్": 730,
      "##ీ,": 731,
      "గో": 732,
      "##ుండా": 733,
      "ఒకటి": 734,
      "కార్యక": 735,
      "##గం": 736,
      "##వర్": 737,
      "కం": 738,
      "##ంలోని": 739,
      "జాతీయ": 740,
      "##ాలయం": 741,
      "విస్త": 742,
      "కుట": 743,
      "##ివృద్ధి": 744,
      "##యో": 745,
      "గణాం": 746,
      "##వులు": 747,
      "ఆయన": 748,
      "డాక్ట": 749,
      "యు": 750,
      "ప్రకారం": 751,
      "##మో": 752,
      "##త్తం": 753,
      "వృ": 754,
      "శ్రీ": 755,
      "##మెం": 756,
      "##ెస్": 757,
      "కుటుంబ": 758,
      "##యన్": 759,
      "అమ": 760,
      "పి": 761,
      "ప్రత్యేక": 762,
      "##పల్లి": 763,
      "అభివృద్ధి": 764,
      "##ీకర": 765,
      "రె": 766,
      "కాల": 767,
      "మొద": 768,
      "##చు": 769,
      "ఆడ": 770,
      "వారి": 771,
      "సంవత్": 772,
      "##గ్ర": 773,
      "తిరిగి": 774,
      "##గల": 775,
      "చూ": 776,
      "చేసి": 777,
      "హె": 778,
      "విధ": 779,
      "##రో": 780,
      "##లంగా": 781,
      "##ట్టి": 782,
      "ఉంది": 783,
      "రహదారి,": 784,
      "##ుంట": 785,
      "చేసిన": 786,
      "##త్రిక": 787,
      "సంఘ": 788,
      "##పం": 789,
      "##ౌర": 790,
      "కాలు": 791,
      "##లోనూ": 792,
      "బ్యాంకు,": 793,
      "##హార": 794,
      "సహాయ": 795,
      "##ేమ": 796,
      "##పాద": 797,
      "##న్య": 798,
      "##ైల్వే": 799,
      "జరుగుతోంది.": 800,
      "##ర్న": 801,
      "##ారీ": 802,
      "రైల్వే": 803,
      "##టికీ": 804,
      "##ొక్క": 805,
      "##వహి": 806,
      "రెం": 807,
      "పట్టణ": 808,
      "##కులు": 809,
      "కోడ్": 810,
      "##కృత": 811,
      "##్రిక": 812,
      "నగ": 813,
      "అస": 814,
      "##దా": 815,
      "##ొక": 816,
      "##ధి": 817,
      "##రిక": 818,
      "##ంథ": 819,
      "జరి": 820,
      "##ాప": 821,
      "గృ": 822,
      "##న్నిక": 823,
      "##శ్వ": 824,
      "పంపి": 825,
      "వార్": 826,
      "తాగు": 827,
      "దేశ": 828,
      "అంత": 829,
      "##టిని": 830,
      "##డ్డ": 831,
      "##వుల": 832,
      "##కెట్": 833,
      "ఎన్నిక": 834,
      "##లుగు": 835,
      "చిత్ర": 836,
      "మధ్య": 837,
      "భూమి": 838,
      "##కల్": 839,
      "##యిన": 840,
      "మె": 841,
      "సంత": 842,
      "గ్రంథ": 843,
      "తెలంగా": 844,
      "##ైటీ": 845,
      "##బో": 846,
      "హి": 847,
      "##ులు": 848,
      "##తీ": 849,
      "బహి": 850,
      "రీ": 851,
      "కుల": 852,
      "##బరు": 853,
      "##నికి": 854,
      "##డాది": 855,
      "అతను": 856,
      "ఏడాది": 857,
      "##్ల": 858,
      "##ాలా": 859,
      "తెలంగాణ": 860,
      "రచ": 861,
      "##త్తు": 862,
      "##ం.": 863,
      "అవు": 864,
      "బో": 865,
      "##స్ప": 866,
      "యొక్క": 867,
      "సొ": 868,
      "##ారంభ": 869,
      "ది": 870,
      "##నాయ": 871,
      "##ట్ల": 872,
      "వచ్చ": 873,
      "##సీ": 874,
      "అందుతుంది.": 875,
      "అండ్": 876,
      "అంగ": 877,
      "ప్రతి": 878,
      "##త్యా": 879,
      "##ారుదల": 880,
      "##న్నాడు.": 881,
      "స్టేషన్": 882,
      "పొడుగు": 883,
      "బహిరంగ": 884,
      "##సమీప": 885,
      "వం": 886,
      "##చ్చి": 887,
      "వృత్తి": 888,
      "ప్రారంభ": 889,
      "పాఠశాలలు": 890,
      "పొడుగునా": 891,
      "బృ": 892,
      "##మే": 893,
      "విజ": 894,
      "ప్రవహి": 895,
      "విధంగా": 896,
      "గా": 897,
      "వరకు": 898,
      "##హ్": 899,
      "##న్నత": 900,
      "మం": 901,
      "##క్తి": 902,
      "పోల": 903,
      "##ఫె": 904,
      "సె": 905,
      "సాధ": 906,
      "చేతి": 907,
      "ముందు": 908,
      "##ణ,": 909,
      "##డింగ్": 910,
      "##్యం": 911,
      "##నియర్": 912,
      "##వర": 913,
      "సీ": 914,
      "పూర్": 915,
      "##ణం": 916,
      "విన": 917,
      "చేశ": 918,
      "జిల్లా,": 919,
      "కాగా": 920,
      "లోని": 921,
      "##పాల": 922,
      "మాధ్య": 923,
      "##గుల": 924,
      "వస్తు": 925,
      "ప్రవహిస్తుంది.": 926,
      "ట్రా": 927,
      "కాలువల": 928,
      "##ైన్స్": 929,
      "బృంద": 930,
      "శిక్షణ": 931,
      "మొదటి": 932,
      "పథకం": 933,
      "ఏర్": 934,
      "మురుగునీరు": 935,
      "ఉం": 936,
      "##క్కడ": 937,
      "అధిక": 938,
      "##ణీ": 939,
      "జీవి": 940,
      "తీ": 941,
      "##లం": 942,
      "##సన": 943,
      "దా": 944,
      "విస్తరించి": 945,
      "పార్టీ": 946,
      "హెక్ట": 947,
      "దు": 948,
      "మాధ్యమిక": 949,
      "##న్నా": 950,
      "కుమ": 951,
      "##షి": 952,
      "పాకి": 953,
      "##లవ": 954,
      "పౌర": 955,
      "సంర": 956,
      "ఆఫ్": 957,
      "##నిక్": 958,
      "సైన్స్": 959,
      "సంఘం": 960,
      "జనన": 961,
      "మైద": 962,
      "పశు": 963,
      "ఫి": 964,
      "రెండు": 965,
      "##తే": 966,
      "##సభ": 967,
      "సేకర": 968,
      "మగ": 969,
      "పక్క": 970,
      "##గొ": 971,
      "విద్యుత్తు": 972,
      "##ద్ర": 973,
      "##మెంటు": 974,
      "##గో": 975,
      "స్వయం": 976,
      "##బి": 977,
      "##ధుల": 978,
      "##ంది,": 979,
      "##రు.": 980,
      "##సైటీ": 981,
      "సొసైటీ": 982,
      "నమో": 983,
      "##దొ": 984,
      "ఉత్త": 985,
      "గణాంకాల": 986,
      "##టెక్": 987,
      "##పత్రిక": 988,
      "##షధ": 989,
      "సంక్ష": 990,
      "నిమి": 991,
      "నమోదు": 992,
      "ఆర్ట్స్": 993,
      "##గ్రా": 994,
      "సేవా": 995,
      "ఔషధ": 996,
      "##ుడు": 997,
      "మంది": 998,
      "సహకార": 999,
      "సమాచార": 1000,
      "టి.": 1001,
      "దివ": 1002,
      "##పూర్ణ": 1003,
      "హెక్టార్": 1004,
      "మహ": 1005,
      "సమీ": 1006,
      "సామాన్య": 1007,
      "భారతదేశ": 1008,
      "వార్తా": 1009,
      "##ప్పుడు": 1010,
      "##మ్నాయ": 1011,
      "తెగల": 1012,
      "పున": 1013,
      "కులాల": 1014,
      "##డే": 1015,
      "కార్యకర్త": 1016,
      "చాలా": 1017,
      "##ోన్నత": 1018,
      "వినోద": 1019,
      "ఇళ్": 1020,
      "మేనే": 1021,
      "శిశు": 1022,
      "కార్యాలయం": 1023,
      "ఆటో": 1024,
      "సంక్షేమ": 1025,
      "జరుగుతుంది.": 1026,
      "##త్యామ్నాయ": 1027,
      "##బడింది.": 1028,
      "##ర్నెట్": 1029,
      "సంరక్షణ": 1030,
      "##లతో,": 1031,
      "సహాయక": 1032,
      "మరుగు": 1033,
      "ప్రత్యామ్నాయ": 1034,
      "లోను,": 1035,
      "మగవారి": 1036,
      "##లవు": 1037,
      "ప్రాథమికోన్నత": 1038,
      "సబ్": 1039,
      "బ్యాంక": 1040,
      "బాలల": 1041,
      "మార్కెటింగ్": 1042,
      "జనాభాతో": 1043,
      "##పాదక": 1044,
      "వార్తాపత్రిక": 1045,
      "పేరు": 1046,
      "ఆరోగ్యం,": 1047,
      "హెక్టార్లలో": 1048,
      "##డు.": 1049,
      "ఆడవారి": 1050,
      "వనరు": 1051,
      "గ్రామం.": 1052,
      "జూనియర్": 1053,
      "పార": 1054,
      "లైన్": 1055,
      "##శ్": 1056,
      "ఇంటర్నెట్": 1057,
      "మరుగుదొ": 1058,
      "##ింగు,": 1059,
      "నిమిత్తం": 1060,
      "సమాచార,": 1061,
      "ఆశా": 1062,
      "సరఫరాల": 1063,
      "ఆటల": 1064,
      "##టర్ల": 1065,
      "మరణాల": 1066,
      "##ొకేషన్": 1067,
      "రీడింగ్": 1068,
      "పోలింగ్": 1069,
      "లొకేషన్": 1070,
      "##ఫోన్": 1071,
      "తర": 1072,
      "పంట": 1073,
      "పోషణ,": 1074,
      "పారిశుధ్యం": 1075,
      "వాడీ": 1076,
      "లేదా": 1077,
      "బ్యాంకింగు": 1078,
      "మార్కెటింగు,": 1079,
      "పాలీ": 1080,
      "##పుల": 1081,
      "##టీఎ": 1082,
      "మాతా": 1083,
      "సంపూర్ణ": 1084,
      "##బైల్": 1085,
      "##రియర్": 1086,
      "అంగన్": 1087,
      "కాం": 1088,
      "##ష్ణ": 1089,
      "అలో": 1090,
      "##వసరాల": 1091,
      "నిర్మ": 1092,
      "కెఫె": 1093,
      "##ీకరణ": 1094,
      "##లుప": 1095,
      "పోస్ట్": 1096,
      "##టెక్నిక్": 1097,
      "ఇళ్లతో,": 1098,
      "అనియ": 1099,
      "టెలిఫోన్": 1100,
      "ఆల": 1101,
      "##డికల్": 1102,
      "కొరియర్": 1103,
      "మొబైల్": 1104,
      "##ట్లు": 1105,
      "పంపిణీ": 1106,
      "##దులు": 1107,
      "##్యాంగుల": 1108,
      "ట్రాక్ట": 1109,
      "##్యాస్": 1110,
      "జరిగిన": 1111,
      "పక్కనే": 1112,
      "సంచార": 1113,
      "బయోగ": 1114,
      "##కాహార": 1115,
      "అనేక": 1116,
      "గృహా": 1117,
      "వ్యర్థ": 1118,
      "ఉత్పాదక": 1119,
      "మైదానం": 1120,
      "దివ్యాంగుల": 1121,
      "అనియత": 1122,
      "రోడ్లు,": 1123,
      "##స్పెన్": 1124,
      "సేకరించే": 1125,
      "గృహావసరాల": 1126,
      "నె": 1127,
      "##ది.": 1128,
      "డాక్టర్లు": 1129,
      "పాలీటెక్నిక్": 1130,
      "పోషకాహార": 1131,
      "పద": 1132,
      "వంటి": 1133,
      "సమీకృత": 1134,
      "వ్యర్థాలను": 1135,
      "##ింటికీ": 1136,
      "##బ్లీ": 1137,
      "పరపతి": 1138,
      "మరుగుదొడ్డి": 1139,
      "##త్తను": 1140,
      "సభ": 1141,
      "వీధుల": 1142,
      "కంకర": 1143,
      "బయోగ్యాస్": 1144,
      "కేంద్రమైన": 1145,
      "##టుంది.": 1146,
      "చేస": 1147,
      "సిబ్బ": 1148,
      "ఇంటింటికీ": 1149,
      "##టీఎమ్": 1150,
      "డిస్పెన్": 1151,
      "అలోపతి": 1152,
      "డిస్పెన్సర": 1153,
      "##బోస్తారు.": 1154,
      "##గ్రాఫ్": 1155,
      "పారబోస్తారు.": 1156,
      "##వహ": 1157,
      "మార్కెట్": 1158,
      "##పంచ": 1159,
      "##ెంబ్లీ": 1160,
      "టెలిగ్రాఫ్": 1161,
      "జా": 1162,
      "##జిమెంటు": 1163,
      "##ినీ": 1164,
      "##్యవ": 1165,
      "కిలో": 1166,
      "మురుగునీటిని": 1167,
      "##కం,": 1168,
      "ఇంజ": 1169,
      "మేనేజిమెంటు": 1170,
      "లాండ్": 1171,
      "##రింగ్": 1172,
      "పారా": 1173,
      "##ాయిల": 1174,
      "ఏటీఎమ్": 1175,
      "##బాద్": 1176,
      "సంగ": 1177,
      "##స్థాన్": 1178,
      "అసెంబ్లీ": 1179,
      "కథ": 1180,
      "చెత్తను": 1181,
      "తెలుగు": 1182,
      "దూరం": 1183,
      "నుంచి": 1184,
      "చేతిపం": 1185,
      "చేస్తున్నారు.": 1186,
      "అమలవు": 1187,
      "##రే": 1188,
      "అమలవుతోంది.": 1189,
      "ప్రజ": 1190,
      "క్రిక": 1191,
      "##ంప": 1192,
      "పట్టణమైన": 1193,
      "##డిగా": 1194,
      "దీని": 1195,
      "##మెడికల్": 1196,
      "రూం": 1197,
      "పారామెడికల్": 1198,
      "లిం": 1199,
      "వర్": 1200,
      "##వరి": 1201,
      "తీసు": 1202,
      "##లో,": 1203,
      "##ాలకు": 1204,
      "కిలోమీ": 1205,
      "##పారుదల": 1206,
      "నీటిపారుదల": 1207,
      "దే": 1208,
      "అంద": 1209,
      "అవసరాల": 1210,
      "##రంలో": 1211,
      "##వారీ": 1212,
      "##రిత్ర": 1213,
      "##దేశ్": 1214,
      "##ాలయం,": 1215,
      "సంవత్సర": 1216,
      "శాసన": 1217,
      "ఇంజనీ": 1218,
      "కృ": 1219,
      "రోజుకు": 1220,
      "పంటలు": 1221,
      "##ాన్ని": 1222,
      "ముఖ్య": 1223,
      "##కూ": 1224,
      "##ేందుకు": 1225,
      "##ేది.": 1226,
      "రోజువారీ": 1227,
      "టెలిఫోన్,": 1228,
      "కుళ": 1229,
      "పథకం,": 1230,
      "డిస్పెన్సరీ,": 1231,
      "అన": 1232,
      "##వీ": 1233,
      "వస్తువులు": 1234,
      "##ెడ్డి": 1235,
      "తర్": 1236,
      "విశ్వ": 1237,
      "##ంతో": 1238,
      "ఆధ": 1239,
      "దర్శ": 1240,
      "ప్రపంచ": 1241,
      "నట": 1242,
      "##్యవస్థ": 1243,
      "వల": 1244,
      "దూరంలోనూ": 1245,
      "తొ": 1246,
      "పెద్ద": 1247,
      "##రుగా": 1248,
      "వనరుల": 1249,
      "##యంలో": 1250,
      "నిర్వహ": 1251,
      "కుళాయిల": 1252,
      "##వ్వ": 1253,
      "##స్తూ": 1254,
      "కొత్త": 1255,
      "##త్వ": 1256,
      "చేసు": 1257,
      "నిర్మా": 1258,
      "##ాల్లో": 1259,
      "దేవ": 1260,
      "##కీయ": 1261,
      "పరిశ": 1262,
      "భాగ": 1263,
      "##బంధ": 1264,
      "తిరుగు": 1265,
      "కిలోమీటర్ల": 1266,
      "అత్య": 1267,
      "##ంధ్ర": 1268,
      "చేతిపంపుల": 1269,
      "చరిత్ర": 1270,
      "##బు": 1271,
      "శు": 1272,
      "##్రో": 1273,
      "కలిగి": 1274,
      "##ర్య": 1275,
      "##గే": 1276,
      "వ్యవసాయానికి,": 1277,
      "అయిన": 1278,
      "ఇంజనీరింగ్": 1279,
      "##స్త్ర": 1280,
      "ఆఫీసు,": 1281,
      "నాయ": 1282,
      "పాఠశాల,": 1283,
      "రాజకీయ": 1284,
      "గ్రంథాలయం,": 1285,
      "ఏటీఎమ్,": 1286,
      "గుండా": 1287,
      "కొన్ని": 1288,
      "వారు": 1289,
      "##యు": 1290,
      "పాకిస్థాన్": 1291,
      "పునర్వ": 1292,
      "తర్వాత": 1293,
      "##ణంగా": 1294,
      "అవుతున్నాయి.": 1295,
      "పునర్వ్యవస్థ": 1296,
      "##కోవ": 1297,
      "తో": 1298,
      "##లే": 1299,
      "##న్మ": 1300,
      "వెలుప": 1301,
      "కొరకు": 1302,
      "సో": 1303,
      "##పె": 1304,
      "పునర్వ్యవస్థీకరణ": 1305,
      "##శం": 1306,
      "##పాటు": 1307,
      "అతని": 1308,
      "క్రికెట్": 1309,
      "ఆంధ్ర": 1310,
      "దక్షి": 1311,
      "##ించబ": 1312,
      "##ార్థ": 1313,
      "లం": 1314,
      "ఉంట": 1315,
      "ఉండేది.": 1316,
      "భాష": 1317,
      "బస్సులు": 1318,
      "##ంద్ర": 1319,
      "##డిన": 1320,
      "##ట్లో": 1321,
      "##మం": 1322,
      "##ర్చ": 1323,
      "##వ్": 1324,
      "##ాలి": 1325,
      "##బాటు": 1326,
      "బృందం,": 1327,
      "##దర్శ": 1328,
      "రి": 1329,
      "##హం": 1330,
      "##ర్బ": 1331,
      "##తులు": 1332,
      "వెలుపలి": 1333,
      "##గ్గు": 1334,
      "ప్రాంతాల": 1335,
      "##ంగా,": 1336,
      "##్రే": 1337,
      "##లాండ్": 1338,
      "పనిచే": 1339,
      "##కాలు": 1340,
      "దాని": 1341,
      "##గర్": 1342,
      "##ములు": 1343,
      "మార్కెట్,": 1344,
      "రెండ": 1345,
      "బాలబడి": 1346,
      "తమ": 1347,
      "మొదలైనవి": 1348,
      "శాసనసభ": 1349,
      "గ్రామాల": 1350,
      "##న్స్": 1351,
      "చెప్ప": 1352,
      "హాలు,": 1353,
      "##న్,": 1354,
      "అధ్య": 1355,
      "సిబ్బంది": 1356,
      "##రాజు": 1357,
      "##క్టో": 1358,
      "మంచ": 1359,
      "##తున్నారు.": 1360,
      "అయి": 1361,
      "జన్మ": 1362,
      "మీద": 1363,
      "##పేట": 1364,
      "రూప": 1365,
      "సాం": 1366,
      "##ెల్": 1367,
      "ను": 1368,
      "##హ్మ": 1369,
      "వరి": 1370,
      "వద్ద": 1371,
      "ఉంటుంది.": 1372,
      "సంగీ": 1373,
      "క్": 1374,
      "##ానీ": 1375,
      "జిల్లాల": 1376,
      "కల": 1377,
      "సూ": 1378,
      "##కే": 1379,
      "లేరు.": 1380,
      "##కర్": 1381,
      "##గ్రామ": 1382,
      "రోడ్లు": 1383,
      "##ూరి": 1384,
      "ఇద్ద": 1385,
      "##తంగా": 1386,
      "##టా": 1387,
      "##టికి": 1388,
      "ఉపయోగ": 1389,
      "తారు": 1390,
      "##ార్డు": 1391,
      "##స్య": 1392,
      "మహి": 1393,
      "##వన": 1394,
      "##గా,": 1395,
      "అక్టో": 1396,
      "చిన్న": 1397,
      "##కెలు": 1398,
      "నేరుగా": 1399,
      "గొ": 1400,
      "న్యూ": 1401,
      "లక్ష": 1402,
      "##ారు,": 1403,
      "శాల": 1404,
      "##ల్లోకి": 1405,
      "##ాండ": 1406,
      "##ెట్ట": 1407,
      "యుద్ధ": 1408,
      "లంకెలు": 1409,
      "విడు": 1410,
      "హైద": 1411,
      "కేంద్రాలు,": 1412,
      "##త్వం": 1413,
      "##ీల": 1414,
      "##ర్జ": 1415,
      "##విద్య": 1416,
      "వ్యవసాయం": 1417,
      "మహిళ": 1418,
      "##మెరిక": 1419,
      "##క్షిత": 1420,
      "ఉద్య": 1421,
      "రే": 1422,
      "వ్యా": 1423,
      "గె": 1424,
      "##వచ్చ": 1425,
      "##ాలని": 1426,
      "వచ్చి": 1427,
      "లోనూ": 1428,
      "వెం": 1429,
      "పూర్తి": 1430,
      "విడుదల": 1431,
      "##కుండా": 1432,
      "##స్టు": 1433,
      "రంగ": 1434,
      "##నల్": 1435,
      "##ించడానికి": 1436,
      "##స్తున్న": 1437,
      "లభ": 1438,
      "##పట్": 1439,
      "##య్యాడు.": 1440,
      "మో": 1441,
      "సై": 1442,
      "కార్": 1443,
      "క్రీ": 1444,
      "శుద్ధి": 1445,
      "హైదరా": 1446,
      "##బ్ద": 1447,
      "##ముఖ": 1448,
      "కే": 1449,
      "##ించు": 1450,
      "మంచినీ": 1451,
      "బయ": 1452,
      "రక్షిత": 1453,
      "వదులు": 1454,
      "##తిని": 1455,
      "అమెరిక": 1456,
      "##ఎస్": 1457,
      "##వేశ": 1458,
      "గుర్త": 1459,
      "చివ": 1460,
      "ధర్మ": 1461,
      "మన": 1462,
      "భారతీయ": 1463,
      "లింకులు": 1464,
      "తిరుగుతున్నాయి.": 1465,
      "మంచినీటి": 1466,
      "##..": 1467,
      "##ించడం": 1468,
      "పాత్ర": 1469,
      "ప్ల": 1470,
      "బె": 1471,
      "యా": 1472,
      "##ండ్రి": 1473,
      "##యోజ": 1474,
      "##శాఖ": 1475,
      "ఇదే": 1476,
      "##ుండ": 1477,
      "##ప్రా": 1478,
      "చేసింది.": 1479,
      "సభ్యు": 1480,
      "బ్రి": 1481,
      "మాత్ర": 1482,
      "మండలంలో": 1483,
      "ఇండి": 1484,
      "మ్యా": 1485,
      "లా": 1486,
      "##బీ": 1487,
      "రాష్ట్రం,": 1488,
      "విజయ": 1489,
      "అభి": 1490,
      "వదులుతున్నారు.": 1491,
      "అక్టోబరు": 1492,
      "లేని": 1493,
      "జలవ": 1494,
      "పాట": 1495,
      "పోటీ": 1496,
      "పుర": 1497,
      "జలవనరు": 1498,
      "యూ": 1499,
      "ఉన్నాయి.సమీప": 1500,
      "జలవనరుల్లోకి": 1501,
      "##ను.": 1502,
      "##రుష": 1503,
      "ఒకటి,": 1504,
      "బ్ర": 1505,
      "##బర్": 1506,
      "ఇద్దరు": 1507,
      "##తున్న": 1508,
      "నాట": 1509,
      "మర": 1510,
      "##నిక": 1511,
      "##గ్గ": 1512,
      "లె": 1513,
      "##ేవ్": 1514,
      "రామ": 1515,
      "##పర": 1516,
      "##తుల": 1517,
      "కాంగ్ర": 1518,
      "##బాటులో": 1519,
      "సంస్": 1520,
      "ముగ్గు": 1521,
      "##జన్": 1522,
      "##బ్ర": 1523,
      "సంవత్సరాల": 1524,
      "##కుంట": 1525,
      "##రువు": 1526,
      "వివా": 1527,
      "##తూ": 1528,
      "##మిళ": 1529,
      "అందుబాటులో": 1530,
      "##ర్లున్నాయి.": 1531,
      "సంబంధ": 1532,
      "##విధ": 1533,
      "వాడేందుకు": 1534,
      "చేశాడు.": 1535,
      "ట్రాక్టర్లున్నాయి.": 1536,
      "##లిం": 1537,
      "##సే": 1538,
      "స్థాప": 1539,
      "అతి": 1540,
      "అవార్డు": 1541,
      "సమయంలో": 1542,
      "పురుష": 1543,
      "##ప్రదేశ్": 1544,
      "##తన": 1545,
      "##న్ను": 1546,
      "అన్న": 1547,
      "##టం": 1548,
      "సాహి": 1549,
      "జట్టు": 1550,
      "##దాయ": 1551,
      "అర్": 1552,
      "పూ": 1553,
      "##స్,": 1554,
      "లో,": 1555,
      "స్త్ర": 1556,
      "##ోధ": 1557,
      "##కుని": 1558,
      "##రియా": 1559,
      "వెళ్ళ": 1560,
      "పునర్వ్యవస్థీకరణకు": 1561,
      "హింద": 1562,
      "##త్స": 1563,
      "##బాదు": 1564,
      "##వె": 1565,
      "##మై": 1566,
      "##త్మ": 1567,
      "##రావు": 1568,
      "రై": 1569,
      "##డ్ల": 1570,
      "రచన": 1571,
      "చు": 1572,
      "##ెర్": 1573,
      "రాజు": 1574,
      "##ేదు.": 1575,
      "తయ": 1576,
      "##రూ": 1577,
      "##డీ": 1578,
      "##ాయ్": 1579,
      "##ింపు": 1580,
      "##ెడ్": 1581,
      "##ద్దు": 1582,
      "##ణు": 1583,
      "##ించబడింది.": 1584,
      "బోరు": 1585,
      "కను": 1586,
      "క్రి": 1587,
      "##ేశ్వ": 1588,
      "సంద": 1589,
      "##తిక": 1590,
      "##చ్చా": 1591,
      "అక్కడ": 1592,
      "##మార్": 1593,
      "##కుల": 1594,
      "తమిళ": 1595,
      "బీ": 1596,
      "కలిసి": 1597,
      "##సారి": 1598,
      "##ళ్ల": 1599,
      "మూడు": 1600,
      "##యే": 1601,
      "##స్వా": 1602,
      "##కున్న": 1603,
      "విశ్వవిద్య": 1604,
      "##ల్లె": 1605,
      "ఒకరు": 1606,
      "మంచి": 1607,
      "శతా": 1608,
      "##లువ": 1609,
      "విష": 1610,
      "కర్": 1611,
      "##ర్ర": 1612,
      "సినిమ": 1613,
      "నగర": 1614,
      "##పురం": 1615,
      "మొత్తం": 1616,
      "తెలి": 1617,
      "ఉత్తర": 1618,
      "దక్షిణ": 1619,
      "కని": 1620,
      "ముగ్గురు": 1621,
      "ఇందు": 1622,
      "##ారులు": 1623,
      "రెండవ": 1624,
      "బు": 1625,
      "##ూడ": 1626,
      "ప్రముఖ": 1627,
      "ఇంగ్": 1628,
      "జీవిత": 1629,
      "అప్ప": 1630,
      "##లై": 1631,
      "##కట": 1632,
      "వివిధ": 1633,
      "##ైనా": 1634,
      "బావుల": 1635,
      "అల్": 1636,
      "##చేశ": 1637,
      "##భాగ": 1638,
      "సంత,": 1639,
      "వచ్చిన": 1640,
      "రచయి": 1641,
      "వరి,": 1642,
      "తండ్రి": 1643,
      "##చేవ్": 1644,
      "##మని": 1645,
      "##క్ర": 1646,
      "##పీ": 1647,
      "గురించి": 1648,
      "నాలు": 1649,
      "ఇక్కడ": 1650,
      "##హు": 1651,
      "విశాఖ": 1652,
      "ఏర్పాటు": 1653,
      "బోరుబా": 1654,
      "##జ్ఞ": 1655,
      "ఇవి": 1656,
      "పాత": 1657,
      "గోర్బ": 1658,
      "##యోజక": 1659,
      "మ్యాచ్": 1660,
      "##ారెడ్డి": 1661,
      "##ింత": 1662,
      "నియోజక": 1663,
      "బొ": 1664,
      "వహ": 1665,
      "సాధార": 1666,
      "పరుగు": 1667,
      "కాంగ్రెస్": 1668,
      "గోర్బచేవ్": 1669,
      "##ర్కొ": 1670,
      "స్థాన": 1671,
      "విశాఖపట్": 1672,
      "విశ": 1673,
      "ప్రభుత్వం": 1674,
      "##పురంలో": 1675,
      "ఏర్ప": 1676,
      "జీవితం": 1677,
      "నియోజకవర్": 1678,
      "##దు.": 1679,
      "శాస్త్ర": 1680,
      "వైద్యశాల,": 1681,
      "బహిరంగంగా,": 1682,
      "కచ్చా": 1683,
      "మాన": 1684,
      "##ాంటి": 1685,
      "పొంద": 1686,
      "పోతోంది.": 1687,
      "కౌ": 1688,
      "కానీ": 1689,
      "మహా": 1690,
      "అంతర్జ": 1691,
      "ఎమ్": 1692,
      "ప్రస్తు": 1693,
      "సామ": 1694,
      "అభ్య": 1695,
      "తొలి": 1696,
      "హై": 1697,
      "##కుడు": 1698,
      "##పాడు": 1699,
      "శతాబ్ద": 1700,
      "అధ్యక్ష": 1701,
      "##ందని": 1702,
      "##వాడ": 1703,
      "##ములో": 1704,
      "కార్యక్రమ": 1705,
      "పాల్": 1706,
      "##ీర్": 1707,
      "##ంలోను,": 1708,
      "దుకా": 1709,
      "##టో": 1710,
      "అంట": 1711,
      "##వి.": 1712,
      "వ్యక్తి": 1713,
      "చేశారు.": 1714,
      "##తారు.": 1715,
      "##ాలతో": 1716,
      "స్వా": 1717,
      "ఆంధ్రప్రదేశ్": 1718,
      "కాని": 1719,
      "##ికా": 1720,
      "##పల్లిలో": 1721,
      "కుమారు": 1722,
      "##నె": 1723,
      "##వరణ": 1724,
      "##క్స్": 1725,
      "ఇందులో": 1726,
      "వార": 1727,
      "##డుతుంది.": 1728,
      "మండలంలోని": 1729,
      "పంజా": 1730,
      "కుమార్": 1731,
      "అంతర్జాతీయ": 1732,
      "##పున": 1733,
      "##ిగా": 1734,
      "పరిశోధ": 1735,
      "సేవ": 1736,
      "టీ": 1737,
      "##తలు": 1738,
      "##వాస": 1739,
      "నిర్మాణ": 1740,
      "కేంద్రంలో": 1741,
      "వయ": 1742,
      "##మన": 1743,
      "##క్కల": 1744,
      "పురా": 1745,
      "సాహిత్య": 1746,
      "##పద": 1747,
      "##ాంత": 1748,
      "మండలానికి": 1749,
      "భావ": 1750,
      "అయితే": 1751,
      "##ర్,": 1752,
      "ఉంటాయి.": 1753,
      "శాఖ": 1754,
      "సంగీత": 1755,
      "పనిచేశ": 1756,
      "ప్రవేశ": 1757,
      "##ర్భ": 1758,
      "వర": 1759,
      "అలా": 1760,
      "##ధు": 1761,
      "##ధీ": 1762,
      "##ని,": 1763,
      "ప్రసి": 1764,
      "వలన": 1765,
      "అల": 1766,
      "గి": 1767,
      "##పర్": 1768,
      "డాక్టరు": 1769,
      "సర్": 1770,
      "నియ": 1771,
      "కొంత": 1772,
      "తీసుకు": 1773,
      "నూ": 1774,
      "నిలి": 1775,
      "కొన": 1776,
      "##పూ": 1777,
      "##త్మక": 1778,
      "ఫ్ర": 1779,
      "లేక": 1780,
      "##ద్వ": 1781,
      "కన్నా": 1782,
      "##తాయి.": 1783,
      "##ాయు": 1784,
      "##ెంబరు": 1785,
      "##ాతం": 1786,
      "ఆర్థ": 1787,
      "##ెట్టి": 1788,
      "పురస్": 1789,
      "బోరుబావుల": 1790,
      "అన్ని": 1791,
      "ఆది": 1792,
      "శివ": 1793,
      "##చుకు": 1794,
      "##ాయణ": 1795,
      "##రిగింది.": 1796,
      "##డ్డాయి.": 1797,
      "దేశాల": 1798,
      "##కారం": 1799,
      "##డవ": 1800,
      "##షన్": 1801,
      "కేంద్రాలు": 1802,
      "నివ": 1803,
      "##డంతో": 1804,
      "పంచ": 1805,
      "##గిరి": 1806,
      "ఆధార": 1807,
      "##టెడ్": 1808,
      "హైదరాబాదు": 1809,
      "ప్లాం": 1810,
      "ప్రదర్శ": 1811,
      "చివరి": 1812,
      "##ా,": 1813,
      "##ోర్": 1814,
      "##భవ": 1815,
      "##ళ్ళు": 1816,
      "మాత్రమే": 1817,
      "హా": 1818,
      "నాలుగు": 1819,
      "సము": 1820,
      "##కీ": 1821,
      "##ఫీ": 1822,
      "##ము,": 1823,
      "##సింది.": 1824,
      "తు": 1825,
      "ప్రభా": 1826,
      "అది": 1827,
      "##తె": 1828,
      "ఎంప": 1829,
      "##నై": 1830,
      "##శ్చి": 1831,
      "లి": 1832,
      "గణాంకాలు": 1833,
      "##మెంట్": 1834,
      "దర్శక": 1835,
      "కారణంగా": 1836,
      "##ప్పటికీ": 1837,
      "పిల్ల": 1838,
      "మండలం": 1839,
      "ట్రాక్టరు": 1840,
      "దీనిని": 1841,
      "కృష్ణ": 1842,
      "కమ": 1843,
      "ప్రచు": 1844,
      "##ముల": 1845,
      "నాగ": 1846,
      "కాలంలో": 1847,
      "క్ష": 1848,
      "కొనసా": 1849,
      "తూర్": 1850,
      "##త్రా": 1851,
      "##లుగా": 1852,
      "##స్తా": 1853,
      "##ఫ్రిక": 1854,
      "##ాలి.": 1855,
      "##ెంట్": 1856,
      "శాల,": 1857,
      "ఆర్థిక": 1858,
      "తే": 1859,
      "నార": 1860,
      "పీ": 1861,
      "గృహ": 1862,
      "##గ్రామంలో": 1863,
      "వెంకట": 1864,
      "##ీన": 1865,
      "##ఆర్": 1866,
      "##ించుకు": 1867,
      "మార్చి": 1868,
      "రచయిత": 1869,
      "స్థి": 1870,
      "విభ": 1871,
      "పాల్గొ": 1872,
      "వల్ల": 1873,
      "##ల్ప": 1874,
      "వ్యాప": 1875,
      "##ందింది.": 1876,
      "వాటి": 1877,
      "తిరు": 1878,
      "చేసుకు": 1879,
      "##స్లో": 1880,
      "##డికి": 1881,
      "##ప్రదాయ": 1882,
      "మై": 1883,
      "##ంలోనూ": 1884,
      "వివర": 1885,
      "##మాన": 1886,
      "##స్థి": 1887,
      "ప్రకట": 1888,
      "వు": 1889,
      "##ధాని": 1890,
      "##యర్": 1891,
      "లోపే": 1892,
      "##వచ్చు.": 1893,
      ",,": 1894,
      "పశ్చి": 1895,
      "##క్రమ": 1896,
      "##పిన్": 1897,
      "##గూడ": 1898,
      "##నకు": 1899,
      "##క్త": 1900,
      "##స్తాయి.": 1901,
      "మురుగునీటి": 1902,
      "పాండ": 1903,
      "పుస్త": 1904,
      "ప్రయ": 1905,
      "##ించి,": 1906,
      "##పోయ": 1907,
      "బ్రిటి": 1908,
      "చంద్ర": 1909,
      "అమెరికా": 1910,
      "వీరి": 1911,
      "హిందూ": 1912,
      "అభ్యర్థ": 1913,
      "గాం": 1914,
      "జో": 1915,
      "##లోకి": 1916,
      "చేర": 1917,
      "##పోయి": 1918,
      "##గ్రహ": 1919,
      "చిత్రం": 1920,
      "తల్లి": 1921,
      "##ప్ట": 1922,
      "మట్టి": 1923,
      "##యట్": 1924,
      "##శి": 1925,
      "##వంత": 1926,
      "##నాడు": 1927,
      "మొక్క": 1928,
      "నేను": 1929,
      "##ట్లోకి": 1930,
      "పలు": 1931,
      "బ్యా": 1932,
      "తెలు": 1933,
      "ఇండియా": 1934,
      "ఎదు": 1935,
      "##ండి": 1936,
      "##ండ్": 1937,
      "ఆలయ": 1938,
      "##రుకు": 1939,
      "కావ": 1940,
      "జనవరి": 1941,
      "అతడు": 1942,
      "ఎంపిక": 1943,
      "అమ్మ": 1944,
      "తక్కువ": 1945,
      "సరి": 1946,
      "##మారు": 1947,
      "##కరణ": 1948,
      "పెం": 1949,
      "##లు.": 1950,
      "అత్యంత": 1951,
      "ఇచ్చ": 1952,
      "##ల్య": 1953,
      "##డం,": 1954,
      "##మతి": 1955,
      "##ృత్య": 1956,
      "##ాలుగా": 1957,
      "బయటి": 1958,
      "అర": 1959,
      "##కల": 1960,
      "##కుం": 1961,
      "##స్తాడు.": 1962,
      "ప్లాంట్లోకి": 1963,
      "బౌ": 1964,
      "##కారు": 1965,
      "తాగునీ": 1966,
      "పర్వ": 1967,
      "బహు": 1968,
      "##జన": 1969,
      "##బూ": 1970,
      "##డింది.": 1971,
      "##ల్,": 1972,
      "అనేది": 1973,
      "పంపిస్తున్నారు.": 1974,
      "సూర": 1975,
      "##నగర్": 1976,
      "##షణ": 1977,
      "##ప్పి": 1978,
      "తూర్పు": 1979,
      "రం": 1980,
      "##నలు": 1981,
      "##టన్": 1982,
      "మంత్రి": 1983,
      "##జే": 1984,
      "##టకు": 1985,
      "##తిలో": 1986,
      "కలిగిన": 1987,
      "బాలబడి,": 1988,
      "ఆగ": 1989,
      "బెం": 1990,
      "##ిస్తుంది.": 1991,
      "సమస్య": 1992,
      "విశేష": 1993,
      "ఓడి": 1994,
      "సర్వ": 1995,
      "##దీ": 1996,
      "##న్సి": 1997,
      "స్త్రీ": 1998,
      "ఆసి": 1999,
      "కవి": 2000,
      "సత్య": 2001,
      "##్యుడు": 2002,
      "వివాహం": 2003,
      "అయ్య": 2004,
      "పారుదల": 2005,
      "##ానిక": 2006,
      "మార్గ": 2007,
      "##మంత్రి": 2008,
      "##మంది": 2009,
      "విద్యార్థ": 2010,
      "ప్రజలు": 2011,
      "బ్రా": 2012,
      "శాలలో": 2013,
      "##టక": 2014,
      "##ుండి": 2015,
      ".పిన్": 2016,
      "అదే": 2017,
      "##మూ": 2018,
      "##కొండ": 2019,
      "సోవి": 2020,
      "ఐదు": 2021,
      "దృ": 2022,
      "##డిని": 2023,
      "##చింది.": 2024,
      "##ద్రా": 2025,
      "##రై": 2026,
      "సిద్ధ": 2027,
      "ప్రయత్": 2028,
      "బల": 2029,
      "సింగ్": 2030,
      "##్లా": 2031,
      "##ొంద": 2032,
      "##ల్స్": 2033,
      "వికెట్": 2034,
      "ప్రస్తుతం": 2035,
      "జరిగింది.": 2036,
      "##లేదు.": 2037,
      "##రేక": 2038,
      "##ోత్స": 2039,
      "##ేట": 2040,
      "##ొన్న": 2041,
      "జిల్లాలో": 2042,
      "పేర్కొ": 2043,
      "##గొండ": 2044,
      "తయారు": 2045,
      "పశ్చిమ": 2046,
      "##లోపు": 2047,
      "గ్రామాలు": 2048,
      "ప్రొ": 2049,
      "తరపున": 2050,
      "పురుషుల": 2051,
      "##ళిక": 2052,
      "##లియన్": 2053,
      "అంటారు.": 2054,
      "##డియో": 2055,
      "కమి": 2056,
      "##ర్స్": 2057,
      "మహారా": 2058,
      "##గత": 2059,
      "నిజ": 2060,
      "అందుకు": 2061,
      "మహిళల": 2062,
      "##ర్చు": 2063,
      "వ్యతి": 2064,
      "ఆలయం": 2065,
      "చదు": 2066,
      "##ేట్": 2067,
      "##మన్": 2068,
      "కి.మీ.లోపు": 2069,
      "##వేత్త": 2070,
      "ప్రాంతంలో": 2071,
      "పర్యా": 2072,
      "అభిమన": 2073,
      "ఎత్తు": 2074,
      "క్ర": 2075,
      "సిం": 2076,
      "##టానికి": 2077,
      "##ాడే": 2078,
      "##ారావు": 2079,
      "పరిధి": 2080,
      "##ప్రి": 2081,
      "##స్తాన్": 2082,
      "చెరువు": 2083,
      "##శ్ర": 2084,
      "అధికార": 2085,
      "##ేశ్వర": 2086,
      "##రె": 2087,
      "##సన్": 2088,
      "విధాన": 2089,
      "ఎన్నికలలో": 2090,
      "##హ్మణ": 2091,
      "నియోజకవర్గం": 2092,
      "సోవియట్": 2093,
      "##ించబడిన": 2094,
      "కొండ": 2095,
      "##యాన్ని": 2096,
      "లక్ష్": 2097,
      "అల్జీ": 2098,
      "##పల్లె": 2099,
      "##్యుల": 2100,
      "##వేరా": 2101,
      "##మ్ము": 2102,
      "##త్తులు": 2103,
      "నృత్య": 2104,
      "##ము.": 2105,
      "చేప": 2106,
      "##కొని": 2107,
      "అక్ష": 2108,
      "నది": 2109,
      "శక్తి": 2110,
      "##సర్": 2111,
      "##్యాల": 2112,
      "ప్రదేశ": 2113,
      "##ల్లు": 2114,
      "ఫ్రా": 2115,
      "##రప": 2116,
      "##ఫి": 2117,
      "##క్కి": 2118,
      "నాటికి": 2119,
      "##పోవ": 2120,
      "దాదా": 2121,
      "కనిప": 2122,
      "చది": 2123,
      "##వై": 2124,
      "##త్రం": 2125,
      "ఇంటర్": 2126,
      "వ్యతిరేక": 2127,
      "చో": 2128,
      "##డి,": 2129,
      "##ిల్లీ": 2130,
      "నాయకు": 2131,
      "సముద్ర": 2132,
      "ఎస్": 2133,
      "భీ": 2134,
      "హో": 2135,
      "##రెడ్డి": 2136,
      "వీరు": 2137,
      "నేప": 2138,
      "దాదాపు": 2139,
      "పెట్ట": 2140,
      "సృ": 2141,
      "##వ్ర": 2142,
      "##చె": 2143,
      "##తులకు": 2144,
      "##వాన్ని": 2145,
      "గువేరా": 2146,
      "ఎక్కువగా": 2147,
      "##టి.": 2148,
      "##ర్ల": 2149,
      "##క్ష్": 2150,
      "చేయడానికి": 2151,
      "వచ్చింది.": 2152,
      "డే": 2153,
      "డె": 2154,
      "దొ": 2155,
      "##ళం": 2156,
      "##బాల": 2157,
      "##్యాయ": 2158,
      "ఉంది.సమీప": 2159,
      "##స్తే": 2160,
      "నాణ": 2161,
      "అవసర": 2162,
      "విశాఖపట్నం": 2163,
      "##ఫ్రికా": 2164,
      "అవి": 2165,
      "##జెక్": 2166,
      "ప్రమా": 2167,
      "##ద్ది": 2168,
      "మాజీ": 2169,
      "పిలు": 2170,
      "##స్వామి": 2171,
      "ఎమ్మె": 2172,
      "మారి": 2173,
      "##దన": 2174,
      "##తమైన": 2175,
      "విమ": 2176,
      "తరువాత,": 2177,
      "జూలై": 2178,
      "జాబి": 2179,
      "అడుగు": 2180,
      "##న,": 2181,
      "##షు": 2182,
      "ప్రే": 2183,
      "##ార్లు": 2184,
      "##్యాన్ని": 2185,
      "జన్మించాడు.": 2186,
      "స్థానంలో": 2187,
      "ఇలా": 2188,
      "ఒక్క": 2189,
      "కన్న": 2190,
      "నై": 2191,
      "##తను": 2192,
      "నిర": 2193,
      "రావ": 2194,
      "చేసే": 2195,
      "భాగంగా": 2196,
      "ప్రజా": 2197,
      "##పోయిన": 2198,
      "రెడ్డి": 2199,
      "నగర్": 2200,
      "బ్రిటిష్": 2201,
      "కీ": 2202,
      "##టింగ్": 2203,
      "##వాద": 2204,
      "##నియన్": 2205,
      "##ేవారు.": 2206,
      "సుమారు": 2207,
      "జూన్": 2208,
      "సాధారణంగా": 2209,
      "జి": 2210,
      "వరంగ": 2211,
      "##ందీ": 2212,
      "##గిలి": 2213,
      "వాడు": 2214,
      "ఉండే": 2215,
      "యునై": 2216,
      "మహబూ": 2217,
      "##బ్రవరి": 2218,
      "గల": 2219,
      "డై": 2220,
      "దో": 2221,
      "వేద": 2222,
      "##ైంది.": 2223,
      "##మయ్య": 2224,
      "##ించా": 2225,
      "##ల్లూరు": 2226,
      "కాకుండా": 2227,
      "భార్య": 2228,
      "రాజా": 2229,
      "కన": 2230,
      "చా": 2231,
      "##చిన": 2232,
      "##ాయం": 2233,
      "లభిస్తుంది.": 2234,
      "##ల్యే": 2235,
      "ఏప్రి": 2236,
      "##పరి": 2237,
      "##పియన్": 2238,
      "డిస": 2239,
      "యునైటెడ్": 2240,
      "అన్నాడు.": 2241,
      "ఈమె": 2242,
      "భౌ": 2243,
      "ఏక": 2244,
      "##డైన": 2245,
      "##ింప": 2246,
      "నివాస": 2247,
      "ప్రాజెక్": 2248,
      "##నియా": 2249,
      "ఫిబ్రవరి": 2250,
      "అలాగే": 2251,
      "రు": 2252,
      "స్టేషన్,": 2253,
      "తల": 2254,
      "మత": 2255,
      "##ణాలు": 2256,
      "##బడు": 2257,
      "##ారాన్ని": 2258,
      "సౌకర్యాలున్నాయి.": 2259,
      "రాజ్య": 2260,
      "చేయని": 2261,
      "కెరీ": 2262,
      "పనిచేశాడు.": 2263,
      "విమర్శ": 2264,
      "జెర్": 2265,
      "లీ": 2266,
      "##నలో": 2267,
      "##ల్లా": 2268,
      "సంవత్సరం": 2269,
      "నటించిన": 2270,
      "పరిశ్రమ": 2271,
      "యుద్ధం": 2272,
      "పరుగులు": 2273,
      "నవం": 2274,
      "##తర": 2275,
      "పర్య": 2276,
      "బృందం": 2277,
      "##షనల్": 2278,
      "##ెట్టు": 2279,
      "గురు": 2280,
      "రోడ్డు": 2281,
      "శ్రీకా": 2282,
      "వారికి": 2283,
      "అత్యధిక": 2284,
      "క్రమ": 2285,
      "ద్ర": 2286,
      "##జర్": 2287,
      "##నాథ": 2288,
      "ద్వీ": 2289,
      "వలస": 2290,
      "లెక్కల": 2291,
      "విశ్వవిద్యాలయ": 2292,
      "కెరీర్": 2293,
      "ఇవ్వ": 2294,
      "తప్ప": 2295,
      "పత్రిక": 2296,
      "##రస": 2297,
      "##బడ": 2298,
      "విడి": 2299,
      "##సులో": 2300,
      "##వాడు": 2301,
      "ముస్": 2302,
      "##ేషనల్": 2303,
      "పండి": 2304,
      "భారతదేశంలో": 2305,
      "##డ్లూ": 2306,
      "సందర్భ": 2307,
      "ఉద": 2308,
      "##భూ": 2309,
      "##షా": 2310,
      "ప్రయా": 2311,
      "##ించాయి.": 2312,
      "నిర్ణ": 2313,
      "స్థాయి": 2314,
      "##రోడ్లూ": 2315,
      "యూని": 2316,
      "మట్టిరోడ్లూ": 2317,
      "ఆస్ట": 2318,
      "జల": 2319,
      "##డంలో": 2320,
      "##తి,": 2321,
      "పోతున్నాయి.": 2322,
      "##డండి": 2323,
      "కాలువ": 2324,
      "చేసాడు.": 2325,
      "ఇండ": 2326,
      "##తికి": 2327,
      "అవుతోంది.": 2328,
      "సీత": 2329,
      "ఉత్తమ": 2330,
      "అర్జు": 2331,
      "అంటే": 2332,
      "డెన్": 2333,
      "దగ్గ": 2334,
      "రాయ": 2335,
      "##నగ": 2336,
      "ప్రత్తి": 2337,
      "చేరి": 2338,
      "స్ప": 2339,
      "చూడండి": 2340,
      "నగరం": 2341,
      "గుర్తింపు": 2342,
      "నియమ": 2343,
      "పద్": 2344,
      "మరో": 2345,
      "##లిక": 2346,
      "విభాగ": 2347,
      "##లియా": 2348,
      "##ోదా": 2349,
      "కాలం": 2350,
      "తీవ్ర": 2351,
      "కుమార్తె": 2352,
      "చదువు": 2353,
      "అక": 2354,
      "##ారని": 2355,
      "##గానే": 2356,
      "##త్రు": 2357,
      "స్వాతం": 2358,
      "అవకా": 2359,
      "జాబితా": 2360,
      "వస": 2361,
      "ఆడాడు.": 2362,
      "అనంత": 2363,
      "##త్వంలో": 2364,
      "తాగునీరు": 2365,
      "అడ": 2366,
      "ఆల్": 2367,
      "న్యాయ": 2368,
      "##కు,": 2369,
      "##చ్ఛ": 2370,
      "వెళ్": 2371,
      "బాధ్య": 2372,
      "గెలు": 2373,
      "వయస్సు": 2374,
      "మహబూబ్": 2375,
      "##్లో": 2376,
      "##మూర్": 2377,
      "##టిలో": 2378,
      "##పల్లిలోను,": 2379,
      "బెంగ": 2380,
      "జెర్సీ": 2381,
      "ఒప్ప": 2382,
      "చారి": 2383,
      "ఫలి": 2384,
      "భర్త": 2385,
      "##క్టర్": 2386,
      "మిగిలి": 2387,
      "ఎన్": 2388,
      "ఎలా": 2389,
      "క్ల": 2390,
      "నో": 2391,
      "మార": 2392,
      "సైన": 2393,
      "##చాడు.": 2394,
      "ప్రదేశ్": 2395,
      "##నుడు": 2396,
      "ఉన్నత": 2397,
      "##ష్ఠ": 2398,
      "##ాయి,": 2399,
      "##యనగ": 2400,
      "ముఖ్యమైన": 2401,
      "శ్రీకాకు": 2402,
      "స్వాతంత్ర": 2403,
      "జం": 2404,
      "లలో": 2405,
      "ప్రేమ": 2406,
      "మాట": 2407,
      "సెప్ట": 2408,
      "విషయ": 2409,
      "అధ్యక్షు": 2410,
      "కరీ": 2411,
      "##విజన్": 2412,
      "భారత్": 2413,
      "##్రియ": 2414,
      "విజయనగ": 2415,
      "సెంట": 2416,
      "ఎమ్మెల్యే": 2417,
      "డెన్మార్": 2418,
      "నేషనల్": 2419,
      "ఫస్ట్": 2420,
      "లు": 2421,
      "వ్రా": 2422,
      "##జం": 2423,
      "##నంద": 2424,
      "##ెర": 2425,
      "##పెట్ట": 2426,
      "##రుస": 2427,
      "లోక్": 2428,
      "##యిర్": 2429,
      "##ికాగో": 2430,
      "##తల": 2431,
      "##ళి": 2432,
      "##ానా": 2433,
      "##వులు,": 2434,
      "##స్తుంట": 2435,
      "పరిస్థి": 2436,
      "స్థానిక": 2437,
      "చూడ": 2438,
      "##ఎస్.": 2439,
      "కనుక": 2440,
      "ఆరు": 2441,
      "ఇన్": 2442,
      "గానం": 2443,
      "జయ": 2444,
      "నార్": 2445,
      "##టిక్": 2446,
      "జిల్లాలోని": 2447,
      "వీర": 2448,
      "టై": 2449,
      "సగ": 2450,
      "##దారు": 2451,
      "##త,": 2452,
      "##నాల": 2453,
      "ప్రాంతం": 2454,
      "##కృష్ణ": 2455,
      "చూసి": 2456,
      "సీజన్": 2457,
      "దర్శకత్వం": 2458,
      "ఆగస్టు": 2459,
      "హాలు": 2460,
      "##తాడు.": 2461,
      "##వుడు": 2462,
      "##లాస్": 2463,
      "భాగం": 2464,
      "బాగా": 2465,
      "##పెనీ": 2466,
      "దక్షిణా": 2467,
      "దశ": 2468,
      "వన్": 2469,
      "షా": 2470,
      "##ేఖ": 2471,
      "##శ్రమ": 2472,
      "##సవ": 2473,
      "సిరీ": 2474,
      "రెండు,": 2475,
      "సామ్రా": 2476,
      "కుమారుడు": 2477,
      "ఎల": 2478,
      "నటు": 2479,
      "పద్ధ": 2480,
      "##ణ్": 2481,
      "వాతా": 2482,
      "పొందిన": 2483,
      "##్యుని": 2484,
      "కంపెనీ": 2485,
      "అల్జీరియా": 2486,
      "ఆస్ట్రే": 2487,
      "అర్థ": 2488,
      "##తాన్ని": 2489,
      "రాజధాని": 2490,
      "బోర్": 2491,
      "గాంధీ": 2492,
      "##లూరు": 2493,
      "##మొ": 2494,
      "ఉన్నాడు.": 2495,
      "##ధ్యం": 2496,
      "నెల": 2497,
      "ప్రజల": 2498,
      "హైదరాబాద్": 2499,
      "విజయవాడ": 2500,
      "కమ్యూ": 2501,
      "##టే": 2502,
      "##ప్యూ": 2503,
      "##నీయ": 2504,
      "పేరుతో": 2505,
      "స్వామి": 2506,
      "నారాయణ": 2507,
      "వున్న": 2508,
      "లై": 2509,
      "శరీ": 2510,
      "హైటీ": 2511,
      "##నో": 2512,
      "##నర్": 2513,
      "##సె": 2514,
      "కి.మీ,": 2515,
      "##ోగ్ర": 2516,
      "స్నే": 2517,
      "పరిచ": 2518,
      "మరణం": 2519,
      "ఎన్నికల్లో": 2520,
      "చేసారు.": 2521,
      "అనకా": 2522,
      "గెలి": 2523,
      "డెన్మార్క్": 2524,
      "ఢిల్లీ": 2525,
      "##పొ": 2526,
      "##హీ": 2527,
      "##భు": 2528,
      "##ాలీ": 2529,
      "##ూరో": 2530,
      "##కేతిక": 2531,
      "గొప్ప": 2532,
      "ప్రసిద్ధి": 2533,
      "ఫ్రెం": 2534,
      "ఏప్రిల్": 2535,
      "గెలుచుకు": 2536,
      "పడ": 2537,
      "కోట": 2538,
      "జిల్లాలో,": 2539,
      "##ప్పటిక": 2540,
      "నిర్మించిన": 2541,
      "##పోయింది.": 2542,
      "జ్": 2543,
      "బం": 2544,
      "##రల్": 2545,
      "##స్త్రి": 2546,
      "సంపాద": 2547,
      "##మానా": 2548,
      "##క్కడి": 2549,
      "చెయ్య": 2550,
      "అతడి": 2551,
      "పరిపాల": 2552,
      "యువ": 2553,
      "సాంకేతిక": 2554,
      "విశ్వవిద్యాలయం": 2555,
      "##నాలు": 2556,
      "##హర": 2557,
      "##ర్చి": 2558,
      "##రుపు": 2559,
      "##పుర": 2560,
      "వైపు": 2561,
      "కాక": 2562,
      "పాలీటెక్నిక్లు": 2563,
      "జ్ఞ": 2564,
      "అల్ల": 2565,
      "ఈయన": 2566,
      "మందు": 2567,
      "##ంలో,": 2568,
      "##ింట్": 2569,
      "ప్రస": 2570,
      "ఫిల్": 2571,
      "సిబ్బందీ": 2572,
      "వాతావరణ": 2573,
      "గ్రా": 2574,
      "జాన": 2575,
      "సోద": 2576,
      "##ందో": 2577,
      "##ంతా": 2578,
      "##గ్రామానికి": 2579,
      "అమెరికన్": 2580,
      "ఇండియన్": 2581,
      "బ్రహ్మ": 2582,
      "అప్పటి": 2583,
      "ప్రచుర": 2584,
      "డిసెంబరు": 2585,
      "ఒప్పంద": 2586,
      "కలు": 2587,
      "చక్క": 2588,
      "టో": 2589,
      "శై": 2590,
      "##ైర్": 2591,
      "##ైడ్": 2592,
      "##ష్య": 2593,
      "స్టే": 2594,
      "వ్యక్తిగత": 2595,
      "ఆకర్": 2596,
      "భక్": 2597,
      "శం": 2598,
      "##ాస": 2599,
      "##వారు": 2600,
      "##ారం,": 2601,
      "##ంలోకి": 2602,
      "##ాను.": 2603,
      "రాష్ట": 2604,
      "##ందుకు": 2605,
      "##ులకు": 2606,
      "పూజ": 2607,
      "గౌర": 2608,
      "##ీణ": 2609,
      "##హ్య": 2610,
      "##లోచ": 2611,
      "##ార్ధ": 2612,
      "##మును": 2613,
      "##నేషనల్": 2614,
      "సహా": 2615,
      "టెస్ట్": 2616,
      "భారతదేశం": 2617,
      "స్త్రీల": 2618,
      "పంజాబీ": 2619,
      "ముస్లిం": 2620,
      "కరీం": 2621,
      "ఖమ్మ": 2622,
      "నల్": 2623,
      "వుం": 2624,
      "##వ్య": 2625,
      "##మణ": 2626,
      "##్రం": 2627,
      "##ట్,": 2628,
      "##మ్మి": 2629,
      "కోల్": 2630,
      "నామ": 2631,
      "##కాలం": 2632,
      "దీనికి": 2633,
      "ఉద్యమ": 2634,
      "##మైంది.": 2635,
      "ఆసియా": 2636,
      "పద్మ": 2637,
      "కరీంనగర్": 2638,
      "గాయ": 2639,
      "##య్": 2640,
      "##థి": 2641,
      "##ర్గ": 2642,
      "##ర్షి": 2643,
      "##డుకు": 2644,
      "##ష్టి": 2645,
      "##స్తున్నాయి.": 2646,
      "కళాశాలలు": 2647,
      "వెంట": 2648,
      "వేరు": 2649,
      "తాను": 2650,
      "శతాబ్దం": 2651,
      "పురాతన": 2652,
      "సగటు": 2653,
      "నల్గొండ": 2654,
      "టా": 2655,
      "##లన": 2656,
      "##రళ": 2657,
      "##డుగ": 2658,
      "టెస్టు": 2659,
      "##పూర్లో": 2660,
      "##దేశాల": 2661,
      "దిగు": 2662,
      "అధికంగా": 2663,
      "##శ్చ": 2664,
      "పాటలు": 2665,
      "మరింత": 2666,
      "తెలియ": 2667,
      "ఇప్పుడు": 2668,
      "మల": 2669,
      "##ున": 2670,
      "##నుక": 2671,
      "##ెన్స్": 2672,
      "##పాలె": 2673,
      "ముఖ్యమంత్రి": 2674,
      "దుకాణం": 2675,
      "పంజాబ్": 2676,
      "కమిటీ": 2677,
      "చైనా": 2678,
      "పౌ": 2679,
      "##ధార": 2680,
      "##ూహ": 2681,
      "##రికి": 2682,
      "నియం": 2683,
      "##భాగం": 2684,
      "##స్టర్": 2685,
      "కాలే": 2686,
      "వచ్చే": 2687,
      "సంస్కృ": 2688,
      "##వంతమైన": 2689,
      "చదివ": 2690,
      "చద": 2691,
      "##శ్రీ": 2692,
      "##చర్": 2693,
      "##ర్ప": 2694,
      "##్రానికి": 2695,
      "##న్నది.": 2696,
      "ఒకటి.": 2697,
      "లేదు.సమీప": 2698,
      "##డ్డాడు.": 2699,
      "సూచ": 2700,
      "##కుంటారు.": 2701,
      "సాధారణ": 2702,
      "వివరాలు": 2703,
      "ఆంగ్": 2704,
      "ఒకర": 2705,
      "గౌ": 2706,
      "గుంట": 2707,
      "వహి": 2708,
      "##లర్": 2709,
      "##తృ": 2710,
      "##ాంగ్": 2711,
      "చేర్చ": 2712,
      "పోరా": 2713,
      "##మ్స్": 2714,
      "మెద": 2715,
      "పాకిస్తాన్": 2716,
      "పునర్వ్యవస్థీకరణలో": 2717,
      "విశేషాలు": 2718,
      "నాణే": 2719,
      "రసాయ": 2720,
      "సినీ": 2721,
      "##పడ": 2722,
      "##ఒక": 2723,
      "##వుని": 2724,
      "స్కూ": 2725,
      "విశాఖపట్న": 2726,
      "##బాలబడి": 2727,
      "జర్మ": 2728,
      "##వతి": 2729,
      "##గాన్ని": 2730,
      "కామ": 2731,
      "కె.": 2732,
      "దేశంలో": 2733,
      "పూర్వ": 2734,
      "సినిమాలు": 2735,
      "గీ": 2736,
      "మరియ": 2737,
      "##రుడు": 2738,
      "సంప్రదాయ": 2739,
      "##వలస": 2740,
      "హిందు": 2741,
      "విజయం": 2742,
      "సంగీతం": 2743,
      "క్రీడ": 2744,
      "కర్ణా": 2745,
      "గుంటూరు": 2746,
      "చీ": 2747,
      "చట్ట": 2748,
      "##వ్యా": 2749,
      "##క్షన్": 2750,
      "##ముడు": 2751,
      "బాహ్య": 2752,
      "దేవాలయ": 2753,
      "గృహాలు": 2754,
      "గానం.": 2755,
      "##లక్ష్": 2756,
      "##క్య": 2757,
      "##ంభ": 2758,
      "##ృతి": 2759,
      "##్రు": 2760,
      "##న్నె": 2761,
      "##కోట": 2762,
      "దీన్ని": 2763,
      "ధర్మరాజు": 2764,
      "నాటక": 2765,
      "మరొక": 2766,
      "ఆధారంగా": 2767,
      "రంగు": 2768,
      "ఉపా": 2769,
      "ఎడ": 2770,
      "చింత": 2771,
      "నలుగు": 2772,
      "శాం": 2773,
      "##ాను": 2774,
      "##లేక": 2775,
      "##ార్డ్": 2776,
      "##పుడు": 2777,
      "##లాబాద్": 2778,
      "వారిని": 2779,
      "మాత్రం": 2780,
      "లోక్సభ": 2781,
      "అంచ": 2782,
      "కట్ట": 2783,
      "మద్రా": 2784,
      "లేవ": 2785,
      "##ోలు": 2786,
      "##నుండి": 2787,
      "##ణం,": 2788,
      "##షిక": 2789,
      "##న్నీ": 2790,
      "పొందింది.": 2791,
      "భావి": 2792,
      "##ప్పుడు,": 2793,
      "##కృతిక": 2794,
      "ఆధు": 2795,
      "నిర్మాణం": 2796,
      "డాక్టరు,": 2797,
      "పురస్కార": 2798,
      "మిగిలిన": 2799,
      "వన్డే": 2800,
      "సామ్రాజ్య": 2801,
      "ఆలోచ": 2802,
      "ఖండ": 2803,
      "ట్ర": 2804,
      "నవల": 2805,
      "##ర్ట్": 2806,
      "చేరు": 2807,
      "##విత్ర": 2808,
      "ఆమెను": 2809,
      "అనుసం": 2810,
      "నెల్లూరు": 2811,
      "##వ్వు": 2812,
      "దగ్గర": 2813,
      "కమ్యూని": 2814,
      "##గవ": 2815,
      "##శేఖ": 2816,
      "##చారు.": 2817,
      "ప్రసా": 2818,
      "##ళ్లు": 2819,
      "చేయడం": 2820,
      "భారతదేశంలోని": 2821,
      "##కోవడానికి": 2822,
      "పరిశోధన": 2823,
      "నిర్ణయ": 2824,
      "జై": 2825,
      "##జె": 2826,
      "##శీ": 2827,
      "##వారం": 2828,
      "##పడి": 2829,
      "##స్స": 2830,
      "##ించారు": 2831,
      "##సరం": 2832,
      "##దేశీ": 2833,
      "ఇతడు": 2834,
      "సంబంధించిన": 2835,
      "వ్యాపార": 2836,
      "సీతారా": 2837,
      "ఆక్": 2838,
      "చర్య": 2839,
      "ఫు": 2840,
      "##లోనే": 2841,
      "##్రామిక": 2842,
      "##వాహ": 2843,
      "గుర్": 2844,
      "##ఫ్ట్": 2845,
      "ఎన్నికయ్యాడు.": 2846,
      "రూపొంద": 2847,
      "పంచాయ": 2848,
      "ఇంటర్నేషనల్": 2849,
      "ప్రాజెక్టు": 2850,
      "నియంత్ర": 2851,
      "అంది": 2852,
      "##లపై": 2853,
      "##వర్త": 2854,
      "##ఇది": 2855,
      "##తులను": 2856,
      "ప్రాతిని": 2857,
      "నీవు": 2858,
      "కారణ": 2859,
      "##సంవత్": 2860,
      "##రియల్": 2861,
      "యూనియన్": 2862,
      "##స్వామ": 2863,
      "నివసి": 2864,
      "##టన": 2865,
      "##గానికి": 2866,
      "విమానా": 2867,
      "##చిత్ర": 2868,
      "చిత్రా": 2869,
      "బాధ": 2870,
      "##వంటి": 2871,
      "కనుగొ": 2872,
      "నవంబరు": 2873,
      "ఆస్ట్రేలియా": 2874,
      "ఆధునిక": 2875,
      "ఐరో": 2876,
      "దారి": 2877,
      "భో": 2878,
      "భవన": 2879,
      "రిక": 2880,
      "##లె": 2881,
      "##వు.": 2882,
      "##డవు": 2883,
      "##సరి": 2884,
      "##ాలే": 2885,
      "టెక్": 2886,
      "##కాలంలో": 2887,
      "సందర్శ": 2888,
      "కనిపి": 2889,
      "ఆదిలాబాద్": 2890,
      "..": 2891,
      "ఏడు": 2892,
      "గత": 2893,
      "దంప": 2894,
      "##ణ్య": 2895,
      "##డో": 2896,
      "##ందే": 2897,
      "##ర్మా": 2898,
      "##రులు": 2899,
      "##డును.": 2900,
      "పైగా": 2901,
      "పంప": 2902,
      "##రంగేట": 2903,
      "సరిహ": 2904,
      "ఆయు": 2905,
      "ఎన్న": 2906,
      "పెట్టు": 2907,
      "వరుస": 2908,
      "##జో": 2909,
      "##ేత": 2910,
      "##వల్": 2911,
      "##సి,": 2912,
      "చెన్న": 2913,
      "##ప్రైవేటు": 2914,
      "గ్రంథాలయం": 2915,
      "##పెద్ద": 2916,
      "విడుదలైన": 2917,
      "##పాడులో": 2918,
      "ఉదా": 2919,
      "చికాగో": 2920,
      "జె": 2921,
      "ఫర్": 2922,
      "ఫ్యా": 2923,
      "##భి": 2924,
      "##ర్ణ": 2925,
      "##స్కృతిక": 2926,
      "రాసిన": 2927,
      "మూడవ": 2928,
      "రాజీ": 2929,
      "పెరుగు": 2930,
      "రచనలు": 2931,
      "చుట్ట": 2932,
      "కొనసాగ": 2933,
      "ఉంచ": 2934,
      "##న్యూ": 2935,
      "##ారిటీ": 2936,
      "##దిగా": 2937,
      "##వేద": 2938,
      "ముఖ": 2939,
      "##ట్టిన": 2940,
      "ఒడి": 2941,
      "క్యా": 2942,
      "ఖాన్": 2943,
      "తేద": 2944,
      "సార": 2945,
      "##నంగా": 2946,
      "##ళు": 2947,
      "ముద్ర": 2948,
      "##ించింది,": 2949,
      "##ంగి": 2950,
      "నిర్వహి": 2951,
      "పారిశ": 2952,
      "##లంక": 2953,
      "దేవి": 2954,
      "దక్షిణాఫ్రికా": 2955,
      "సిరీస్": 2956,
      "నలుగురు": 2957,
      "ఐరోపా": 2958,
      "ఆహ": 2959,
      "చౌ": 2960,
      "జగ": 2961,
      "నర్": 2962,
      "పాడే": 2963,
      "మద్య": 2964,
      "మద్ద": 2965,
      "##రాలు": 2966,
      "##రంగా": 2967,
      "##నను": 2968,
      "##బడ్డాయి.": 2969,
      "సమీపంలో": 2970,
      "కింద": 2971,
      "##ేవలం": 2972,
      "ఆమెకు": 2973,
      "##య్యారు.": 2974,
      "టెలివిజన్": 2975,
      "##శ్మీ": 2976,
      "తరగ": 2977,
      "సైనిక": 2978,
      "వెళ్ళి": 2979,
      "##పూడి": 2980,
      "సెప్టెంబరు": 2981,
      "అడ్": 2982,
      "ఇస్": 2983,
      "ఎగు": 2984,
      "టి": 2985,
      "త్రి": 2986,
      "##లగ": 2987,
      "##నార": 2988,
      "##బే": 2989,
      "విగ్రహ": 2990,
      "చేస్తారు.": 2991,
      "ఒకే": 2992,
      "##ేవాడు.": 2993,
      "జీవ": 2994,
      "వర్ణ": 2995,
      "##ించబడుతుంది.": 2996,
      "రైలు": 2997,
      "ఇంగ్లాండ్": 2998,
      "వరంగల్": 2999,
      "##సంవత్సరం": 3000,
      "బి.": 3001,
      "బంధ": 3002,
      "భు": 3003,
      "##దో": 3004,
      "##దని": 3005,
      "##దర్": 3006,
      "##ధా": 3007,
      "##జొన్న": 3008,
      "##సార్లు": 3009,
      "##క్,": 3010,
      "విరా": 3011,
      "ముని": 3012,
      "##గింది.": 3013,
      "గుజ": 3014,
      "వేల": 3015,
      "చేయబడింది.": 3016,
      "##చ్చింది.": 3017,
      "సాంస్కృతిక": 3018,
      "ప్రసిద్ధ": 3019,
      "మొక్కజొన్న": 3020,
      "ఎమ్మెల్యేగా": 3021,
      "కర్ణాటక": 3022,
      "పారిశ్రామిక": 3023,
      ",.": 3024,
      "అరంగేట": 3025,
      "కప్": 3026,
      "జరుపు": 3027,
      "##ాయని": 3028,
      "దేశం": 3029,
      "దాడి": 3030,
      "మానవ": 3031,
      "కౌన్సి": 3032,
      "నూతన": 3033,
      "ప్రయత్ని": 3034,
      "వికెట్లు": 3035,
      "##ప్పటికీ,": 3036,
      "ప్రాతినిధ్యం": 3037,
      "ఆమ": 3038,
      "ఉష్ణ": 3039,
      "ఎల్": 3040,
      "డబ్బ": 3041,
      "పది": 3042,
      "బే": 3043,
      "ముంబ": 3044,
      "వాయు": 3045,
      "##డూ": 3046,
      "##మాన్": 3047,
      "ఇంకా": 3048,
      "పదవి": 3049,
      "కృష్": 3050,
      "నాయక": 3051,
      "చెప్పాడు.": 3052,
      "##వచ్చు": 3053,
      "అక్షరా": 3054,
      "పాడేరు": 3055,
      "ఇంత": 3056,
      "ఇంద్ర": 3057,
      "ఎం": 3058,
      "##దం": 3059,
      "##లింగ్": 3060,
      "##వృ": 3061,
      "##సో": 3062,
      "##నిగా": 3063,
      "##స్తవ": 3064,
      "##జిలాండ్": 3065,
      "##ళ్ళి": 3066,
      "న్యూజిలాండ్": 3067,
      "జట్టులో": 3068,
      "అకాడ": 3069,
      "లేవు.": 3070,
      "అప": 3071,
      "అధి": 3072,
      "కేవలం": 3073,
      "భి": 3074,
      "##లక": 3075,
      "##రక": 3076,
      "ప్రి": 3077,
      "##టువంటి": 3078,
      "##రాజ": 3079,
      "మాట్ల": 3080,
      "వాటిని": 3081,
      "నాకు": 3082,
      "##చేయ": 3083,
      "##డ్డారు.": 3084,
      "వర్గ": 3085,
      "ముఖ్యంగా": 3086,
      "అతిపెద్ద": 3087,
      "అర్ధ": 3088,
      "మహారాష్ట్ర": 3089,
      "సృష్ట": 3090,
      "భౌగో": 3091,
      "ద్వీప": 3092,
      "జంతు": 3093,
      "రాష్ట్రానికి": 3094,
      "మరియు": 3095,
      "దళ": 3096,
      "శ్రే": 3097,
      "##వరం": 3098,
      "##చీ": 3099,
      "##మర": 3100,
      "##ించబడ్డాయి.": 3101,
      "ఎదుర్కొ": 3102,
      "ఫస్ట్క్": 3103,
      "సీతారామ": 3104,
      "సరిహద్దు": 3105,
      "భౌగోళిక": 3106,
      "ఆహార": 3107,
      "కష్ట": 3108,
      "చలన": 3109,
      "డ్ర": 3110,
      "తగ్గ": 3111,
      "నమ్మ": 3112,
      "పను": 3113,
      "హీ": 3114,
      "##ట్యూ": 3115,
      "##పత్తి": 3116,
      "##హరణ": 3117,
      "విలువ": 3118,
      "##రాన్ని": 3119,
      "చెప్పి": 3120,
      "##యిన్": 3121,
      "రాష్ట్రం": 3122,
      "సినిమాలో": 3123,
      "కంప్యూ": 3124,
      "బోధ": 3125,
      "మంత్ర": 3126,
      "అయింది.": 3127,
      "కేరళ": 3128,
      "హిందీ": 3129,
      "పర్వత": 3130,
      "నేపథ": 3131,
      "పిలుస్తారు.": 3132,
      "ప్రత్తి,": 3133,
      "పంచాయతీ": 3134,
      "క్వ": 3135,
      "##లాం": 3136,
      "##సులు": 3137,
      "##ముగా": 3138,
      "##నాన్ని": 3139,
      "కూడిన": 3140,
      "పండుగ": 3141,
      "సంవత్సరంలో": 3142,
      "కృషి": 3143,
      "నిర్వహించారు.": 3144,
      "కొత్తగా": 3145,
      "అధ్యయన": 3146,
      "సాంప్రదాయ": 3147,
      "సూచి": 3148,
      "వ్యాస": 3149,
      "తెలుసు": 3150,
      "డైరె": 3151,
      "మెదక్": 3152,
      "దిన": 3153,
      "నడి": 3154,
      "పడి": 3155,
      "పవిత్ర": 3156,
      "వ.": 3157,
      "##చో": 3158,
      "##స్కో": 3159,
      "##ల్వ": 3160,
      "##ట్బ": 3161,
      "##ప్త": 3162,
      "పునరు": 3163,
      "నాటి": 3164,
      "అందులో": 3165,
      "ఆటగా": 3166,
      "వర్ష": 3167,
      "భాషా": 3168,
      "సంస్కరణ": 3169,
      "వహించాడు.": 3170,
      "బ్రాహ్మణ": 3171,
      "వ్యతిరేకంగా": 3172,
      "వెళ్లి": 3173,
      "మందుల": 3174,
      "రాయ్": 3175,
      "##ామ": 3176,
      "##టమి": 3177,
      "##హన్": 3178,
      "ప్రశం": 3179,
      "##ించాలని": 3180,
      "##ికంగా": 3181,
      "##టివ్": 3182,
      "నిల": 3183,
      "##ది,": 3184,
      "##ప్తంగా": 3185,
      "స్క": 3186,
      "##నీ,": 3187,
      "##ణాన్ని": 3188,
      "కుటుంబం": 3189,
      "చూప": 3190,
      "ఉంటు": 3191,
      "సంవత్సరాలు": 3192,
      "##సారిగా": 3193,
      "విజయనగరం": 3194,
      "గౌరవ": 3195,
      "విమానాశ్ర": 3196,
      "మద్దతు": 3197,
      "వ.సంవత్సరం": 3198,
      "కుం": 3199,
      "నవ": 3200,
      "పట్టు": 3201,
      "##దేవ": 3202,
      "##రగ": 3203,
      "##యేషన్": 3204,
      "##ిస్తారు.": 3205,
      "##టరీ": 3206,
      "##డియా": 3207,
      "##రామ": 3208,
      "ప్రధానంగా": 3209,
      "##తంత్ర": 3210,
      "ఉత్పత్తులు": 3211,
      "##ూరులో": 3212,
      "##వెన్యూ": 3213,
      "చుట్టు": 3214,
      "అభ్యర్థి": 3215,
      "##మొద": 3216,
      "నటి": 3217,
      "మ్యూ": 3218,
      "##వతీ": 3219,
      "ప్రో": 3220,
      "ప్రతీ": 3221,
      "##డుతూ": 3222,
      "లోప": 3223,
      "చెంద": 3224,
      "కాశ్మీ": 3225,
      "##ాల్,": 3226,
      "##శాస్త్ర": 3227,
      "రెవెన్యూ": 3228,
      "సీనియర్": 3229,
      "##కోవడం": 3230,
      "అకాడమీ": 3231,
      "అప్పుడు": 3232,
      "ఆస": 3233,
      "ఎం.": 3234,
      "ఖా": 3235,
      "నడు": 3236,
      "మౌ": 3237,
      "రక్ష": 3238,
      "##ణంలో": 3239,
      "##ిత": 3240,
      "##మాని": 3241,
      "వ్యక్": 3242,
      "రాశ": 3243,
      "##దిరి": 3244,
      "##వేశం": 3245,
      "##న్నింగ్": 3246,
      "##కాన్ని": 3247,
      "ఉత్సవ": 3248,
      "మరణించాడు.": 3249,
      "ఫిల్మ్": 3250,
      "జానపద": 3251,
      "అగ్ర": 3252,
      "ఆవి": 3253,
      "పరీ": 3254,
      "వది": 3255,
      "వస్తుంది.": 3256,
      "##ందర": 3257,
      "విదేశీ": 3258,
      "సంతో": 3259,
      "##ాడని": 3260,
      "##ంటీ": 3261,
      "నిజా": 3262,
      "కొంద": 3263,
      "చెబు": 3264,
      "వినియోగ": 3265,
      "డాక్టర్": 3266,
      "##పల్లి,": 3267,
      "లింగ": 3268,
      "ఇండో": 3269,
      "అరంగేట్రం": 3270,
      "ముంబై": 3271,
      "##కంటే": 3272,
      "##య్యా": 3273,
      "##.శ": 3274,
      "##చారం": 3275,
      "##హె": 3276,
      "##ృత": 3277,
      "##ండ్ర": 3278,
      "##స్థాన": 3279,
      "స్పె": 3280,
      "మొట్ట": 3281,
      "జనాభాలో": 3282,
      "రూపాయ": 3283,
      "##ప్రాంత": 3284,
      "ఏర్పడిన": 3285,
      "ప్రస్తుత": 3286,
      "గుజరా": 3287,
      "అద్": 3288,
      "గ్రీ": 3289,
      "చంప": 3290,
      "జు": 3291,
      "##ంటి": 3292,
      "##ర్టు": 3293,
      "##తుడు": 3294,
      "##తులు,": 3295,
      "చేత": 3296,
      "పాద": 3297,
      "గ్రామంలోఒక": 3298,
      "సాగు": 3299,
      "పొడవు": 3300,
      "గుర": 3301,
      "రాజ్": 3302,
      "##పూర్,": 3303,
      "పిలువ": 3304,
      "మహిళా": 3305,
      "నియోజకవర్గ": 3306,
      "స్టేట్స్": 3307,
      "చక్ర": 3308,
      "దండ": 3309,
      "నల్ల": 3310,
      "##శ్య": 3311,
      "##డెన్": 3312,
      "##కి,": 3313,
      "వెల్ల": 3314,
      "సినిమాకు": 3315,
      "ప్రాంతాలలో": 3316,
      "స్వాధీ": 3317,
      "ఎస్.": 3318,
      "ఫస్ట్క్లాస్": 3319,
      "ఎంతో": 3320,
      "గాలి": 3321,
      "చర్చి": 3322,
      "దానికి": 3323,
      "నరస": 3324,
      "బంగ": 3325,
      "##ేయ": 3326,
      "##ేత్ర": 3327,
      "##ంచి": 3328,
      "##హన": 3329,
      "##సెస్": 3330,
      "##్యంలో": 3331,
      "గ్రామీణ": 3332,
      "ఉన్నాయి": 3333,
      "##వాతి": 3334,
      "లేదు": 3335,
      "వెనుక": 3336,
      "ఇతను": 3337,
      "సమాజ": 3338,
      "విస్తీర్": 3339,
      "ప్రతిష్ఠ": 3340,
      "తరచు": 3341,
      "##స్యత": 3342,
      "నూనె": 3343,
      "అభిమన్యుని": 3344,
      "మారింది.": 3345,
      "##మూర్తి": 3346,
      "ఆంగ్ల": 3347,
      "కృష్ణా": 3348,
      "ఇన్నింగ్": 3349,
      "ధర": 3350,
      "పి.": 3351,
      "రకాల": 3352,
      "##కారులు": 3353,
      "##సారు.": 3354,
      "##సాడు.": 3355,
      "##ంద్": 3356,
      "##నిమి": 3357,
      "##నామా": 3358,
      "మార్పు": 3359,
      "##ీయెస్": 3360,
      "##వలసిన": 3361,
      "మొదట": 3362,
      "ఉద్యోగ": 3363,
      "రసాయన": 3364,
      "మొట్టమొద": 3365,
      "త్వ": 3366,
      "ఫీ": 3367,
      "##ాడు": 3368,
      "##లేద": 3369,
      "##ణుడు": 3370,
      "##బీయెస్": 3371,
      "##స్క": 3372,
      "##లాస": 3373,
      "##దేవి": 3374,
      "##ుంటాయి.": 3375,
      "దేశీయ": 3376,
      "అంగీకర": 3377,
      "పదార్థ": 3378,
      "##బ్రహ్మణ": 3379,
      "తయారీ": 3380,
      "ఇంగ్లీ": 3381,
      "అధ్యక్షుడు": 3382,
      "పురస్కారం": 3383,
      "ప్రొఫె": 3384,
      "అభిమన్యుడు": 3385,
      "ఉపాధ్య": 3386,
      "అద్భు": 3387,
      "ఏమి": 3388,
      "వంట": 3389,
      "##రేషన్": 3390,
      "##కూర్": 3391,
      "##డర్": 3392,
      "##ారో": 3393,
      "##స్టి": 3394,
      "##ానే": 3395,
      "##వులను": 3396,
      "##ండర్": 3397,
      "##మితి": 3398,
      "##త్తా": 3399,
      "మిలియన్": 3400,
      "తరఫ": 3401,
      "##ర్యంలో": 3402,
      "##బీబీయెస్": 3403,
      "ఎమ్బీబీయెస్": 3404,
      "విభజ": 3405,
      "పాండ్య": 3406,
      "అవకాశం": 3407,
      "ఉదాహరణ": 3408,
      "చం": 3409,
      "చర్చ": 3410,
      "ఫైన": 3411,
      "హు": 3412,
      "హరి": 3413,
      "##పెట్టి": 3414,
      "##మర్": 3415,
      "##్యత": 3416,
      "##కులను": 3417,
      "ప్రాచ": 3418,
      "##ెంబర్": 3419,
      "##మిక్": 3420,
      "ఇతని": 3421,
      "సహాయం": 3422,
      "నగరంలో": 3423,
      "జరిగే": 3424,
      "చేతిలో": 3425,
      "రెండో": 3426,
      "శాస్త్రవేత్త": 3427,
      "ప్రదర్శన": 3428,
      "అభ్యర్థిగా": 3429,
      "లీగ్": 3430,
      "శైలి": 3431,
      "అనుసంధాన": 3432,
      "నిజామా": 3433,
      "కింగ్": 3434,
      "క్యూ": 3435,
      "##ద్రి": 3436,
      "##జను": 3437,
      "##హరి": 3438,
      "##టిల్": 3439,
      "చేరుకు": 3440,
      "ప్రకారం,": 3441,
      "పిలి": 3442,
      "క్రీస్తు": 3443,
      "##ప్రాథమిక": 3444,
      "నిలిచింది.": 3445,
      "లేకుండా": 3446,
      "సర్వీసు": 3447,
      "అధ్యక్షుడిగా": 3448,
      "దంపతులకు": 3449,
      "చుట్టూ": 3450,
      "తరఫున": 3451,
      "ఆక": 3452,
      "కల్ప": 3453,
      "గడి": 3454,
      "గంగ": 3455,
      "పట్ల": 3456,
      "ఫె": 3457,
      "మను": 3458,
      "రవి": 3459,
      "##యార్": 3460,
      "##వార": 3461,
      "##మల": 3462,
      "##ఎల్": 3463,
      "##బడే": 3464,
      "##స్తోంది.": 3465,
      "ప్రకా": 3466,
      "##ప్ల": 3467,
      "##ములను": 3468,
      "చిత్త": 3469,
      "కార్యదర్శ": 3470,
      "పార్ల": 3471,
      "అనుసర": 3472,
      "గణాంక": 3473,
      "కార్యకర్త,": 3474,
      "##ీలక": 3475,
      "పూర్తిగా": 3476,
      "పర్వము": 3477,
      "ఎన్నో": 3478,
      "ప్రశంస": 3479,
      "మ్యూజి": 3480,
      "ఫా": 3481,
      "ముం": 3482,
      "రాం": 3483,
      "లాంటి": 3484,
      "##ీస్": 3485,
      "##నది": 3486,
      "##క,": 3487,
      "##స్తో": 3488,
      "##కిన": 3489,
      "చేస్తుంది.": 3490,
      "##మున": 3491,
      "రోజున": 3492,
      "##ూరులోను,": 3493,
      "##్యులు": 3494,
      "దర్శకు": 3495,
      "ప్రపంచంలో": 3496,
      "అభిప్రా": 3497,
      "##పురంలోను,": 3498,
      "దేశాలలో": 3499,
      "##పోయాడు.": 3500,
      "టోర్న": 3501,
      "అక్షరాస్యత": 3502,
      "ఇక్కడి": 3503,
      "గూ": 3504,
      "వంద": 3505,
      "##క్రా": 3506,
      "##ిటీ": 3507,
      "##ంబ": 3508,
      "##భద్ర": 3509,
      "స్వీకర": 3510,
      "ఎన్నికైన": 3511,
      "##గర్భ": 3512,
      "రేడియో": 3513,
      "వ్యాఖ్య": 3514,
      "యాద": 3515,
      "వివాహ": 3516,
      "వహించిన": 3517,
      "పొందాడు.": 3518,
      "##కుంటు": 3519,
      "విశ్వవిద్యాలయంలో": 3520,
      "పరిచయం": 3521,
      "చదివిన": 3522,
      "##లక్ష్మి": 3523,
      "గవర్": 3524,
      "ప్రామ": 3525,
      "మంగ": 3526,
      "సెం": 3527,
      "##యల్": 3528,
      "##ెన": 3529,
      "##ౌన్": 3530,
      "##ఖ్": 3531,
      "##ర్ధ": 3532,
      "చేస్తూ": 3533,
      "##ష్కర": 3534,
      "##యింది.": 3535,
      "ఇంటి": 3536,
      "రాష్ట్రంలోని": 3537,
      "పెద": 3538,
      "##రించింది.": 3539,
      "అసో": 3540,
      "క్రై": 3541,
      "అనకాపల్లి": 3542,
      "అంచనా": 3543,
      "నౌ": 3544,
      "పసు": 3545,
      "బ్లా": 3546,
      "##చూ": 3547,
      "##బట్టి": 3548,
      "##ాలూ": 3549,
      "##ించబడి": 3550,
      "##ూర్లో": 3551,
      "##పాటి": 3552,
      "పెరి": 3553,
      "కలిపి": 3554,
      "పార్వతీ": 3555,
      "అనగా": 3556,
      "అవార్డులు": 3557,
      "ప్రభావం": 3558,
      "పరిధిలో": 3559,
      "పర్యట": 3560,
      "##ోదావరి": 3561,
      "క్లబ్": 3562,
      "శ్రీకాకుళ": 3563,
      "##ూరోపియన్": 3564,
      "ఖమ్మం": 3565,
      "##నారాయణ": 3566,
      "తరచుగా": 3567,
      "అశ్వ": 3568,
      "ఎత్త": 3569,
      "జొన్న": 3570,
      "తప": 3571,
      "పైన": 3572,
      "మారు": 3573,
      "లక్షణ": 3574,
      "శత్రు": 3575,
      "##గాయి.": 3576,
      "##గారి": 3577,
      "##తమ": 3578,
      "##కంలో": 3579,
      "##పి.": 3580,
      "విర": 3581,
      "##రాజ్య": 3582,
      "నిరా": 3583,
      "వెస్ట": 3584,
      "##ూరు,": 3585,
      "గ్రూ": 3586,
      "ఫోన్,": 3587,
      "సమావేశ": 3588,
      "శ్రీలంక": 3589,
      "ప్రారంభించాడు.": 3590,
      "ప్రారంభించింది.": 3591,
      "పార్టీలో": 3592,
      "##పేటలోను,": 3593,
      "తమిళనాడు": 3594,
      "వరల్డ్": 3595,
      "చేరాడు.": 3596,
      "చేపట్ట": 3597,
      "బాధ్యత": 3598,
      "చక్కెర": 3599,
      "##.శ.": 3600,
      "అన్": 3601,
      "అడి": 3602,
      "అలీ": 3603,
      "అణు": 3604,
      "ఆనంద": 3605,
      "ఎయిర్": 3606,
      "##ుని": 3607,
      "##తాలు": 3608,
      "##నంలో": 3609,
      "##కము": 3610,
      "##యింట్": 3611,
      "##బడుతుంది.": 3612,
      "ప్రైవే": 3613,
      "దూరములో": 3614,
      "చెరకు": 3615,
      "##నియం": 3616,
      "ప్రకృతి": 3617,
      "స్టా": 3618,
      "సమూహ": 3619,
      "వార్షిక": 3620,
      "తీర": 3621,
      "నిర్మించారు.": 3622,
      "ఆధ్వ": 3623,
      "రిప": 3624,
      "క్రీడా": 3625,
      "అయితే,": 3626,
      "దర్శకత్వంలో": 3627,
      "చారిత్ర": 3628,
      "##స్తుంటారు.": 3629,
      "ఉష్ణోగ్ర": 3630,
      "మొట్టమొదటి": 3631,
      "ఎంత": 3632,
      "కడ": 3633,
      "గాని": 3634,
      "పాం": 3635,
      "రక్షణ": 3636,
      "హక్కు": 3637,
      "##ధులు": 3638,
      "##బె": 3639,
      "##లియం": 3640,
      "##ాంతం": 3641,
      "లోకి": 3642,
      "చెట్టు": 3643,
      "చెందింది.": 3644,
      "వెళ్ల": 3645,
      "అతన్ని": 3646,
      "వీటిని": 3647,
      "స్టేష": 3648,
      "##రాలిగా": 3649,
      "మైదాన": 3650,
      "##బుల్": 3651,
      "##ించబడు": 3652,
      "వద్దకు": 3653,
      "సైని": 3654,
      "స్వాతంత్ర్య": 3655,
      "స్నేహి": 3656,
      "పరీక్ష": 3657,
      "గుండ": 3658,
      "థి": 3659,
      "శాతం": 3660,
      "##యంగా": 3661,
      "##మత": 3662,
      "##సము": 3663,
      "##ర్ఘ": 3664,
      "##కున్నాడు.": 3665,
      "జనరల్": 3666,
      "స్వంత": 3667,
      "అతనికి": 3668,
      "##శాస్త్రి": 3669,
      "##వలసి": 3670,
      "##ర్మన్": 3671,
      "అమలు": 3672,
      "అయినప్పటికీ": 3673,
      "##లేని": 3674,
      "##పేటలో": 3675,
      "మ్యాచ్లో": 3676,
      "లక్ష్మీ": 3677,
      "##నాథ్": 3678,
      "స్కూల్": 3679,
      "శాంతి": 3680,
      "రాజీనామా": 3681,
      "సంతోష": 3682,
      "ఎకర": 3683,
      "పక్ష": 3684,
      "శీ": 3685,
      "సి.": 3686,
      "##రత్": 3687,
      "##శనగ": 3688,
      "##మాల": 3689,
      "##హమ్మ": 3690,
      "##్యం,": 3691,
      "##క్లో": 3692,
      "##ిండి": 3693,
      "##రు,": 3694,
      "నిష్": 3695,
      "సా.శ.": 3696,
      "మార్చ": 3697,
      "##పాతం": 3698,
      "సహజ": 3699,
      "##వలన": 3700,
      "ప్రారంభించారు.": 3701,
      "పునర్": 3702,
      "పదవీ": 3703,
      "క్రికె": 3704,
      "తర్వాత,": 3705,
      "దానిని": 3706,
      "వెంక": 3707,
      "చివర": 3708,
      "##రూప": 3709,
      "దుకాణం,": 3710,
      "##గూడె": 3711,
      "వేరుశనగ": 3712,
      "కౌన్సిల్": 3713,
      "పాడేరులోనూ": 3714,
      "అరు": 3715,
      "ఓట్ల": 3716,
      "తారా": 3717,
      "పత": 3718,
      "పెట్టి": 3719,
      "శ్వ": 3720,
      "##కారి": 3721,
      "##ణము": 3722,
      "##యం,": 3723,
      "##డుక": 3724,
      "ఉంది.బాలబడి": 3725,
      "##ంగ్రామ": 3726,
      "చిహ్": 3727,
      "వీటి": 3728,
      "వీటిలో": 3729,
      "##దేశం": 3730,
      "తనకు": 3731,
      "##జ్,": 3732,
      "పాలన": 3733,
      "ప్రత్యర్థ": 3734,
      "మెట": 3735,
      "ప్రతిపాద": 3736,
      "సభ్య": 3737,
      "##ర్రె": 3738,
      "బొమ్మ": 3739,
      "తిరుపతి": 3740,
      "సూర్య": 3741,
      "ఫ్రెంచి": 3742,
      "డైరెక్టర్": 3743,
      "గుజరాత్": 3744,
      "ప్రాచీన": 3745,
      "అసోసి": 3746,
      "కీలక": 3747,
      "గాన": 3748,
      "చాల": 3749,
      "##టర్లు": 3750,
      "##వచ": 3751,
      "##వల్ల": 3752,
      "##ైక": 3753,
      "ప్రణా": 3754,
      "ప్రాణ": 3755,
      "నీకు": 3756,
      "భూగర్భ": 3757,
      "##మ్మడి": 3758,
      "వేయ": 3759,
      "తరువాతి": 3760,
      "##రాలు.": 3761,
      "##పాలక": 3762,
      "ప్రజలకు": 3763,
      "##డిగాడు.": 3764,
      "##ించబడ": 3765,
      "మంత్రిగా": 3766,
      "##ించాడు": 3767,
      "నియంత్రణ": 3768,
      "సీతారామరాజు": 3769,
      "అయ్యాడు.": 3770,
      "మండ": 3771,
      "వుండ": 3772,
      "##,,": 3773,
      "##ర్సు": 3774,
      "##లువు": 3775,
      "స్కో": 3776,
      "##ప్పటి": 3777,
      "##ంచిన": 3778,
      "గుడి": 3779,
      "మీటర్ల": 3780,
      "రోజుల": 3781,
      "వేగ": 3782,
      "అనుభవ": 3783,
      "గోత్ర": 3784,
      "తొలగ": 3785,
      "బస్సులుప్రైవేటు": 3786,
      "##ర్చుకు": 3787,
      "సభ్యుడిగా": 3788,
      "##లింగ": 3789,
      "పురుషులు": 3790,
      "క్రింద": 3791,
      "ఇంగ్లం": 3792,
      "పర్యావరణ": 3793,
      "ఫలితంగా": 3794,
      "బోర్డు": 3795,
      "అల్లూరి": 3796,
      "వాతావరణం": 3797,
      "ఒప్పందం": 3798,
      "చెన్నై": 3799,
      "అబ్": 3800,
      "ఇరా": 3801,
      "ఎనిమి": 3802,
      "ఫో": 3803,
      "మల్ల": 3804,
      "##ోప": 3805,
      "##రవ": 3806,
      "##గీ": 3807,
      "##డి.": 3808,
      "##సిక": 3809,
      "##న్లో": 3810,
      "ప్రయోగ": 3811,
      "##కునే": 3812,
      "##తో,": 3813,
      "రాణి": 3814,
      "స్వతంత్ర": 3815,
      "భూభాగ": 3816,
      "గ్రహ": 3817,
      "వైద్యశాలలో": 3818,
      "ఎన్నికల": 3819,
      "మెజ": 3820,
      "నిర్మాత": 3821,
      "లభించింది.": 3822,
      "కార్మి": 3823,
      "##పరమైన": 3824,
      "##జ్ఞాన": 3825,
      "నివస": 3826,
      "స్థిరప": 3827,
      "జర్మనీ": 3828,
      "కాశ్మీర్": 3829,
      "స్వాధీనం": 3830,
      "గజ": 3831,
      "ద్రో": 3832,
      "మాం": 3833,
      "సన్ని": 3834,
      "##డమే": 3835,
      "##ళా": 3836,
      "##ఫా": 3837,
      "##ట్లా": 3838,
      "##టిట్యూ": 3839,
      "రావు": 3840,
      "చెరు": 3841,
      "కాదు.": 3842,
      "##యాత్ర": 3843,
      "##చ్చు": 3844,
      "గోడ": 3845,
      "##వర్తి": 3846,
      "విస్తృ": 3847,
      "పోలీసు": 3848,
      "సాధించింది.": 3849,
      "సంగారెడ్డి": 3850,
      "పొందారు.": 3851,
      "కార్యక్రమాలు": 3852,
      "ఫ్రాం": 3853,
      "##వ్యాప్తంగా": 3854,
      "ప్రైవేట్": 3855,
      "ఆధ్వర్యంలో": 3856,
      "అడిగాడు.": 3857,
      "ఆప": 3858,
      "కై": 3859,
      "కదా": 3860,
      "పాడ": 3861,
      "భవ": 3862,
      "షో": 3863,
      "హే": 3864,
      "##దవ": 3865,
      "##నని": 3866,
      "##ించారు,": 3867,
      "##లికి": 3868,
      "##వాన్": 3869,
      "##గ్ని": 3870,
      "కొట్ట": 3871,
      "కళాశాలలో": 3872,
      "##లలోను,": 3873,
      "##రణ్": 3874,
      "##చేసిన": 3875,
      "దీర్ఘ": 3876,
      "సెయింట్": 3877,
      "##స్తూ,": 3878,
      "రంగంలో": 3879,
      "విషయం": 3880,
      "నియమి": 3881,
      "ఎంపికయ్యాడు.": 3882,
      "చిత్రానికి": 3883,
      "గతంలో": 3884,
      "అదన": 3885,
      "ఆకా": 3886,
      "ఏలూరు": 3887,
      "కల్": 3888,
      "ఫ్ల": 3889,
      "యో": 3890,
      "వన": 3891,
      "##దరణ": 3892,
      "##ెద": 3893,
      "##ట్రా": 3894,
      "##పడు": 3895,
      "##ఫర్": 3896,
      "##ింజ": 3897,
      "##డ్లు": 3898,
      "##పుణ": 3899,
      "రాత్రి": 3900,
      "వేట": 3901,
      "##హాన్ని": 3902,
      "##చేసి": 3903,
      "పట్టా": 3904,
      "ఆయనకు": 3905,
      "చేసి,": 3906,
      "హిమ": 3907,
      "వచ్చారు.": 3908,
      "కాగా,": 3909,
      "సోమ": 3910,
      "##యేట్": 3911,
      "##పోయారు.": 3912,
      "వయస్సులో": 3913,
      "శ్రీకాకుళం": 3914,
      "గెలిచి": 3915,
      "కొందరు": 3916,
      "మెజారిటీ": 3917,
      "ఆశ": 3918,
      "ఆక్రమ": 3919,
      "ఇన్స్": 3920,
      "గే": 3921,
      "గోదావరి": 3922,
      "శృ": 3923,
      "##ణిక": 3924,
      "##వరకు": 3925,
      "##చర": 3926,
      "##ందా": 3927,
      "##ాలు.": 3928,
      "##స్కర": 3929,
      "##క్లి": 3930,
      "##కిత్స": 3931,
      "##ించడంలో": 3932,
      "##ానిష్": 3933,
      "##ల్లం": 3934,
      "##స్తుంది": 3935,
      "సాఫ్ట్": 3936,
      "##సిటీ": 3937,
      "కుడి": 3938,
      "కోరు": 3939,
      "##త్యం": 3940,
      "జనతా": 3941,
      "డిజ": 3942,
      "##ద్దీ": 3943,
      "సినిమా.": 3944,
      "పెళ్ళి": 3945,
      "నేతృ": 3946,
      "యుద్ధంలో": 3947,
      "పురపాలక": 3948,
      "బ్యాట్స్": 3949,
      "నాయకుడు.": 3950,
      "మద్రాసు": 3951,
      "ప్రసాద్": 3952,
      "వదిలి": 3953,
      "##కినాడ": 3954,
      "క్రికెటర్": 3955,
      "ఇష్ట": 3956,
      "గారు": 3957,
      "చని": 3958,
      "త్ర": 3959,
      "నిక": 3960,
      "బట్టి": 3961,
      "మళ్ళ": 3962,
      "##ెసి": 3963,
      "##హో": 3964,
      "##్రల్": 3965,
      "విమాన": 3966,
      "##ార్ట్": 3967,
      "ప్రాధాన": 3968,
      "##ంతరం": 3969,
      "కొద్ది": 3970,
      "##దుగా": 3971,
      "##్యాసం": 3972,
      "కాబట్టి": 3973,
      "వాళ్ళ": 3974,
      "##ంచే": 3975,
      "పరిమి": 3976,
      "పిల్లి": 3977,
      "అంతే": 3978,
      "తిరుగుబాటు": 3979,
      "##ించాడు,": 3980,
      "గెలుచుకుంది.": 3981,
      "వెంటనే": 3982,
      "పోరాట": 3983,
      "హీరో": 3984,
      "పసుపు": 3985,
      "ఎత్తైన": 3986,
      "దశా": 3987,
      "పేద": 3988,
      "##ూ,": 3989,
      "##పక్ష": 3990,
      "##బద్ధ": 3991,
      "##తుడ": 3992,
      "##ినా": 3993,
      "##ప్తి": 3994,
      "##వేయ": 3995,
      "##వేర్": 3996,
      "##ంతర": 3997,
      "చెప్పు": 3998,
      "##ందున": 3999,
      "కోట్ల": 4000,
      "జిల్లాకు": 4001,
      "కాకినాడ": 4002,
      "##జీలాండ్": 4003,
      "పరమ": 4004,
      "సుబ్బ": 4005,
      "ఆర్ధిక": 4006,
      "సంస్థలు": 4007,
      "బిరు": 4008,
      "అనుకూ": 4009,
      "##రోజు": 4010,
      "తోట": 4011,
      "పనిచేశారు.": 4012,
      "దృష్టి": 4013,
      "డేవి": 4014,
      "తరగతి": 4015,
      "కంప్యూటర్": 4016,
      "ప్రణాళిక": 4017,
      "ఆఫ్రికా": 4018,
      "నష్ట": 4019,
      "నన్ను": 4020,
      "మనం": 4021,
      "##లాలు": 4022,
      "##గారు": 4023,
      "##నక": 4024,
      "##శాలు": 4025,
      "##వో": 4026,
      "##ంజ": 4027,
      "##పాల్": 4028,
      "##సి.": 4029,
      "##లోయ": 4030,
      "##రుల": 4031,
      "##కులు,": 4032,
      "లోయ": 4033,
      "##స్థల": 4034,
      "##సిన్": 4035,
      "కోరిక": 4036,
      "రాష్ట్రంలో": 4037,
      "వేస": 4038,
      "##ాపక": 4039,
      "ఆలయంలో": 4040,
      "న్యూజీలాండ్": 4041,
      "లక్ష్య": 4042,
      "కార్పొ": 4043,
      "సభ్యులు": 4044,
      "కొంతమంది": 4045,
      "పిల్లలు": 4046,
      "ఫుట్బ": 4047,
      "ఇస్లా": 4048,
      "ఆసక్తి": 4049,
      "ఆదాయ": 4050,
      "ఎక్స్": 4051,
      "క్రా": 4052,
      "కాల్": 4053,
      "గారి": 4054,
      "డీ": 4055,
      "తగిన": 4056,
      "మని": 4057,
      "మరి": 4058,
      "మరా": 4059,
      "యు.": 4060,
      "రష": 4061,
      "సల": 4062,
      "##గింపు": 4063,
      "##శీల": 4064,
      "##చరీ": 4065,
      "##మీద": 4066,
      "##ార్,": 4067,
      "##ానని": 4068,
      "##క్షా": 4069,
      "పోయ": 4070,
      "పుష్": 4071,
      "##భావ": 4072,
      "##సంఖ్య": 4073,
      "స్థానం": 4074,
      "కలిగ": 4075,
      "##ెస్టి": 4076,
      "భారతదేశానికి": 4077,
      "##ష్ణు": 4078,
      "ఉంటారు.": 4079,
      "జన్మించిన": 4080,
      "క్లో": 4081,
      "సంస్కృత": 4082,
      "హైతీ": 4083,
      "శతాబ్దంలో": 4084,
      "చంద్రశేఖ": 4085,
      "నిజాం": 4086,
      "నృత్యం": 4087,
      "అడవి": 4088,
      "సెంట్రల్": 4089,
      "మలయా": 4090,
      "ఆమోద": 4091,
      "చలనచిత్ర": 4092,
      "చారిత్రక": 4093,
      "ఈక్": 4094,
      "గర్భ": 4095,
      "చై": 4096,
      "ఛాం": 4097,
      "నంద": 4098,
      "లూ": 4099,
      "##గతా": 4100,
      "##చంద్ర": 4101,
      "##స్తి": 4102,
      "##త్వాన్ని": 4103,
      "##కులకు": 4104,
      "##పులు,": 4105,
      "కేంద్రంగా": 4106,
      "##వులలో": 4107,
      "నివేద": 4108,
      "స్టీ": 4109,
      "డివి": 4110,
      "శిఖ": 4111,
      "ప్రక్రియ": 4112,
      "వేడుక": 4113,
      "##ప్పుడూ": 4114,
      "జాతి": 4115,
      "న్యూయార్": 4116,
      "జట్టుకు": 4117,
      "శాస్త్రీయ": 4118,
      "స్త్రీలు": 4119,
      "##పోవడం": 4120,
      "యూనివర్": 4121,
      "విశాఖపట్నంలోను,": 4122,
      "##హెచ్": 4123,
      "అన్నా": 4124,
      "ఉద్ద": 4125,
      "ఎవ": 4126,
      "గూడ": 4127,
      "ఫౌ": 4128,
      "రథ": 4129,
      "##జాల": 4130,
      "##యానికి": 4131,
      "##ంట్": 4132,
      "##చా": 4133,
      "##న్.": 4134,
      "##ర్గా": 4135,
      "##క్స": 4136,
      "ప్రోత్స": 4137,
      "##ల్ని": 4138,
      "##త్సా": 4139,
      "##మీ.": 4140,
      "##గాడు.": 4141,
      "##ారిత": 4142,
      "మును": 4143,
      "ముగి": 4144,
      "భారీ": 4145,
      "##్రిక్": 4146,
      "గుడ్": 4147,
      "చికిత్స": 4148,
      "భావన": 4149,
      "##మ్మే": 4150,
      "##ూరులోనూ": 4151,
      "ఉండి": 4152,
      "##గోళ": 4153,
      "##బియా": 4154,
      "జన్మించారు.": 4155,
      "జన్మించింది.": 4156,
      "ఉపయోగిస్తారు.": 4157,
      "గినియా": 4158,
      "##ోత్సవ": 4159,
      "కమ్యూనిస్ట్": 4160,
      "థియే": 4161,
      "ఇన్స్టిట్యూ": 4162,
      "అప్పు": 4163,
      "కట": 4164,
      "జారీ": 4165,
      "నంది": 4166,
      "సత్": 4167,
      "##పడింది.": 4168,
      "##భార": 4169,
      "ప్రార్థ": 4170,
      "ప్రయోజ": 4171,
      "##రి,": 4172,
      "##టులు": 4173,
      "##సుబ్రహ్మణ": 4174,
      "##స్తున్నాడు.": 4175,
      "కాన్": 4176,
      "##చ్చు.": 4177,
      "##ంచాడు.": 4178,
      "##య్యి": 4179,
      "అంకి": 4180,
      "పార్క్": 4181,
      "ఉంది,": 4182,
      "##ధిప": 4183,
      "అంతర్": 4184,
      "వంశ": 4185,
      "సాధించాడు.": 4186,
      "##షిప్": 4187,
      "ఫిలిం": 4188,
      "నటించింది.": 4189,
      "##....": 4190,
      "##పల్లెలో": 4191,
      "అవసరమైన": 4192,
      "అర్జునుడు": 4193,
      "ఎలక్ట": 4194,
      "##పాలెంలో": 4195,
      "దారితీ": 4196,
      "డబ్బు": 4197,
      "రిపబ్లిక్": 4198,
      "ఇంగ్లండ్": 4199,
      "మరాఠ": 4200,
      "ఇక": 4201,
      "ఈనాడు": 4202,
      "చంద": 4203,
      "జ్య": 4204,
      "ట్వ": 4205,
      "త్రా": 4206,
      "నాల్": 4207,
      "మాల": 4208,
      "హార్": 4209,
      "##ుఖ్య": 4210,
      "##ధ్": 4211,
      "##రమైన": 4212,
      "##గలి": 4213,
      "##న్లు": 4214,
      "##ిండీ": 4215,
      "విక్ర": 4216,
      "సంభవ": 4217,
      "చేస్తున్న": 4218,
      "సాగ": 4219,
      "పాఠశాలలో": 4220,
      "పరిగణ": 4221,
      "ఆర్.": 4222,
      "కార్యకలా": 4223,
      "విస్తర": 4224,
      "వృక్ష": 4225,
      "హిట్": 4226,
      "దేవాలయం": 4227,
      "బయట": 4228,
      "కర్నూ": 4229,
      "వరకూ": 4230,
      "హాజ": 4231,
      "భౌతిక": 4232,
      "ఏకైక": 4233,
      "విడిచి": 4234,
      "##నాలజీ": 4235,
      "భక్తులు": 4236,
      "స్టేషను": 4237,
      "##హమ్మద్": 4238,
      "శృంగ": 4239,
      "ఇప్పటికీ": 4240,
      "గుం": 4241,
      "తార": 4242,
      "తగ్": 4243,
      "నెట్": 4244,
      "భద్ర": 4245,
      "##నం,": 4246,
      "##కంగా": 4247,
      "##డల్": 4248,
      "##థ్": 4249,
      "##ళీ": 4250,
      "##స్సా": 4251,
      "విగ్ర": 4252,
      "##పులు": 4253,
      "##వాగు": 4254,
      "##సియా": 4255,
      "కూడ": 4256,
      "మొత్త": 4257,
      "కోడ": 4258,
      "తెగ": 4259,
      "ఆరంభ": 4260,
      "మార్గం": 4261,
      "రాజమ": 4262,
      "సమర్ప": 4263,
      "##వరంలో": 4264,
      "సామర్థ": 4265,
      "చేసుకున్నాడు.": 4266,
      "భీమ": 4267,
      "చేర్చారు.": 4268,
      "నాణేలు": 4269,
      "ప్రాముఖ్య": 4270,
      "ప్రత్యర్థి": 4271,
      "ఛాంపియన్": 4272,
      "ఆచార": 4273,
      "ఉందని": 4274,
      "కాయ": 4275,
      "చార్": 4276,
      "జాన్": 4277,
      "పద్య": 4278,
      "రద్దు": 4279,
      "హౌ": 4280,
      "##రాం": 4281,
      "##రాలు,": 4282,
      "##జూ": 4283,
      "##ేర్": 4284,
      "##టె": 4285,
      "##పాలు": 4286,
      "##్యాన": 4287,
      "##ాలపై": 4288,
      "##స్వ": 4289,
      "ప్రదేశాల": 4290,
      "##తుంది": 4291,
      "##రాధ": 4292,
      "కొబ్బ": 4293,
      "కురు": 4294,
      "##చిగా": 4295,
      "##ంచారు.": 4296,
      "వీడియో": 4297,
      "పరిమా": 4298,
      "##ల్లోనూ": 4299,
      "##లీస్": 4300,
      "నీటిని": 4301,
      "రూ.": 4302,
      "సుందర": 4303,
      "మిగతా": 4304,
      "##రికీ": 4305,
      "చిత్రంలో": 4306,
      "##కల్ప": 4307,
      "దిశ": 4308,
      "దాన్ని": 4309,
      "కుమారి": 4310,
      "నిర్వహించిన": 4311,
      "సూపర్": 4312,
      "గొర్రె": 4313,
      "ఉద్యోగం": 4314,
      "##ించడంతో": 4315,
      "ప్రవేశపెట్ట": 4316,
      "చేసుకుంది.": 4317,
      "ఇచ్చాడు.": 4318,
      "భీష్": 4319,
      "ప్రయాణ": 4320,
      "శంకర": 4321,
      "గ్రూప్": 4322,
      "చెరువులు": 4323,
      "రష్యా": 4324,
      "##వాగునది": 4325,
      "ఆశ్రమ": 4326,
      "ఇంది": 4327,
      "జి.": 4328,
      "ప్లా": 4329,
      "##టల్": 4330,
      "##వర్మ": 4331,
      "##ై,": 4332,
      "##రుగ": 4333,
      "విప": 4334,
      "విశాల": 4335,
      "సంకల": 4336,
      "##డ్,": 4337,
      "##మానం": 4338,
      "##వి,": 4339,
      "##మ్మా": 4340,
      "##నాటి": 4341,
      "కూతు": 4342,
      "కోర": 4343,
      "తెల్ల": 4344,
      "కారణం": 4345,
      "పొడి": 4346,
      "పొందు": 4347,
      "##ేవి.": 4348,
      "##జీ.": 4349,
      "శ్రీరా": 4350,
      "పట్టణం": 4351,
      "అసలు": 4352,
      "సీతా": 4353,
      "పరిశీల": 4354,
      "బ్రిటీ": 4355,
      "వారస": 4356,
      "సాహిత్యం": 4357,
      "ప్రభావ": 4358,
      "కన్నడ": 4359,
      "బెంగాల్": 4360,
      "స్వాతంత్ర్యం": 4361,
      "##ధారణ": 4362,
      "పునరుద్ధ": 4363,
      "అధ": 4364,
      "అరకు": 4365,
      "ఇవ": 4366,
      "ఊహ": 4367,
      "కనీ": 4368,
      "జే": 4369,
      "జమ్మ": 4370,
      "సాయం": 4371,
      "హను": 4372,
      "##తకు": 4373,
      "##వారు.": 4374,
      "##డ్యు": 4375,
      "##భం": 4376,
      "##ర్వే": 4377,
      "ప్రెసి": 4378,
      "##కుంది.": 4379,
      "##కున్నారు.": 4380,
      "విని": 4381,
      "##ప్తా": 4382,
      "##స్థానం": 4383,
      "##మైనది.": 4384,
      "విద్యాభ": 4385,
      "స్టేట్": 4386,
      "శాస్త్రి": 4387,
      "జరిగాయి.": 4388,
      "సోష": 4389,
      "ఏర్పడింది.": 4390,
      "కార్యక్రమంలో": 4391,
      "##ోత్సవం": 4392,
      "సందర్భంగా": 4393,
      "కాలువవాగునది": 4394,
      "శరీర": 4395,
      "##స్వామ్య": 4396,
      "కర్నూలు": 4397,
      "అరకులోయ": 4398,
      "ఆత్మ": 4399,
      "ఎర్ర": 4400,
      "డాల": 4401,
      "యూరోపియన్": 4402,
      "షి": 4403,
      "##లైన": 4404,
      "##న్యా": 4405,
      "##ిన్న": 4406,
      "##మవు": 4407,
      "##షత్తు": 4408,
      "##ఘు": 4409,
      "##డ్డు": 4410,
      "వైఎస్": 4411,
      "స్మ": 4412,
      "కొల": 4413,
      "చెందు": 4414,
      "##మెన్": 4415,
      "##నూరు": 4416,
      "##ట్టం": 4417,
      "కార్యాలయ": 4418,
      "స్థల": 4419,
      "చేయబడిన": 4420,
      "తెలుగులో": 4421,
      "దర్శకుడు": 4422,
      "అవార్డును": 4423,
      "##టోరియల్": 4424,
      "తేడా": 4425,
      "##ేశ్వరరావు": 4426,
      "ప్రమాద": 4427,
      "విభాగంలో": 4428,
      "రికార్డు": 4429,
      "ఆయుధ": 4430,
      "ప్రొఫెసర్": 4431,
      "నిజామాబాద్": 4432,
      "వేసవి": 4433,
      "నివేదిక": 4434,
      "యూనివర్సిటీ": 4435,
      "అగ్ని": 4436,
      "ఒటా": 4437,
      "ఘన": 4438,
      "ఫెస్టి": 4439,
      "భక్తి": 4440,
      "మద": 4441,
      "రక్త": 4442,
      "##వర్శ": 4443,
      "##ంటు": 4444,
      "##హార్": 4445,
      "##ఎం": 4446,
      "##రిత": 4447,
      "##లిన్": 4448,
      "##వుడ్": 4449,
      "వైశాల": 4450,
      "గురువు": 4451,
      "బావులు": 4452,
      "##చేతి": 4453,
      "సుల్": 4454,
      "##ెక్స్": 4455,
      "ఆయనను": 4456,
      "వృత్తులు": 4457,
      "గాను": 4458,
      "లక్షల": 4459,
      "స్థాపించాడు.": 4460,
      "గిరి": 4461,
      "##పర్తి": 4462,
      "విభజన": 4463,
      "విద్యార్థి": 4464,
      "పర్యాటక": 4465,
      "అడుగుల": 4466,
      "యూనివర్శ": 4467,
      "బాధ్యతలు": 4468,
      "దిగువ": 4469,
      "చిత్తూరు": 4470,
      "వెస్టిండీ": 4471,
      "మనిషి": 4472,
      "గంగా": 4473,
      "డో": 4474,
      "దె": 4475,
      "దై": 4476,
      "పల్లె": 4477,
      "బాని": 4478,
      "భయ": 4479,
      "యె": 4480,
      "లను": 4481,
      "వో": 4482,
      "##దానం": 4483,
      "##ేష్": 4484,
      "##కాం": 4485,
      "##పిన": 4486,
      "##ళన": 4487,
      "##ఫోర్": 4488,
      "##ృద": 4489,
      "##ర్లో": 4490,
      "##కుడిగా": 4491,
      "##ట్లు,": 4492,
      "##టిన్": 4493,
      "ప్రావి": 4494,
      "స్క్": 4495,
      "కళ్యా": 4496,
      "##పాత్ర": 4497,
      "వాస్తవ": 4498,
      "##చ్చే": 4499,
      "బాగ్": 4500,
      "ప్రాంతానికి": 4501,
      "##జ్జ": 4502,
      "వారిలో": 4503,
      "##ట్టింది.": 4504,
      "ప్రతిని": 4505,
      "ఆఫ్ఘ": 4506,
      "సభ్యుల": 4507,
      "తెలుగుదేశం": 4508,
      "రంగం": 4509,
      "సర్పం": 4510,
      "ఆకర్షణ": 4511,
      "భావిస్తున్నారు.": 4512,
      "వరుసగా": 4513,
      "నాయకత్వం": 4514,
      "మాట్లాడ": 4515,
      "తారాగణ": 4516,
      "థియేటర్": 4517,
      "యూనివర్శిటీ": 4518,
      "బానిస": 4519,
      "కంట": 4520,
      "జంగ": 4521,
      "తాలూ": 4522,
      "దూ": 4523,
      "నవా": 4524,
      "బై": 4525,
      "బార్": 4526,
      "వి.": 4527,
      "వాయ": 4528,
      "సల్": 4529,
      "హోదా": 4530,
      "##కి.": 4531,
      "##కలో": 4532,
      "##టై": 4533,
      "##టరు": 4534,
      "##టం,": 4535,
      "##ఖి": 4536,
      "##ాలనే": 4537,
      "##నిర్మా": 4538,
      "విష్ణు": 4539,
      "##రాష్ట్ర": 4540,
      "##వులకు": 4541,
      "విద్యను": 4542,
      "##మెంట": 4543,
      "సిద్ధి": 4544,
      "కూడా.": 4545,
      "కాప": 4546,
      "##స్టో": 4547,
      "##వంతు": 4548,
      "కెన": 4549,
      "డిగ్రీలు": 4550,
      "కాలి": 4551,
      "##దాన్ని": 4552,
      "చేతిపంపులు,": 4553,
      "రాజకీయాల్లో": 4554,
      "ప్లే": 4555,
      "ప్రముఖులు": 4556,
      "టీవీ": 4557,
      "వయసులో": 4558,
      "నివార": 4559,
      "క్షేత్ర": 4560,
      "పీఠ": 4561,
      "పుస్తకం": 4562,
      "బౌద్ధ": 4563,
      "తాగునీటి": 4564,
      "విధానం": 4565,
      "సైన్యం": 4566,
      "సంస్కృతి": 4567,
      "టెక్నాలజీ": 4568,
      "మొక్కజొన్న,": 4569,
      "త్వర": 4570,
      "క్యూబా": 4571,
      "సెంచరీ": 4572,
      "ఉష్ణోగ్రత": 4573,
      "దశాబ్ద": 4574,
      "ప్రోత్సహ": 4575,
      "ఆన్": 4576,
      "ఎందు": 4577,
      "చొ": 4578,
      "జార్": 4579,
      "తది": 4580,
      "న,": 4581,
      "##ులు,": 4582,
      "##లాంటి": 4583,
      "##కార్": 4584,
      "##కాలను": 4585,
      "##యాలు": 4586,
      "##శివ": 4587,
      "##పెన్": 4588,
      "##మణి": 4589,
      "##ఫల": 4590,
      "##ింగ": 4591,
      "ప్రచార": 4592,
      "##గులు": 4593,
      "##రిని": 4594,
      "##స్థాయి": 4595,
      "##మ్,": 4596,
      "##క్కడికి": 4597,
      "సిస్ట": 4598,
      "సంఖ్యలో": 4599,
      "స్వీ": 4600,
      "సమకూర్": 4601,
      "మొదలగు": 4602,
      "శ్రీని": 4603,
      "శ్రీకృష్ణ": 4604,
      "వచ్చాయి.": 4605,
      "ఉత్తరా": 4606,
      "నటించారు.": 4607,
      "నిర్వహించ": 4608,
      "భాషలో": 4609,
      "చెప్పిన": 4610,
      "రేఖ": 4611,
      "పాత్రను": 4612,
      "సంబంధం": 4613,
      "##ణుని": 4614,
      "జీవితంలో": 4615,
      "కాలువలు,": 4616,
      "తీవ్రమైన": 4617,
      "అనకాపల్లిలోను,": 4618,
      "##ాలేమీ": 4619,
      "##లేదు": 4620,
      "మళ్ళీ": 4621,
      "సలహా": 4622,
      "ఉద్దేశ": 4623,
      "ఇన్స్టిట్యూట్": 4624,
      "నాల్గవ": 4625,
      "ఒటాగో": 4626,
      "ఆఫ్రిక": 4627,
      "ఇటీ": 4628,
      "ఉద్": 4629,
      "ఎల్ల": 4630,
      "కూర": 4631,
      "జంట": 4632,
      "ధై": 4633,
      "ఫార్": 4634,
      "యే": 4635,
      "సారి": 4636,
      "సుల": 4637,
      "##తి.": 4638,
      "##వెల్": 4639,
      "##సూ": 4640,
      "##ాయా": 4641,
      "##ింట": 4642,
      "పోలి": 4643,
      "ద్వారా,": 4644,
      "సరస్సు": 4645,
      "##ష్టమైన": 4646,
      "##చ్చుకు": 4647,
      "పాలనలో": 4648,
      "అమరా": 4649,
      "##ుంటారు.": 4650,
      "మధ్యలో": 4651,
      "సంతాన": 4652,
      "అధికారులు": 4653,
      "చేసుకున్న": 4654,
      "పనిచేసింది.": 4655,
      "కేట": 4656,
      "నిలిచాడు.": 4657,
      "పిల్లల": 4658,
      "చేసుకున్నారు.": 4659,
      "ఉదయం": 4660,
      "గుర్తు": 4661,
      "తేదీ": 4662,
      "టోర్నమెంట్": 4663,
      "ఎనిమిది": 4664,
      "కార్పొరేషన్": 4665,
      "అగ": 4666,
      "ఇర": 4667,
      "ఎ.": 4668,
      "ట్రో": 4669,
      "తిన": 4670,
      "ధ్వ": 4671,
      "బదులు": 4672,
      "మంద": 4673,
      "రొ": 4674,
      "రష్య": 4675,
      "లాల్": 4676,
      "##దైన": 4677,
      "##గల్": 4678,
      "##కర్త": 4679,
      "##యస్": 4680,
      "##షే": 4681,
      "##బొ": 4682,
      "##బల్": 4683,
      "##బెల్": 4684,
      "ప్రీ": 4685,
      "ప్రఖ్య": 4686,
      "ప్రస్తా": 4687,
      "##తులలో": 4688,
      "సౌకర్యాలేమీ": 4689,
      "##ండా": 4690,
      "వ్యవహర": 4691,
      "ద్వార": 4692,
      "పుణ్య": 4693,
      "##లాది": 4694,
      "నీరుగ్రామంలో": 4695,
      "##ాయితీ": 4696,
      "చేయాలని": 4697,
      "ప్రారంభంలో": 4698,
      "ఏర్పర": 4699,
      "పాకిస్థాన్లో": 4700,
      "##...": 4701,
      "సినిమాల్లో": 4702,
      "నగరానికి": 4703,
      "బోరుబావులు,": 4704,
      "అభ్యస": 4705,
      "దుకాణాలు": 4706,
      "కొంతకాలం": 4707,
      "చివరికి": 4708,
      "చోళ": 4709,
      "ఎన్.": 4710,
      "ఫ్రెంచ్": 4711,
      "##పురం,": 4712,
      "జ్ఞాన": 4713,
      "నామిన": 4714,
      "ఖండం": 4715,
      "జైలు": 4716,
      "ఒడిశా": 4717,
      "##ెదరు.": 4718,
      "అలం": 4719,
      "ఇచ్చింది.": 4720,
      "ఉచి": 4721,
      "కేశ": 4722,
      "గార్": 4723,
      "జర్న": 4724,
      "డి.": 4725,
      "నటీ": 4726,
      "మన్": 4727,
      "మూర్": 4728,
      "లండ": 4729,
      "##ున్నత": 4730,
      "##ర్యం": 4731,
      "##తాల": 4732,
      "##ౌట్": 4733,
      "##చల": 4734,
      "##పడిన": 4735,
      "##స్యం": 4736,
      "##ాలంటే": 4737,
      "##త్,": 4738,
      "నుండి,": 4739,
      "##తుంది,": 4740,
      "##సుడు": 4741,
      "##మాను": 4742,
      "##ములు,": 4743,
      "##ములలో": 4744,
      "కొడుకు": 4745,
      "మాడుగు": 4746,
      "##ింగ్టన్": 4747,
      "స్వే": 4748,
      "##యిల్": 4749,
      "##య్యాయి.": 4750,
      "స్థూ": 4751,
      "బాలసుబ్రహ్మణ": 4752,
      "##ెన్సీ": 4753,
      "ప్రాంతీయ": 4754,
      "మిత్ర": 4755,
      "మిరప": 4756,
      "అంశాల": 4757,
      "మరణించారు.": 4758,
      "సొంత": 4759,
      "మహర్షి": 4760,
      "వర్గం": 4761,
      "తొమ్మి": 4762,
      "దేవత": 4763,
      "చరిత్రలో": 4764,
      "వాటిలో": 4765,
      "వీరికి": 4766,
      "స్థాయిలో": 4767,
      "గ్రాడ్యు": 4768,
      "కాలేజీ": 4769,
      "హిమాలయ": 4770,
      "మలయాళ": 4771,
      "డివిజను": 4772,
      "ఇందిరా": 4773,
      "ఆమ్": 4774,
      "ఎడి": 4775,
      "పాయ": 4776,
      "బాం": 4777,
      "రకాలు": 4778,
      "##ులను": 4779,
      "##ోద్య": 4780,
      "##గంలో": 4781,
      "##గ్వ": 4782,
      "##కలు": 4783,
      "##శక్తి": 4784,
      "##వస్తు": 4785,
      "##ళూరు": 4786,
      "##నిని": 4787,
      "##్రాన్ని": 4788,
      "##లుపు": 4789,
      "##ింహ": 4790,
      "ప్రవేశం": 4791,
      "విలీ": 4792,
      "##నుగో": 4793,
      "##కరమైన": 4794,
      "దూరంగా": 4795,
      "లోనే": 4796,
      "##రాజా": 4797,
      "##స్తుంది,": 4798,
      "చెల్ల": 4799,
      "##చి,": 4800,
      "మూడు,": 4801,
      "కాదు": 4802,
      "##నూ,": 4803,
      "శిక్ష": 4804,
      "##లకు,": 4805,
      "వేం": 4806,
      "పెరిగింది.": 4807,
      "##ళ్ళలో": 4808,
      "పరిక": 4809,
      "సుర": 4810,
      "గ్రేట్": 4811,
      "గణనీయ": 4812,
      "##రియన్": 4813,
      "కుటుంబంలో": 4814,
      "చూసిన": 4815,
      "జీవితాన్ని": 4816,
      "ఆలయాన్ని": 4817,
      "చేసుకుని": 4818,
      "అత్యున్నత": 4819,
      "పనిచేయ": 4820,
      "మోహన్": 4821,
      "వెళ్ళాడు.": 4822,
      "నాగరిక": 4823,
      "సిద్ధాంత": 4824,
      "ప్రదేశాలు": 4825,
      "##ఫిక్": 4826,
      "నవంబర్": 4827,
      "కలుపు": 4828,
      "##శ్చా": 4829,
      "అధ్యయనం": 4830,
      "అనుసరించి": 4831,
      "ఫుట్బాల్": 4832,
      "న్యూయార్క్": 4833,
      "ఇబ్బ": 4834,
      "ఉనికి": 4835,
      "ఉమ్మడి": 4836,
      "కర": 4837,
      "కణ": 4838,
      "పతా": 4839,
      "బంగ్": 4840,
      "మధు": 4841,
      "##గార": 4842,
      "##.పూ": 4843,
      "##ంచింది.": 4844,
      "##పన్న": 4845,
      "##ృహ": 4846,
      "##ందర్": 4847,
      "##నింగ్": 4848,
      "ప్రశ్": 4849,
      "##త్మా": 4850,
      "##డుపు": 4851,
      "నివా": 4852,
      "##ళ్లి": 4853,
      "రాజవం": 4854,
      "##జియన్": 4855,
      "నేల": 4856,
      "ప్రాంతాలు": 4857,
      "రూం,": 4858,
      "మరణించిన": 4859,
      "అనుమతి": 4860,
      "##పల్లిలోనూ": 4861,
      "చూపి": 4862,
      "##పాలెం": 4863,
      "##గొట్ట": 4864,
      "నెల్లి": 4865,
      "వలె": 4866,
      "భాగంలో": 4867,
      "రూపంలో": 4868,
      "ఉద్యమం": 4869,
      "విడుదలైంది.": 4870,
      "బ్రిటిషు": 4871,
      "ఇచ్చిన": 4872,
      "##కుంటుంది.": 4873,
      "అందుకుంది.": 4874,
      "అర్థం": 4875,
      "పురస్కారాలు": 4876,
      "తేదీన": 4877,
      "బంగారు": 4878,
      "విరమణ": 4879,
      "విస్తృతంగా": 4880,
      "ప్రాధాన్యత": 4881,
      "పిల్లితే": 4882,
      "చంద్రశేఖర్": 4883,
      "తేడాతో": 4884,
      "తారాగణం": 4885,
      "ఎంచ": 4886,
      "ఐక్య": 4887,
      "తప్పు": 4888,
      "మల్": 4889,
      "వస్త్ర": 4890,
      "శర్మ": 4891,
      "సార్లు": 4892,
      "హిం": 4893,
      "##ుడు,": 4894,
      "##దృ": 4895,
      "##ోతి": 4896,
      "##రన్": 4897,
      "##కాని": 4898,
      "##ూడా": 4899,
      "##టంతో": 4900,
      "##వార్": 4901,
      "##డ్ర": 4902,
      "##హ్ర": 4903,
      "##హారం": 4904,
      "##సం,": 4905,
      "##సార్": 4906,
      "##్యూరో": 4907,
      "##ర్పు": 4908,
      "##డ్జ": 4909,
      "##పుట్టు": 4910,
      "##వును": 4911,
      "##స్థానీ": 4912,
      "వైవి": 4913,
      "##స్తారు": 4914,
      "##ముతో": 4915,
      "##ధ్యా": 4916,
      "##దుడు": 4917,
      "ద్వి": 4918,
      "కళాకారు": 4919,
      "మాదిరి": 4920,
      "ఆర్య": 4921,
      "మార్క్": 4922,
      "బ్యాంక్": 4923,
      "ఇంట్లో": 4924,
      "##కోసం": 4925,
      "నేర్చుకు": 4926,
      "ప్రాంతాన్ని": 4927,
      "తాము": 4928,
      "గ్రే": 4929,
      "ఆర్కి": 4930,
      "జీవన": 4931,
      "అనువాద": 4932,
      "కాలేదు.": 4933,
      "దేశాలు": 4934,
      "సాధించ": 4935,
      "సాధించిన": 4936,
      "ఫిజీ": 4937,
      "నిర్మించాడు.": 4938,
      "తీసుకుని": 4939,
      "నిర్వహణ": 4940,
      "##ర్యాల": 4941,
      "పనిచేస్తున్న": 4942,
      "కలక": 4943,
      "వ్యాధి": 4944,
      "కాంగ్రె": 4945,
      "##కుంటే": 4946,
      "అన్నది": 4947,
      "##రియా,": 4948,
      "##ాంటిక్": 4949,
      "కొనసాగు": 4950,
      "అందుకున్నాడు.": 4951,
      "అధికారిక": 4952,
      "##వైపు": 4953,
      "ప్రమాణ": 4954,
      "సెంటర్": 4955,
      "ఆలోచన": 4956,
      "నివసిస్తున్న": 4957,
      "యాదవ్": 4958,
      "గుండె": 4959,
      "డేవిడ్": 4960,
      "విద్యాభ్యాసం": 4961,
      "అరకులోయలోను,": 4962,
      "అయ": 4963,
      "ఇచ్చి": 4964,
      "ఏట": 4965,
      "కన్": 4966,
      "క్రో": 4967,
      "చ.": 4968,
      "టే": 4969,
      "నమ": 4970,
      "బూ": 4971,
      "బాలు": 4972,
      "బెల్": 4973,
      "శో": 4974,
      "##లెస్": 4975,
      "##గడ": 4976,
      "##గారు.": 4977,
      "##కాయ": 4978,
      "##శాడు.": 4979,
      "##ట.": 4980,
      "##వన్": 4981,
      "##ంతి": 4982,
      "##మాం": 4983,
      "##ఘిక": 4984,
      "విప్": 4985,
      "విభాగం": 4986,
      "##ించవచ్చు.": 4987,
      "ఉన్నాయి.బాలబడి": 4988,
      "##ాడో": 4989,
      "##గ్న": 4990,
      "##డాన్": 4991,
      "##డాన్ని": 4992,
      "##ారుల": 4993,
      "##త్యాల": 4994,
      "వెలి": 4995,
      "##ల్లోను,": 4996,
      "##జీవి": 4997,
      "మిశ్రమ": 4998,
      "సమాన": 4999,
      "పేర్లు": 5000,
      "అనువ": 5001,
      "మొదలు": 5002,
      "చిత్రాలు": 5003,
      "వచ్చాడు.": 5004,
      "పూర్త": 5005,
      "మొదటిసారిగా": 5006,
      "వనరులు": 5007,
      "డిస్పెన్సరీ": 5008,
      "అందరూ": 5009,
      "ప్రపంచంలోని": 5010,
      "నాయుడు": 5011,
      "నాటో": 5012,
      "స్థాపించబడింది.": 5013,
      "క్రింది": 5014,
      "బీజే": 5015,
      "##పురంలోనూ": 5016,
      "ఆధారపడి": 5017,
      "##ఆర్.": 5018,
      "పాల్గొన్నారు.": 5019,
      "##గూడెం": 5020,
      "తల్లిద": 5021,
      "అమ్మవారి": 5022,
      "##షణ్": 5023,
      "##భూమి": 5024,
      "చేరింది.": 5025,
      "అనంతరం": 5026,
      "హిందువులు": 5027,
      "ఆహ్వ": 5028,
      "మంత్రివ": 5029,
      "గ్రీన్": 5030,
      "ఇన్నింగ్స్లో": 5031,
      "కడప": 5032,
      "శ్వాస": 5033,
      "సాఫ్ట్వేర్": 5034,
      "ఫౌండ": 5035,
      "అర్బ": 5036,
      "ఐస్": 5037,
      "కాన": 5038,
      "గమ": 5039,
      "డానిష్": 5040,
      "దాం": 5041,
      "పరా": 5042,
      "సార్": 5043,
      "##ాడు,": 5044,
      "##రి.": 5045,
      "##జయ": 5046,
      "##గన్": 5047,
      "##గాయ": 5048,
      "##తక": 5049,
      "##యోగం": 5050,
      "##చల్": 5051,
      "##సార": 5052,
      "##సేవ": 5053,
      "##ర్ద": 5054,
      "విక": 5055,
      "##తోపాటు": 5056,
      "గ్రామంలోని": 5057,
      "##ానాయ": 5058,
      "##ల్లే": 5059,
      "కాస్ట": 5060,
      "##భావం": 5061,
      "##స్ట్ర": 5062,
      "##బాబు": 5063,
      "కేంద్రం.": 5064,
      "##ద్దె": 5065,
      "నాటు": 5066,
      "గుహ": 5067,
      "శిల్ప": 5068,
      "రాజేంద్ర": 5069,
      "##వలె": 5070,
      "##ాలలోనూ": 5071,
      "అనుబంధ": 5072,
      "##దాద్": 5073,
      "##త్తుల": 5074,
      "పదం": 5075,
      "అయినా": 5076,
      "అక్టోబర్": 5077,
      "రంగారెడ్డి": 5078,
      "చివరకు": 5079,
      "##సేన": 5080,
      "తొలిసారి": 5081,
      "పరిశోధనా": 5082,
      "సాహిత్యంలో": 5083,
      "##ద్వారా": 5084,
      "##ప్టెన్": 5085,
      "##వంతంగా": 5086,
      "సిద్ధాంతం": 5087,
      "సీజన్లో": 5088,
      "ఎలాంటి": 5089,
      "ముఖ్యమంత్రిగా": 5090,
      "కామారెడ్డి": 5091,
      "సూచిస్తుంది.": 5092,
      "విమానాశ్రయం": 5093,
      "వెంకటా": 5094,
      "వేరుశనగ,": 5095,
      "ఆకాశ": 5096,
      "బిరుదు": 5097,
      "రాజమండ్రి": 5098,
      "ఎందుకంటే": 5099,
      "ట్రోఫీ": 5100,
      "స్వేచ్ఛ": 5101,
      "అరణ": 5102,
      "ఆచ": 5103,
      "ఇట": 5104,
      "ఎలి": 5105,
      "ఖు": 5106,
      "చతు": 5107,
      "ద్రా": 5108,
      "భద్రా": 5109,
      "యి": 5110,
      "హైవే": 5111,
      "##నుం": 5112,
      "##నాలి": 5113,
      "##క్యు": 5114,
      "##శో": 5115,
      "##హే": 5116,
      "##ఢ్": 5117,
      "సౌత్": 5118,
      "పాక్": 5119,
      "##వుగా": 5120,
      "##ుత్తమ": 5121,
      "##ముని": 5122,
      "##మునకు": 5123,
      "సమీపంలోని": 5124,
      "##మిడి": 5125,
      "##హిత": 5126,
      "వాద": 5127,
      "జననం": 5128,
      "##లలో,": 5129,
      "పొల": 5130,
      "##ాల్సి": 5131,
      "మండలం,": 5132,
      "ప్రధానమంత్రి": 5133,
      "అవత": 5134,
      "స్థా": 5135,
      "వేసి": 5136,
      "స్టార్": 5137,
      "##పేజీ.": 5138,
      "సంఘటన": 5139,
      "దేశాయ్": 5140,
      "మెరుగు": 5141,
      "దుస్తు": 5142,
      "కథలు": 5143,
      "##కూడ": 5144,
      "ప్రపంచవ్యాప్తంగా": 5145,
      "అత్యుత్తమ": 5146,
      "##కోవచ్చు.": 5147,
      "##ించబడ్డాడు.": 5148,
      "మంచు": 5149,
      "కలసి": 5150,
      "మహిళలు": 5151,
      "క్రీ.పూ": 5152,
      "పాత్రల్లో": 5153,
      "పాటల": 5154,
      "లెక్క": 5155,
      "సమయంలో,": 5156,
      "మ్యాచ్లు": 5157,
      "ప్రచురణ": 5158,
      "##ించుకుని": 5159,
      "పెంప": 5160,
      "బౌలింగ్": 5161,
      "అధికారికంగా": 5162,
      "వసంత": 5163,
      "టైటిల్": 5164,
      "శరీరం": 5165,
      "రాశారు.": 5166,
      "పిలువబడే": 5167,
      "విస్తీర్ణం": 5168,
      "ఇంగ్లీషు": 5169,
      "గవర్నర్": 5170,
      "అసోసియేషన్": 5171,
      "మెజారిటీతో": 5172,
      "కొబ్బరి": 5173,
      "వేంకట": 5174,
      "బంగ్లా": 5175,
      "అక్కడి": 5176,
      "గణి": 5177,
      "తత్వ": 5178,
      "నొ": 5179,
      "పల్ల": 5180,
      "లౌ": 5181,
      "హత్య": 5182,
      "##దార": 5183,
      "##దారులు": 5184,
      "##జిల్ల": 5185,
      "##నాన": 5186,
      "##ేజీ": 5187,
      "##కారాన్ని": 5188,
      "##క్రియ": 5189,
      "##శాన": 5190,
      "##వత": 5191,
      "##మిన": 5192,
      "##ఎ.": 5193,
      "##ఫో": 5194,
      "##షీ": 5195,
      "##ంద్రా": 5196,
      "విస్": 5197,
      "విజ్ఞాన": 5198,
      "##నున్న": 5199,
      "##ించడం,": 5200,
      "##గుడి": 5201,
      "గ్రామం,": 5202,
      "##ంటూ": 5203,
      "##నేని": 5204,
      "కొనుగో": 5205,
      "##దుల": 5206,
      "##దురు": 5207,
      "సిరి": 5208,
      "సిక్కు": 5209,
      "రోమన్": 5210,
      "పొలి": 5211,
      "స్వి": 5212,
      "వేసిన": 5213,
      "##కారంలో": 5214,
      "ఒకటిగా": 5215,
      "చిత్రాలలో": 5216,
      "రీస": 5217,
      "పూర్వం": 5218,
      "సంరక్ష": 5219,
      "పదార్ధ": 5220,
      "పనిచేసిన": 5221,
      "సాంఘిక": 5222,
      "మనో": 5223,
      "బెల్లం": 5224,
      "##సేన్": 5225,
      "సాహితీ": 5226,
      "రైతు": 5227,
      "తయార": 5228,
      "రచయిత,": 5229,
      "ప్రకటించింది.": 5230,
      "సూర్యా": 5231,
      "పేర్కొన్నారు.": 5232,
      "ఫ్రాన్స్": 5233,
      "రెడ్డి,": 5234,
      "వేదిక": 5235,
      "ప్రాజెక్ట్": 5236,
      "నటుడు": 5237,
      "నిర్వహిస్తారు.": 5238,
      "ఆహారం": 5239,
      "నిరాకర": 5240,
      "తాలూకా": 5241,
      "కేటాయ": 5242,
      "బీజేపీ": 5243,
      "మంత్రివర్గ": 5244,
      "ఆడిన": 5245,
      "ఆందో": 5246,
      "ఎవర": 5247,
      "ఏకీ": 5248,
      "కర్మ": 5249,
      "కీర్": 5250,
      "ఘో": 5251,
      "ఛాన": 5252,
      "జోన్": 5253,
      "డొ": 5254,
      "డాన్": 5255,
      "ధ్రు": 5256,
      "నర": 5257,
      "నమూ": 5258,
      "పెడ": 5259,
      "రౌ": 5260,
      "వపేజీ.": 5261,
      "శర": 5262,
      "షె": 5263,
      "సాయి": 5264,
      "##రొ": 5265,
      "##జేషన్": 5266,
      "##పటి": 5267,
      "##డియం": 5268,
      "##మాన్ని": 5269,
      "##విడ": 5270,
      "##ముందు": 5271,
      "##ంతృ": 5272,
      "కొలువు": 5273,
      "##దురై": 5274,
      "మాస": 5275,
      "మార్కా": 5276,
      "##పిరి": 5277,
      "##యా,": 5278,
      "సుఖ": 5279,
      "ఉన్నారు.సమీప": 5280,
      "గోల్": 5281,
      "కుటుంబానికి": 5282,
      "ప్రత్యేకంగా": 5283,
      "చూపు": 5284,
      "##కులుగా": 5285,
      "ఎన్నికలు": 5286,
      "##వరపు": 5287,
      "అధికారి": 5288,
      "తీసిన": 5289,
      "దీనిలో": 5290,
      "అందించాడు.": 5291,
      "క్రికెట్లో": 5292,
      "##పేటలోనూ": 5293,
      "ఉద్యో": 5294,
      "సేవలు": 5295,
      "##ాయుధ": 5296,
      "అమెరికాలో": 5297,
      "బహుమతి": 5298,
      "మంత్రిత్వ": 5299,
      "హైటీయన్": 5300,
      "భువన": 5301,
      "మాట్లాడే": 5302,
      "చక్రవర్తి": 5303,
      "##త్సాహ": 5304,
      "సత్కర": 5305,
      "ట్వంటీ": 5306,
      "ప్రాముఖ్యత": 5307,
      "బాగ్దాద్": 5308,
      "విప్లవ": 5309,
      "కొనుగోలు": 5310,
      "అండర్": 5311,
      "ఒంగ": 5312,
      "గమని": 5313,
      "చల్ల": 5314,
      "జరిగి": 5315,
      "తమ్ము": 5316,
      "ధన": 5317,
      "నం": 5318,
      "పర్": 5319,
      "పన్ను": 5320,
      "లకు": 5321,
      "లాం": 5322,
      "##జిన": 5323,
      "##ే.": 5324,
      "##కళ": 5325,
      "##ిని": 5326,
      "##వాడు.": 5327,
      "##సల": 5328,
      "##స్మాని": 5329,
      "విద్వ": 5330,
      "##ించగా,": 5331,
      "##కరణం": 5332,
      "##డులో": 5333,
      "##లిస్ట్": 5334,
      "##ార్జు": 5335,
      "##ాం.": 5336,
      "##సుల": 5337,
      "నిపుణ": 5338,
      "నిషే": 5339,
      "రాతి": 5340,
      "పోర్ట్": 5341,
      "పోలీస్": 5342,
      "##పాక": 5343,
      "పునా": 5344,
      "##చ్చిన": 5345,
      "మూలకం": 5346,
      "శిలువ": 5347,
      "తనను": 5348,
      "##జిత్": 5349,
      "##పోయే": 5350,
      "##కాలలో": 5351,
      "##ప్రోలు": 5352,
      "కెప్టెన్": 5353,
      "##ాలయాలు": 5354,
      "బిలియన్": 5355,
      "##వర్గం": 5356,
      "మధ్యప్రదేశ్": 5357,
      "##బోర్": 5358,
      "అవుతుంది.": 5359,
      "##త్యాన్ని": 5360,
      "మంజ": 5361,
      "##బియన్": 5362,
      "నెహ్ర": 5363,
      "కథా": 5364,
      "విశ్వా": 5365,
      "నాయకుడు": 5366,
      "##పట్న": 5367,
      "సైంధ": 5368,
      "బయటకు": 5369,
      "##కుంటూ": 5370,
      "దక్షిణాన": 5371,
      "##ారులు.": 5372,
      "లిమి": 5373,
      "విభిన్న": 5374,
      "విద్యార్థులు": 5375,
      "కనిపించ": 5376,
      "నేపాల్": 5377,
      "అవసరం": 5378,
      "చేరిన": 5379,
      "న్యాయవా": 5380,
      "మాటలు": 5381,
      "ప్రసంగ": 5382,
      "పద్మశ్రీ": 5383,
      "దేవాలయాలు": 5384,
      "ఎగుమతి": 5385,
      "క్రైస్తవ": 5386,
      "బ్లాక్": 5387,
      "ఎకరాల": 5388,
      "వేటూరి": 5389,
      "కనీసం": 5390,
      "వెస్టిండీస్": 5391,
      "సులభ": 5392,
      "నటీన": 5393,
      "పిల్లితేగ": 5394,
      ".,": 5395,
      "ఆధిప": 5396,
      "ఇరు": 5397,
      "ఉంటే": 5398,
      "ఎక": 5399,
      "ఎండ": 5400,
      "ఫోర్": 5401,
      "బయో": 5402,
      "మరిక": 5403,
      "యమ": 5404,
      "యోగ": 5405,
      "రాల": 5406,
      "విం": 5407,
      "##దాని": 5408,
      "##ధర్": 5409,
      "##మండ": 5410,
      "##బి.": 5411,
      "##డితో": 5412,
      "##ట్లలో": 5413,
      "విన్న": 5414,
      "##ించమని": 5415,
      "##పురి": 5416,
      "వ్యాలీ": 5417,
      "ఒకసారి": 5418,
      "ఒకప్రాథమిక": 5419,
      "##ేషి": 5420,
      "##భాష": 5421,
      "వెబ్": 5422,
      "పొర": 5423,
      "మీడియా": 5424,
      "సహకారం": 5425,
      "##ులతో": 5426,
      "బాణ": 5427,
      "బాబు": 5428,
      "##కోర్టు": 5429,
      "రోజుల్లో": 5430,
      "##చేసింది.": 5431,
      "చేయు": 5432,
      "సుద": 5433,
      "ఉండటం": 5434,
      "##రంగం": 5435,
      "##టికల్": 5436,
      "మిరియ": 5437,
      "##యోధ": 5438,
      "##న్యం": 5439,
      "గా,": 5440,
      "దాడు": 5441,
      "పార్టీకి": 5442,
      "##న్నాడు": 5443,
      "కథానాయ": 5444,
      "##రేట్": 5445,
      "##ెల్ట్": 5446,
      "పాత్రలో": 5447,
      "అప్పటిక": 5448,
      "పరిశోధనలు": 5449,
      "పురాణ": 5450,
      "ఫ్రై": 5451,
      "ప్రభావి": 5452,
      "ప్రకటించారు.": 5453,
      "బహుమ": 5454,
      "సత్యనారాయణ": 5455,
      "బలమైన": 5456,
      "పరిధిలోకి": 5457,
      "అర్జును": 5458,
      "సెప్టెంబర్": 5459,
      "ఉద్యమంలో": 5460,
      "సగటుతో": 5461,
      "చింతల": 5462,
      "భౌగోళికం": 5463,
      "వర్షపాతం": 5464,
      "ఇంగ్లీష్": 5465,
      "కార్యదర్శి": 5466,
      "##సముద్ర": 5467,
      "ఉంది.బాలబడి,": 5468,
      "##ంగ్రామంలో": 5469,
      "కటక్": 5470,
      "బ్రిటీష్": 5471,
      "రష్యన్": 5472,
      "చ.కి.": 5473,
      "ఫౌండేషన్": 5474,
      "రీసెర్": 5475,
      "అణ": 5476,
      "అద్వ": 5477,
      "ఇది.": 5478,
      "ఎప్పుడూ": 5479,
      "ఏళ్ల": 5480,
      "ఖగోళ": 5481,
      "గ్ల": 5482,
      "తం": 5483,
      "నడ": 5484,
      "పగ": 5485,
      "బర్": 5486,
      "మెక్": 5487,
      "రివ": 5488,
      "లతో": 5489,
      "వస్త": 5490,
      "వాల్": 5491,
      "##లూ": 5492,
      "##జాన్": 5493,
      "##జయ్": 5494,
      "##కేంద్ర": 5495,
      "##కానికి": 5496,
      "##కింగ్": 5497,
      "##పాయ": 5498,
      "##పారు.": 5499,
      "##మంతా": 5500,
      "##థమ": 5501,
      "##బన్": 5502,
      "##ందరి": 5503,
      "##ర్తి": 5504,
      "##త్మిక": 5505,
      "ఉన్నట్లు": 5506,
      "##ికల్": 5507,
      "##ాంశ": 5508,
      "##్వా": 5509,
      "పాప": 5510,
      "##నా,": 5511,
      "##నాత్మక": 5512,
      "కొండల": 5513,
      "కోచ్": 5514,
      "సిక్క": 5515,
      "మాట్లా": 5516,
      "##కె.": 5517,
      "##ప్రభ": 5518,
      "పేర్": 5519,
      "బోయ": 5520,
      "##వరంలోను,": 5521,
      "దుర్": 5522,
      "చాలామంది": 5523,
      "అందించారు.": 5524,
      "రేటు": 5525,
      "##ుండగా": 5526,
      "##కునిగా": 5527,
      "##ించుకున్నారు.": 5528,
      "జూలైలో": 5529,
      "రోడ్డుతో": 5530,
      "విషయాలు": 5531,
      "చట్టం": 5532,
      "గుర్తి": 5533,
      "##వర్తన": 5534,
      "బంధు": 5535,
      "లోపల": 5536,
      "రూపాయల": 5537,
      "దండయాత్ర": 5538,
      "ప్రకాశం": 5539,
      "ప్రశంసలు": 5540,
      "పార్వతీపురం": 5541,
      "భవనం": 5542,
      "డిజైన్": 5543,
      "పుష్ప": 5544,
      "హాజర": 5545,
      "##స్మానియా": 5546,
      "ఆరాధ": 5547,
      "ఎఫ్": 5548,
      "ఎవరి": 5549,
      "ఎటువంటి": 5550,
      "ఐసో": 5551,
      "కుండ": 5552,
      "తాత": 5553,
      "దర్": 5554,
      "పన్న": 5555,
      "ఫెడ": 5556,
      "బ్యూ": 5557,
      "మతం": 5558,
      "వారీ": 5559,
      "షాడ": 5560,
      "సదు": 5561,
      "##ధర్మ": 5562,
      "##వడం": 5563,
      "##మహ": 5564,
      "##ఖండ": 5565,
      "##కుమ": 5566,
      "సంయు": 5567,
      "##ాంగ": 5568,
      "లోహ": 5569,
      "##ాడా": 5570,
      "##విల్": 5571,
      "వ్యవహార": 5572,
      "##ించింది": 5573,
      "కళ్": 5574,
      "ఆరోప": 5575,
      "##పాట": 5576,
      "##పాన్ని": 5577,
      "మూడో": 5578,
      "వాడి": 5579,
      "పులి": 5580,
      "పుట్ట": 5581,
      "డివిజన్": 5582,
      "వెళు": 5583,
      "భూభాగం": 5584,
      "వీలు": 5585,
      "ఇంధ": 5586,
      "##శాన్ని": 5587,
      "వేడి": 5588,
      "##ప్రతి": 5589,
      "ప్రాంతాలకు": 5590,
      "సమయం": 5591,
      "మిషన్": 5592,
      "##పేట్": 5593,
      "అనుమత": 5594,
      "గోపాల": 5595,
      "అభివృద్ధికి": 5596,
      "మొదట్లో": 5597,
      "దేశానికి": 5598,
      "ఉత్తర్": 5599,
      "ప్రజలను": 5600,
      "నాయకులు": 5601,
      "అతనిని": 5602,
      "కలె": 5603,
      "బ్రహ్": 5604,
      "స్థాపించిన": 5605,
      "స్థాపించారు.": 5606,
      "వెళ్ళిన": 5607,
      "##వెళ్ళ": 5608,
      "##ాంతర": 5609,
      "అలాంటి": 5610,
      "##గిరిలోను,": 5611,
      "వీరిలో": 5612,
      "సమస్యలు": 5613,
      "మార్గంలో": 5614,
      "పరిధిలోని": 5615,
      "నాటికి,": 5616,
      "##మయ్యాయి.": 5617,
      "క్రమంగా": 5618,
      "వసతి": 5619,
      "నార్త్": 5620,
      "భాగం.": 5621,
      "##ోగ్రఫీ": 5622,
      "సోదరుడు": 5623,
      "ఎడమ": 5624,
      "ఆక్స": 5625,
      "అందిస్తుంది.": 5626,
      "సరిహద్దులో": 5627,
      "పనులు": 5628,
      "కార్యదర్శిగా": 5629,
      "పార్లమెంటు": 5630,
      "మెట్రో": 5631,
      "దెబ్బ": 5632,
      "సర్పంచిగా": 5633,
      "రాజకీయాల్లోకి": 5634,
      "తల్లిదండ్ర": 5635,
      "గణిత": 5636,
      "ధ్రువ": 5637,
      "ఫ్రైడే": 5638,
      "సిక్కిం": 5639,
      "ధో": 5640,
      "ఫ్రీ": 5641,
      "మృ": 5642,
      "వాయి": 5643,
      "హాల్": 5644,
      "##ధవ": 5645,
      "##లాల్": 5646,
      "##గుంట": 5647,
      "##కమైన": 5648,
      "##డ్రో": 5649,
      "##పరు": 5650,
      "##పట్ట": 5651,
      "##త్న": 5652,
      "##తుల్లో": 5653,
      "##గుణంగా": 5654,
      "##డుగా": 5655,
      "పాశ్చా": 5656,
      "##క్షు": 5657,
      "స్ఫ": 5658,
      "##మిని": 5659,
      "మాతృ": 5660,
      "##ట్టానికి": 5661,
      "మండలంతో": 5662,
      "సహకర": 5663,
      "సినిమాను": 5664,
      "పాటు,": 5665,
      "ప్రాంతాల్లో": 5666,
      "##జీవ": 5667,
      "ఉండగా": 5668,
      "మేఘ": 5669,
      "సంస్థాన": 5670,
      "వృద్ధ": 5671,
      "అమృ": 5672,
      "దేశంలోని": 5673,
      "అంతా": 5674,
      "బృహ": 5675,
      "ముందు,": 5676,
      "నిర్మించబడింది.": 5677,
      "వంటివి": 5678,
      "దర్శనీయ": 5679,
      "##కోవాలి.": 5680,
      "##ాండర్": 5681,
      "రంగస్థల": 5682,
      "పాత్రలు": 5683,
      "##కుంటాడు.": 5684,
      "సంబంధాలు": 5685,
      "బుద్ధ": 5686,
      "అప్పగ": 5687,
      "వయసు": 5688,
      "##త్మకంగా": 5689,
      "గృహాల": 5690,
      "##గూడలో": 5691,
      "గాంధ": 5692,
      "బౌల": 5693,
      "##పోవడంతో": 5694,
      "చోటు": 5695,
      "నిరసన": 5696,
      "పర్యవే": 5697,
      "నెలకొ": 5698,
      "ప్రసాద": 5699,
      "భిన్న": 5700,
      "అనుసంధానమై": 5701,
      "##కుంటున్న": 5702,
      "శ్రీకాకుళంలో": 5703,
      "అదనపు": 5704,
      "కుడిచేతి": 5705,
      "అంకితం": 5706,
      "భీష్ముడు": 5707,
      "ధైర్య": 5708,
      "వైవిధ్య": 5709,
      "లిమిటెడ్": 5710,
      "షాడబ": 5711,
      "పాశ్చాత్య": 5712,
      "ఆపర": 5713,
      "ఆధ్యా": 5714,
      "కచే": 5715,
      "జగి": 5716,
      "డు": 5717,
      "డ్రా": 5718,
      "బండ": 5719,
      "బాల్": 5720,
      "భవి": 5721,
      "మఠ": 5722,
      "మణి": 5723,
      "యెల్ట్": 5724,
      "వృద్ధి": 5725,
      "సమ్మే": 5726,
      "##దాల": 5727,
      "##తగా": 5728,
      "##కరు": 5729,
      "##ప్రీ": 5730,
      "##భై": 5731,
      "##సింగ్": 5732,
      "##ఎం.": 5733,
      "##కుడు,": 5734,
      "##ట్లను": 5735,
      "##గామ": 5736,
      "సంపద": 5737,
      "##రిట": 5738,
      "##లి,": 5739,
      "##్వే": 5740,
      "##ాడీ": 5741,
      "చేశా": 5742,
      "చేస్తాడు.": 5743,
      "వ్యయం": 5744,
      "##ంటారు.": 5745,
      "నిన్ను": 5746,
      "రాఘ": 5747,
      "రామ్": 5748,
      "##విగా": 5749,
      "##వియన్": 5750,
      "ముగింపు": 5751,
      "ముహమ్మద్": 5752,
      "స్కా": 5753,
      "చెట్లు": 5754,
      "సరైన": 5755,
      "తెచ్చి": 5756,
      "##్యాండ్": 5757,
      "వాళ్ళు": 5758,
      "##లాన్ని": 5759,
      "పొన్న": 5760,
      "పొగా": 5761,
      "గుర్ర": 5762,
      "తిర": 5763,
      "చిన్నత": 5764,
      "##య్య,": 5765,
      "పోషించింది.": 5766,
      "బిడ్డ": 5767,
      "##ధికార": 5768,
      "##పేరు": 5769,
      "వస్తున్న": 5770,
      "తీసి": 5771,
      "నిర్మించ": 5772,
      "తీసుకో": 5773,
      "నిర్వహించాడు.": 5774,
      "భాగస్వామ": 5775,
      "యుద్ధానికి": 5776,
      "బయలు": 5777,
      "సభ్యునిగా": 5778,
      "అక్కడే": 5779,
      "బీజ": 5780,
      "పరుగుల": 5781,
      "పురావస్తు": 5782,
      "హైదరాబాదులోను,": 5783,
      "క్షీణ": 5784,
      "అమ్మో": 5785,
      "##కారుడు": 5786,
      "అయ్యి": 5787,
      "మహారాజా": 5788,
      "వసూ": 5789,
      "పరిచయ": 5790,
      "ఆకర్ష": 5791,
      "చదర": 5792,
      "##వలసలో": 5793,
      "చౌద": 5794,
      "శ్రేణి": 5795,
      "నేపథ్య": 5796,
      "గంగరాజు": 5797,
      "ఎక్స్ప్ర": 5798,
      "జ్యోతి": 5799,
      "నెట్వర్": 5800,
      "విగ్రహం": 5801,
      "జమ్మూ": 5802,
      "లండన్": 5803,
      "విలీనం": 5804,
      "కలకత్తా": 5805,
      "ఒంగోలు": 5806,
      "నిషేధ": 5807,
      "నటీనటులు": 5808,
      "రీసెర్చ్": 5809,
      "అప్": 5810,
      "అహ్మ": 5811,
      "ఆఫీ": 5812,
      "ఇలాంటి": 5813,
      "ఈస్ట్": 5814,
      "ఊపిరి": 5815,
      "ఎగ్": 5816,
      "ఎది": 5817,
      "కంది": 5818,
      "ఖర్చు": 5819,
      "దక్క": 5820,
      "ధారా": 5821,
      "నిం": 5822,
      "పాలు": 5823,
      "యోధ": 5824,
      "రహ": 5825,
      "సద": 5826,
      "##దశ": 5827,
      "##ధ్ర": 5828,
      "##రాయ": 5829,
      "##త.": 5830,
      "##నగా": 5831,
      "##ంకి": 5832,
      "##డై": 5833,
      "##పాడు.": 5834,
      "##మౌ": 5835,
      "##హీన": 5836,
      "##స్రా": 5837,
      "##బను": 5838,
      "##్యాలు": 5839,
      "##ందరూ": 5840,
      "##స్క్": 5841,
      "##లుడు": 5842,
      "ఉన్నప్పుడు": 5843,
      "##తుకు": 5844,
      "##తుందని": 5845,
      "##గురు": 5846,
      "చేస్త": 5847,
      "##వింద": 5848,
      "వ్యవహరి": 5849,
      "వై.": 5850,
      "ముడి": 5851,
      "చెప్": 5852,
      "పైకి": 5853,
      "##టీస్": 5854,
      "ప్రభుత్వానికి": 5855,
      "తెనాలి": 5856,
      "వ్యవసాయా": 5857,
      "వ్యవస్థాప": 5858,
      "వెలువ": 5859,
      "గుప్తా": 5860,
      "మీదుగా": 5861,
      "స్వింగ్": 5862,
      "స్వల్ప": 5863,
      "భూకం": 5864,
      "శిథి": 5865,
      "ప్రధానమైన": 5866,
      "పరిసర": 5867,
      "పరిషత్తు": 5868,
      "ఇంటికి": 5869,
      "##రీలియం": 5870,
      "అందుకే": 5871,
      "##చార్య": 5872,
      "నేర": 5873,
      "మిజో": 5874,
      "సంస్థల": 5875,
      "ప్రత్యక్ష": 5876,
      "యుగ": 5877,
      "కాలనీ": 5878,
      "##దాస్": 5879,
      "అంతరి": 5880,
      "చిత్రీకర": 5881,
      "మెడికల్": 5882,
      "##సీమ": 5883,
      "ముందుకు": 5884,
      "హెక్టారులు.": 5885,
      "జననం,": 5886,
      "భారతదేశపు": 5887,
      "పేరును": 5888,
      "సంవత్సరానికి": 5889,
      "రిజ": 5890,
      "ఇద్దరూ": 5891,
      "గెలుప": 5892,
      "గుర్తించ": 5893,
      "బ్రిటన్": 5894,
      "రామారావు": 5895,
      "అర్హ": 5896,
      "ఇంగ్లాం": 5897,
      "పరుగులకు": 5898,
      "మహాత్మా": 5899,
      "సర్వే": 5900,
      "హైదరాబాదులో": 5901,
      "లిస్ట్": 5902,
      "జోష్": 5903,
      "చేరారు.": 5904,
      "బ్యాటింగ్": 5905,
      "తక్కువగా": 5906,
      "పెంచు": 5907,
      "బ్రాహ్మ": 5908,
      "ప్రొడ": 5909,
      "ఎత్తులో": 5910,
      "##పల్లె,": 5911,
      "##బడులు": 5912,
      "తీవ్రంగా": 5913,
      "##దారుల": 5914,
      "పరిపాలన": 5915,
      "వుంటుంది.": 5916,
      "కిందకు": 5917,
      "నమ్మకం": 5918,
      "ఉంటుంది": 5919,
      "చేరుకుంది.": 5920,
      "##రాజ్యస": 5921,
      "వేగంగా": 5922,
      "ఛాంపియన్షిప్": 5923,
      "సుల్తా": 5924,
      "ప్రతినిధి": 5925,
      "ఆఫ్రికన్": 5926,
      "అమరావతి": 5927,
      "ఇరవై": 5928,
      "పతాకం": 5929,
      "##జిల్లా": 5930,
      "ఐసోటో": 5931,
      "కచేరీ": 5932,
      "గర్": 5933,
      "చర్మ": 5934,
      "జిం": 5935,
      "జరగ": 5936,
      "దాన": 5937,
      "నక్ష": 5938,
      "బ్ల": 5939,
      "బ్యాన": 5940,
      "భర": 5941,
      "భట్టి": 5942,
      "మించి": 5943,
      "యజ్ఞ": 5944,
      "వంత": 5945,
      "సదా": 5946,
      "హృద": 5947,
      "##నేందుకు": 5948,
      "##భివృద్ధి": 5949,
      "##సై": 5950,
      "##షల్": 5951,
      "##బరీ": 5952,
      "##ఠా": 5953,
      "##్రామ్": 5954,
      "ప్రోగ": 5955,
      "ప్రధాని": 5956,
      "ప్రచారం": 5957,
      "వినాయ": 5958,
      "సంభా": 5959,
      "##రిలో": 5960,
      "##సు,": 5961,
      "నిరు": 5962,
      "రాచ": 5963,
      "పోర్చు": 5964,
      "##ష్టు": 5965,
      "స్తం": 5966,
      "స్పీ": 5967,
      "##సిద్ధ": 5968,
      "కూటమి": 5969,
      "సిటీ": 5970,
      "మాఘ": 5971,
      "వ్యవసాయం,": 5972,
      "మూత్ర": 5973,
      "రాజ్యాం": 5974,
      "##కాలిక": 5975,
      "పరమా": 5976,
      "సమర్థ": 5977,
      "##నం.": 5978,
      "దీంతో": 5979,
      "దేశంగా": 5980,
      "అంతకు": 5981,
      "##డ్డీ": 5982,
      "##హ్లా": 5983,
      "##షియం": 5984,
      "##రేఖ": 5985,
      "##రేష్": 5986,
      "విశ్వాస": 5987,
      "శుభ": 5988,
      "భాషలలో": 5989,
      "రామచంద్ర": 5990,
      "##లింగం": 5991,
      "##రావు,": 5992,
      "మైస": 5993,
      "ఎంపికైంది.": 5994,
      "అమ్మాయి": 5995,
      "బహుళ": 5996,
      "##కొండలోను,": 5997,
      "సింధు": 5998,
      "డెవల": 5999,
      "దొంగ": 6000,
      "ఒక్కో": 6001,
      "క్రమంలో": 6002,
      "దశలో": 6003,
      "స్వామివారి": 6004,
      "ఆక్లాండ్": 6005,
      "నడుపు": 6006,
      "కూతురు": 6007,
      "##మెంటరీ": 6008,
      "ఉద్భవ": 6009,
      "అర్బన్": 6010,
      "బంగ్లాదేశ్": 6011,
      "మంత్రివర్గంలో": 6012,
      "కీర్తి": 6013,
      "విద్వాం": 6014,
      "ఆధ్యాత్మిక": 6015,
      "భవిష్య": 6016,
      "ఎక్స్ప్రెస్": 6017,
      "అంతరిక్ష": 6018,
      "అమి": 6019,
      "ఆనక": 6020,
      "ఇను": 6021,
      "ఇటు": 6022,
      "కట్టు": 6023,
      "జాత": 6024,
      "ట్రి": 6025,
      "డబ్": 6026,
      "పత్ర": 6027,
      "మిన": 6028,
      "మైన": 6029,
      "మేక": 6030,
      "యం": 6031,
      "శత": 6032,
      "షికాగో": 6033,
      "##దార్": 6034,
      "##దిన": 6035,
      "##ద్రమ": 6036,
      "##లమ": 6037,
      "##గఢ్": 6038,
      "##తీయ": 6039,
      "##ేస్": 6040,
      "##శాం": 6041,
      "##వసర": 6042,
      "##ంపేట": 6043,
      "##పట్ల": 6044,
      "##పడే": 6045,
      "##బిం": 6046,
      "##ఉన్న": 6047,
      "##ారక": 6048,
      "##ారోగ్య": 6049,
      "##రులో": 6050,
      "ప్రథమ": 6051,
      "##ుంగ": 6052,
      "##ించాలి.": 6053,
      "##ికలు": 6054,
      "##డ్స్": 6055,
      "##టియ": 6056,
      "వ్యక్త": 6057,
      "##ద్దల": 6058,
      "##రాత్రి": 6059,
      "##ండి.": 6060,
      "నిల్వ": 6061,
      "పోయి": 6062,
      "##నేయ": 6063,
      "ముక్క": 6064,
      "సిద్ద": 6065,
      "మాస్కో": 6066,
      "పుట్టిన": 6067,
      "##స్ట్రీ": 6068,
      "వెల్": 6069,
      "వెస్ట్": 6070,
      "వెడల్": 6071,
      "నాడు": 6072,
      "మీరు": 6073,
      "పరిష్": 6074,
      "పరిణా": 6075,
      "రోజులు": 6076,
      "పెను": 6077,
      "సుప్రీ": 6078,
      "మేరీ": 6079,
      "మిస్": 6080,
      "ప్రత్యేకమైన": 6081,
      "##రోధ": 6082,
      "##ులు.": 6083,
      "ప్రతిభ": 6084,
      "వరకు,": 6085,
      "రిషి": 6086,
      "రూపకల్ప": 6087,
      "క్లాస్": 6088,
      "ఉపయోగించే": 6089,
      "లక్ష్యం": 6090,
      "##పరంగా": 6091,
      "సంబంధిత": 6092,
      "రచయితలు": 6093,
      "కార్యక్రమం": 6094,
      "టీడీ": 6095,
      "నాలుగు,": 6096,
      "కొనసాగింది.": 6097,
      "జనవరిలో": 6098,
      "ఓడించి": 6099,
      "కమిష": 6100,
      "ప్రదేశం": 6101,
      "వాడుకలో": 6102,
      "మతపరమైన": 6103,
      "ద్రవ్య": 6104,
      "##బడతాయి.": 6105,
      "జాబితాలో": 6106,
      "వ్రాయ": 6107,
      "బంతి": 6108,
      "ఆకర్షి": 6109,
      "తెలియజే": 6110,
      "సామ్రాజ్యం": 6111,
      "కనిపిస్తుంది.": 6112,
      "మునిగి": 6113,
      "నటిగా": 6114,
      "రాశాడు.": 6115,
      "ఉపాధ్యాయ": 6116,
      "##పెట్టింది.": 6117,
      "వందల": 6118,
      "దారితీసింది.": 6119,
      "ఆఫ్ఘని": 6120,
      "కెనడా": 6121,
      "దాంతో": 6122,
      "జోష్నా": 6123,
      "ఆనకట్ట": 6124,
      "ఆకు": 6125,
      "ఇయర్": 6126,
      "ఒంట": 6127,
      "కౌర": 6128,
      "కలుగు": 6129,
      "ఠా": 6130,
      "తదు": 6131,
      "పచ్చ": 6132,
      "పర్షి": 6133,
      "బల్": 6134,
      "మళ్": 6135,
      "వర్త": 6136,
      "వర్మ": 6137,
      "సన్": 6138,
      "సమితి": 6139,
      "##ల,": 6140,
      "##జాత": 6141,
      "##గమ": 6142,
      "##తరు": 6143,
      "##నలను": 6144,
      "##ే,": 6145,
      "##కై": 6146,
      "##యాల": 6147,
      "##శై": 6148,
      "##ట,": 6149,
      "##వెన్": 6150,
      "##డమ్": 6151,
      "##మిం": 6152,
      "##మండల": 6153,
      "##హై": 6154,
      "##సాల": 6155,
      "##సాలు": 6156,
      "##ఫర": 6157,
      "##బడ్డ": 6158,
      "##ఢ్వ": 6159,
      "##ారంలో": 6160,
      "##స్టిక్": 6161,
      "ప్రదానం": 6162,
      "##ల్చి": 6163,
      "విల": 6164,
      "##ికలో": 6165,
      "##తులతో": 6166,
      "##డ్డా": 6167,
      "##ద్,": 6168,
      "##రాజ్": 6169,
      "##గ్గా": 6170,
      "##స్తారు,": 6171,
      "విద్య,": 6172,
      "కుక్క": 6173,
      "తెరి": 6174,
      "కామె": 6175,
      "కాశీ": 6176,
      "##ాల్సిన": 6177,
      "##ాల్లోని": 6178,
      "అతడికి": 6179,
      "అభివ": 6180,
      "రాష్ట్రాల": 6181,
      "అవగా": 6182,
      "##మ్మ,": 6183,
      "వేర్వే": 6184,
      "##పోర్": 6185,
      "##పోర్ట్": 6186,
      "##ప్రసా": 6187,
      "నేర్చు": 6188,
      "##జ్జి": 6189,
      "సమర": 6190,
      "ఉండడం": 6191,
      "మొదలుప": 6192,
      "చేసింది,": 6193,
      "పట్టణంలో": 6194,
      "గ్రంథాలయ": 6195,
      "రచించిన": 6196,
      "##ట్లాంటిక్": 6197,
      "ప్రతిపక్ష": 6198,
      "ప్రారంభించిన": 6199,
      "విజేత": 6200,
      "అధికారం": 6201,
      "ఫిలి": 6202,
      "గ్రామం.ఇది": 6203,
      "పాలీటెక్నిక్,": 6204,
      "దేవుని": 6205,
      "##్రోపో": 6206,
      "##ార్థం": 6207,
      "ఉంటాడు.": 6208,
      "భాషలు": 6209,
      "ఉపయోగించి": 6210,
      "ధర్మనంద": 6211,
      "సినిమాలలో": 6212,
      "సినిమాలకు": 6213,
      "బుక్": 6214,
      "శతాబ్దపు": 6215,
      "సేవల": 6216,
      "తీసుకున్నాడు.": 6217,
      "బౌలర్": 6218,
      "##రైడ్": 6219,
      "ప్రయత్నం": 6220,
      "పేర్కొన్నాడు.": 6221,
      "స్పంద": 6222,
      "పరిపాలనా": 6223,
      "##పాలెం,": 6224,
      "కాలేజ్": 6225,
      "వహిస్తుంది.": 6226,
      "క్రీడలు": 6227,
      "##వచ్చును.": 6228,
      "చుట్టుప": 6229,
      "అగ్రహార": 6230,
      "ఇన్నింగ్స్": 6231,
      "అనుసంధానం": 6232,
      "మంగళ": 6233,
      "సుబ్బారావు": 6234,
      "వారసత్వ": 6235,
      "వైశాల్యం": 6236,
      "గిరిజన": 6237,
      "సల్ఫ": 6238,
      "కూరగాయ": 6239,
      "ఆహ్వాని": 6240,
      "సార్వ": 6241,
      "ఆపరేషన్": 6242,
      "పతాకంపై": 6243,
      "సుప్రీం": 6244,
      "తదుపరి": 6245,
      "ధర్మనందనా": 6246,
      "అసం": 6247,
      "ఆడి": 6248,
      "ఇతి": 6249,
      "ఉస్మానియా": 6250,
      "ఒత్తి": 6251,
      "కారి": 6252,
      "కలవ": 6253,
      "గఢ్వ": 6254,
      "తను": 6255,
      "ధా": 6256,
      "నక్క": 6257,
      "రణ": 6258,
      "రకం": 6259,
      "వేశ": 6260,
      "వింత": 6261,
      "శ్ర": 6262,
      "##ుడు.": 6263,
      "##దగిన": 6264,
      "##గ్రి": 6265,
      "##ిస్తున్నారు.": 6266,
      "##వడానికి": 6267,
      "##ంత్": 6268,
      "##డయ్యాడు.": 6269,
      "##పల్": 6270,
      "##భవం": 6271,
      "##ఃఖ": 6272,
      "##న్సు": 6273,
      "##ాలం": 6274,
      "##ర్జీ": 6275,
      "##ుంటు": 6276,
      "##కుడు.": 6277,
      "వివరణ": 6278,
      "##టి,": 6279,
      "##వాసం": 6280,
      "రాణ": 6281,
      "##క్షేత్ర": 6282,
      "##మురు": 6283,
      "సావి": 6284,
      "##మిర్": 6285,
      "కోర్టు": 6286,
      "##తామ": 6287,
      "కిరణ్": 6288,
      "మూసి": 6289,
      "వాహ": 6290,
      "##లా,": 6291,
      "##పింది.": 6292,
      "వ్యవస్థలో": 6293,
      "డిప": 6294,
      "డిప్యూ": 6295,
      "పొంది": 6296,
      "రాజశేఖ": 6297,
      "పరిగ": 6298,
      "##ించినట్లు": 6299,
      "అందువలన": 6300,
      "##పోతే": 6301,
      "ఉండవచ్చు.": 6302,
      "గ్రహీ": 6303,
      "సమావే": 6304,
      "##సాన్ని": 6305,
      "లేన": 6306,
      "##వర్డ్": 6307,
      "రెస్ట": 6308,
      "అసంతృ": 6309,
      "అంతటా": 6310,
      "సెలవు": 6311,
      "##ట్లుగా": 6312,
      "అందజే": 6313,
      "##కర్,": 6314,
      "లభి": 6315,
      "యాత్ర": 6316,
      "కౌంటీ": 6317,
      "##స్తాను": 6318,
      "తిరుమల": 6319,
      "పెంచ": 6320,
      "బలహీన": 6321,
      "పెట్టాడు.": 6322,
      "##క్ష్మ": 6323,
      "ప్రేక్ష": 6324,
      "ప్రజాస్వామ్య": 6325,
      "వరంగల్లో": 6326,
      "స్పష్ట": 6327,
      "అర్థం.": 6328,
      "నారాయణ్": 6329,
      "జ్ఞాపక": 6330,
      "ప్రసారం": 6331,
      "వుండును.": 6332,
      "ఫ్యాటి": 6333,
      "జగన్నా": 6334,
      "జరుపుకుంటారు.": 6335,
      "డ్రై": 6336,
      "చెప్పింది.": 6337,
      "మౌలిక": 6338,
      "మనుష": 6339,
      "రాంపూర్": 6340,
      "మైదానం,": 6341,
      "##గూడెంలో": 6342,
      "గుడివాడ": 6343,
      "అంతేకా": 6344,
      "అనుకూల": 6345,
      "నంద్యాల": 6346,
      "మరాఠీ": 6347,
      "శ్రీనివా": 6348,
      "అలంకర": 6349,
      "మార్క్సి": 6350,
      "నెహ్రూ": 6351,
      "##రాజ్యసమితి": 6352,
      "టీడీపీ": 6353,
      "మళ్లీ": 6354,
      "ఆడింది.": 6355,
      "ఎక్కడ": 6356,
      "ఓటమి": 6357,
      "కండ": 6358,
      "ఘా": 6359,
      "జైన": 6360,
      "తీయ": 6361,
      "ఫై": 6362,
      "బరువు": 6363,
      "భగ": 6364,
      "భయం": 6365,
      "మంట": 6366,
      "యాం": 6367,
      "వేష": 6368,
      "సాల": 6369,
      "సాయ": 6370,
      "##లాయ్": 6371,
      "##ీవుడ్": 6372,
      "##గతి": 6373,
      "##గృహ": 6374,
      "##నాలను": 6375,
      "##కట్": 6376,
      "##య్యూ": 6377,
      "##ంగు": 6378,
      "##డెంట్": 6379,
      "##చరిత్ర": 6380,
      "##హర్": 6381,
      "##భవి": 6382,
      "##బడ్డాడు.": 6383,
      "##ఖండ్": 6384,
      "##ఱకు": 6385,
      "##ర్షణ": 6386,
      "##ుంటుంది.": 6387,
      "##కిల్": 6388,
      "##గాంధ": 6389,
      "వివ": 6390,
      "విరి": 6391,
      "విము": 6392,
      "విఫల": 6393,
      "##ించగల": 6394,
      "##ించేందుకు": 6395,
      "##ికూడా": 6396,
      "##ార్మిక": 6397,
      "##వు,": 6398,
      "నిద్ర": 6399,
      "##విశ్వ": 6400,
      "పోయింది.": 6401,
      "ప్రాంగ": 6402,
      "ముందే": 6403,
      "పాఠశాలలు,": 6404,
      "##నీరు": 6405,
      "##లాన్": 6406,
      "వ్యవస్థను": 6407,
      "నిర్దేశ": 6408,
      "స్వచ్ఛ": 6409,
      "స్వయంగా": 6410,
      "రాష్ట్రపతి": 6411,
      "అవార్డ్": 6412,
      "##ల్లిలోను,": 6413,
      "బావి": 6414,
      "బాలీవుడ్": 6415,
      "##లీ,": 6416,
      "##చేసు": 6417,
      "గ్రంధ": 6418,
      "మిను": 6419,
      "ఆర్ట్": 6420,
      "##దేవుడు": 6421,
      "రెండి": 6422,
      "హిల్": 6423,
      "హిమా": 6424,
      "దిల్": 6425,
      "సెల్": 6426,
      "##షియల్": 6427,
      "సైన్స్,": 6428,
      "జాక్": 6429,
      "అందరి": 6430,
      "ఆధారిత": 6431,
      "చరిత్ర,": 6432,
      "##కోవాలని": 6433,
      "చెప్పారు.": 6434,
      "నువ్వు": 6435,
      "##పరచ": 6436,
      "క్రితం": 6437,
      "కర్ణుడు": 6438,
      "నగరంలోని": 6439,
      "##జ్ఞవల్": 6440,
      "విశి": 6441,
      "##ించుకున్న": 6442,
      "రచయితగా": 6443,
      "##పోయాయి.": 6444,
      "అరబి": 6445,
      "సమస్యలను": 6446,
      "కవిత్వం": 6447,
      "పెట్టారు.": 6448,
      "ప్రజాదరణ": 6449,
      "కీర్త": 6450,
      "విమర్శకుల": 6451,
      "ప్రయాణం": 6452,
      "చారిత్రా": 6453,
      "ఎన్టీ": 6454,
      "విజయనగరంలో": 6455,
      "ఢిల్లీలో": 6456,
      "కలుసు": 6457,
      "విరాట": 6458,
      "స్క్రీ": 6459,
      "వ్యక్తులు": 6460,
      "##స్థానంలో": 6461,
      "మిలియన్ల": 6462,
      "అభిప్రాయ": 6463,
      "శీతా": 6464,
      "##ంగ్రామానికి": 6465,
      "సంగారెడ్డిలోను,": 6466,
      "వనపర్తి": 6467,
      "తగ్గి": 6468,
      "హౌస్": 6469,
      "తొమ్మిది": 6470,
      "ఆర్కిటెక్": 6471,
      "అనువద": 6472,
      "వికారా": 6473,
      "##స్ట్రేషన్": 6474,
      "నిపుణులు": 6475,
      "చ.కి.మీ.": 6476,
      "బ్యానర్": 6477,
      "భట్టిప్రోలు": 6478,
      "పోర్చుగ": 6479,
      "వెడల్పు": 6480,
      "ఆఫ్ఘనిస్తాన్": 6481,
      "సావిత్రి": 6482,
      "అట": 6483,
      "అసి": 6484,
      "ఉర్ద": 6485,
      "ఊరే": 6486,
      "ఎత్తి": 6487,
      "ఎందుకు": 6488,
      "ఏను": 6489,
      "ఓపెన్": 6490,
      "కప్ప": 6491,
      "కవచ": 6492,
      "గట్టి": 6493,
      "చిన": 6494,
      "తగ్గు": 6495,
      "నమ్ము": 6496,
      "పిం": 6497,
      "పట్టి": 6498,
      "లొ": 6499,
      "వంగ": 6500,
      "శరణ": 6501,
      "సారా": 6502,
      "##ర్రా": 6503,
      "##తాయి": 6504,
      "##తనం": 6505,
      "##నైనా": 6506,
      "##కూరు": 6507,
      "##శిక": 6508,
      "##ంస్": 6509,
      "##హోర్": 6510,
      "విభా": 6511,
      "విలియం": 6512,
      "##ించడ": 6513,
      "##ించటం": 6514,
      "లోత": 6515,
      "##్వంచ": 6516,
      "##ానికి,": 6517,
      "##వాదులు": 6518,
      "##బడింది,": 6519,
      "##మ్మీ": 6520,
      "సాహ": 6521,
      "వైద్యుడు": 6522,
      "కొవ్వు": 6523,
      "ప్రభుత్": 6524,
      "మొఘ": 6525,
      "కోరి": 6526,
      "సివిల్": 6527,
      "లేదని": 6528,
      "పుట్టి": 6529,
      "##యాన్": 6530,
      "##ధానం": 6531,
      "పొటా": 6532,
      "పొడవ": 6533,
      "##య్యే": 6534,
      "##ల్లిలో": 6535,
      "##పోటు": 6536,
      "పాలకుడు": 6537,
      "సమాచారం": 6538,
      "ఆర్గ": 6539,
      "పనికి": 6540,
      "##మెంట్లో": 6541,
      "ఎన్నికయ్యారు.": 6542,
      "మధ్యకాలంలో": 6543,
      "ప్రతిబిం": 6544,
      "ప్రారంభం": 6545,
      "నిమిష": 6546,
      "మహమ్మ": 6547,
      "తరల": 6548,
      "తీసుకొని": 6549,
      "నటనకు": 6550,
      "##త్వంలోని": 6551,
      "శుక్ర": 6552,
      "తోడ్": 6553,
      "##ాలిక్": 6554,
      "వెండి": 6555,
      "యాజ్ఞవల్": 6556,
      "పోటీలో": 6557,
      "వెళ్ళే": 6558,
      "కనుమ": 6559,
      "##ేశ్వర్": 6560,
      "బీదర్": 6561,
      "బీహార్": 6562,
      "జీవితం,": 6563,
      "బొలీ": 6564,
      "హైడ్రో": 6565,
      "అంతర్జాతీయంగా": 6566,
      "వరద": 6567,
      "నిలిచి": 6568,
      "తెలుపు": 6569,
      "కావాలని": 6570,
      "విద్యార్థులకు": 6571,
      "దృశ్య": 6572,
      "పిలుపు": 6573,
      "ప్రేగు": 6574,
      "డిసెంబర్": 6575,
      "ఫిబ్రవరిలో": 6576,
      "రాజ్యసభ": 6577,
      "పర్యటన": 6578,
      "ద్వీపం": 6579,
      "సందర్భంలో": 6580,
      "జెర్సీలో": 6581,
      "ఫలిత": 6582,
      "వ్రాసిన": 6583,
      "సిరీస్లో": 6584,
      "##ణ్ణి": 6585,
      "చదివాడు.": 6586,
      "పెట్టుబడి": 6587,
      "నరసింహ": 6588,
      "##మర్లలోను,": 6589,
      "స్కోరు": 6590,
      "ఫ్రాంక్": 6591,
      "ఎలక్ట్రా": 6592,
      "పునరుద్ధర": 6593,
      "దైవ": 6594,
      "ఇటీవల": 6595,
      "ప్రఖ్యాత": 6596,
      "##ోద్యమ": 6597,
      "నెల్లిమర్లలోను,": 6598,
      "##వరపుకోట": 6599,
      "అప్పటికే": 6600,
      "##ప్రభుత్వ": 6601,
      "ఉత్తర్వులు": 6602,
      "అట్లాంటిక్": 6603,
      "ఆడు": 6604,
      "ఆదేశ": 6605,
      "ఆశ్చ": 6606,
      "ఇప్పటి": 6607,
      "ఎన్ను": 6608,
      "ఓవర్": 6609,
      "కరా": 6610,
      "గ్లో": 6611,
      "దత్త": 6612,
      "నదీ": 6613,
      "పూర": 6614,
      "పెన్": 6615,
      "బడ్జ": 6616,
      "రంగా": 6617,
      "వుంటాయి.": 6618,
      "శాంత": 6619,
      "శ్లో": 6620,
      "సయ్య": 6621,
      "సగం": 6622,
      "హాని": 6623,
      "##నూర్": 6624,
      "##క్యం": 6625,
      "##ణాల": 6626,
      "##టూరు": 6627,
      "##సిం": 6628,
      "##ఎన్": 6629,
      "##ఐ.": 6630,
      "##ాలను,": 6631,
      "##ర్వేద": 6632,
      "##న్నే": 6633,
      "##క్సీ": 6634,
      "సంయోగ": 6635,
      "##లిస్టు": 6636,
      "రాక": 6637,
      "ప్రభు": 6638,
      "మామ": 6639,
      "కామన్": 6640,
      "వాటికి": 6641,
      "##పిల్": 6642,
      "##సంబంధ": 6643,
      "నాశ": 6644,
      "##ేవారు": 6645,
      "శిష": 6646,
      "శిబి": 6647,
      "శివుడు": 6648,
      "పరిష్కర": 6649,
      "సేన్": 6650,
      "##ళ్ళను": 6651,
      "చేయబడ్డాయి.": 6652,
      "శాశ్వ": 6653,
      "సమూ": 6654,
      "సుప్ర": 6655,
      "సుయోధ": 6656,
      "పాల్వంచ": 6657,
      "సమాఖ్య": 6658,
      "ఆర్మీ": 6659,
      "సంస్థను": 6660,
      "##ెస్టు": 6661,
      "పిన్": 6662,
      "పిలవ": 6663,
      "కాలక్రమ": 6664,
      "రైల్వేస్ట": 6665,
      "నగరాల": 6666,
      "అంతర": 6667,
      "చిత్రం.": 6668,
      "మెరి": 6669,
      "తెలంగాణా": 6670,
      "స్టేషన్లు": 6671,
      "సాధించి": 6672,
      "ముందుగా": 6673,
      "దాటి": 6674,
      "పాకిస్థానీ": 6675,
      "ఫిరో": 6676,
      "నెలలో": 6677,
      "కథ.": 6678,
      "తీసుకున్న": 6679,
      "దేవర": 6680,
      "పనిచేస్తుంది.": 6681,
      "సూక్ష్మ": 6682,
      "న్యూక్లి": 6683,
      "##ించడానికి,": 6684,
      "##ించుట": 6685,
      "లాహోర్": 6686,
      "బ్రూ": 6687,
      "రామకృష్ణ": 6688,
      "అవార్డులు,": 6689,
      "##ర్రు": 6690,
      "బొంబ": 6691,
      "హాస్య": 6692,
      "##ించుకుంది.": 6693,
      "##ించుకున్నాడు.": 6694,
      "తెలుస్తుంది.": 6695,
      "##కొండలో": 6696,
      "##ేశ్వరస్వామి": 6697,
      "లక్ష్మణ": 6698,
      "కనిపించే": 6699,
      "ప్రేరణ": 6700,
      "నిరవా": 6701,
      "##మయ్యే": 6702,
      "బెంగాలీ": 6703,
      "పరిస్థితి": 6704,
      "పద్ధతిలో": 6705,
      "అడ్డు": 6706,
      "ఇంద్రుడు": 6707,
      "అధిపతి": 6708,
      "నేపథ్యం": 6709,
      "##ట్బ్యూరో": 6710,
      "##స్కాంత": 6711,
      "పిలిచ": 6712,
      "##ఎల్.": 6713,
      "నిష్పత్తి": 6714,
      "మునుపటి": 6715,
      "చార్లెస్": 6716,
      "వైఎస్ఆర్": 6717,
      "ఫార్మా": 6718,
      "గణనీయమైన": 6719,
      "కాంగ్రెసు": 6720,
      "యెల్ట్సిన్": 6721,
      "వేర్వేరు": 6722,
      "ఆర్గనై": 6723,
      "అండ": 6724,
      "అక్క": 6725,
      "అద్ద": 6726,
      "అడ్డ": 6727,
      "అయ్యా": 6728,
      "ఆగ్": 6729,
      "ఇసు": 6730,
      "ఇక్కడికి": 6731,
      "ఋణ": 6732,
      "ఏద": 6733,
      "కఠ": 6734,
      "క్యాం": 6735,
      "జమీ": 6736,
      "జలా": 6737,
      "పటే": 6738,
      "ఫల": 6739,
      "మాయ": 6740,
      "మదురై": 6741,
      "లిన": 6742,
      "##దర": 6743,
      "##దళ": 6744,
      "##లకి": 6745,
      "##ల్యూ": 6746,
      "##రెట్": 6747,
      "##ీలు": 6748,
      "##తుంటాయి.": 6749,
      "##క్రీ": 6750,
      "##యెల్": 6751,
      "##శేష": 6752,
      "##ెల": 6753,
      "##వ్యవస్థ": 6754,
      "##ంపై": 6755,
      "##పైన": 6756,
      "##మధ్య": 6757,
      "##మంగ": 6758,
      "##భాయ్": 6759,
      "##ళ్వ": 6760,
      "##సమ": 6761,
      "##సహ": 6762,
      "##ఫేర్": 6763,
      "##షన": 6764,
      "##న్పూర్": 6765,
      "##న్సర్": 6766,
      "##ల్కు": 6767,
      "విడ": 6768,
      "విదేశాల": 6769,
      "##పుట": 6770,
      "##పురా": 6771,
      "##ండే": 6772,
      "##ములకు": 6773,
      "ప్రాచు": 6774,
      "##స్తుందని": 6775,
      "కొంచ": 6776,
      "##క్కో": 6777,
      "చెంది": 6778,
      "చెఱకు": 6779,
      "కోట్": 6780,
      "##యం.": 6781,
      "మార్చారు.": 6782,
      "##పాడు,": 6783,
      "కావలసిన": 6784,
      "##లలోని": 6785,
      "##్రిడ్": 6786,
      "గుర్జ": 6787,
      "##జికల్": 6788,
      "వీణ": 6789,
      "##యితే": 6790,
      "జరుగుతాయి.": 6791,
      "సినిమాతో": 6792,
      "##పోతుంది.": 6793,
      "పెర": 6794,
      "నీటిలో": 6795,
      "##జ్మెంట్": 6796,
      "సమయ": 6797,
      "సమకాల": 6798,
      "పేరిట": 6799,
      "##బ్బి": 6800,
      "##పేట్లో": 6801,
      "##చున్న": 6802,
      "చూసు": 6803,
      "హెచ్": 6804,
      "సహాయంతో": 6805,
      "ఉండి,": 6806,
      "పార్టీని": 6807,
      "సేకరణ": 6808,
      "దివ్య": 6809,
      "కెఫెలు": 6810,
      "నెదర్": 6811,
      "ప్రజలలో": 6812,
      "అనారోగ్య": 6813,
      "##యుగ": 6814,
      "తమకు": 6815,
      "క్లా": 6816,
      "గొట్ట": 6817,
      "##ించుటకు": 6818,
      "బెయిర్": 6819,
      "##బర్గ్": 6820,
      "సంబంధించి": 6821,
      "హైకోర్టు": 6822,
      "నిర్మాణంలో": 6823,
      "పురస్కారాన్ని": 6824,
      "జోడి": 6825,
      "మార్గదర్శ": 6826,
      "పేర్కొంది.": 6827,
      "అందుకున్నారు.": 6828,
      "విధానాన్ని": 6829,
      "ద్రవ": 6830,
      "సైన్య": 6831,
      "బంతిని": 6832,
      "భావిస్తారు.": 6833,
      "కనుగొన": 6834,
      "కనిపిస్తాయి.": 6835,
      "ఉంచు": 6836,
      "వేలూరి": 6837,
      "భిలాయ్": 6838,
      "రూపాయలు": 6839,
      "ఉపాధ్యాయు": 6840,
      "హుస్": 6841,
      "వ్యాఖ్యాత": 6842,
      "నౌకా": 6843,
      "తపస్సు": 6844,
      "చేపట్టాడు.": 6845,
      "క్రికెటర్.": 6846,
      "స్క్వా": 6847,
      "బదులుగా": 6848,
      "ఎంచుకు": 6849,
      "ఉన్నాయి.బాలబడి,": 6850,
      "అద్వై": 6851,
      "ఆక్సైడ్": 6852,
      "అమ్మోనియం": 6853,
      "రిజర్వ": 6854,
      "డెవలప్": 6855,
      "చుట్టుపక్కల": 6856,
      "బెయిర్స్టో": 6857,
      "అచ్చ": 6858,
      "అశో": 6859,
      "ఆప్": 6860,
      "ఆశ్ర": 6861,
      "ఈశాన": 6862,
      "ఎపి": 6863,
      "ఐర్": 6864,
      "క్య": 6865,
      "గంధ": 6866,
      "పట": 6867,
      "బార": 6868,
      "బలి": 6869,
      "బది": 6870,
      "బట్ట": 6871,
      "శని": 6872,
      "శశిక": 6873,
      "హస్త": 6874,
      "##దాన": 6875,
      "##ధూ": 6876,
      "##లను,": 6877,
      "##రక్ష": 6878,
      "##రవే": 6879,
      "##రక్షణ": 6880,
      "##జల": 6881,
      "##గంధ": 6882,
      "##తారు": 6883,
      "##నెస్": 6884,
      "##క్రి": 6885,
      "##ండు": 6886,
      "##డని": 6887,
      "##చారాన్ని": 6888,
      "##మంత": 6889,
      "##ఖే": 6890,
      "##ఖరి": 6891,
      "##ాలయాన్ని": 6892,
      "గ్రామాలను": 6893,
      "##రుని": 6894,
      "##ల్పూర్": 6895,
      "##కుమార్": 6896,
      "##నులు": 6897,
      "ఉన్నప్పటికీ": 6898,
      "ఉన్నాయి,": 6899,
      "##ించక": 6900,
      "##ించగా": 6901,
      "##ికో": 6902,
      "##ాంధ్ర": 6903,
      "##శాలను": 6904,
      "చేసా": 6905,
      "వ్యూహ": 6906,
      "##ంటర్": 6907,
      "##రాన్": 6908,
      "##వున్న": 6909,
      "రాముడు": 6910,
      "పోర": 6911,
      "వైభవ": 6912,
      "##ముకు": 6913,
      "##ములోని": 6914,
      "##ేదు": 6915,
      "కుదు": 6916,
      "కూర్చు": 6917,
      "##టీన్": 6918,
      "తెర": 6919,
      "నిర్ది": 6920,
      "ఉత్స": 6921,
      "##రణం": 6922,
      "స్వర": 6923,
      "మండలాలు,": 6924,
      "##ులై": 6925,
      "రాజస్థాన్": 6926,
      "స్థాని": 6927,
      "పెరిగి": 6928,
      "ప్రాంతంలోని": 6929,
      "సుశీల": 6930,
      "సమానంగా": 6931,
      "బియ్య": 6932,
      "##సాహి": 6933,
      "##ట్స్,": 6934,
      "గోవింద": 6935,
      "కాలానికి": 6936,
      "##దాబాద్": 6937,
      "సంతకం": 6938,
      "సంతానం": 6939,
      "##్లేష": 6940,
      "వచ్చు": 6941,
      "##సీపీ": 6942,
      "వృత్తిని": 6943,
      "##పాలి": 6944,
      "మొదటిసారి": 6945,
      "దుఃఖ": 6946,
      "##న్నాడు,": 6947,
      "పక్కన": 6948,
      "పదో": 6949,
      "దేవు": 6950,
      "అవసరాలకు": 6951,
      "నటి.": 6952,
      "నిర్వహించింది.": 6953,
      "##త్వం,": 6954,
      "మనకు": 6955,
      "మనసు": 6956,
      "విజయవంతమైన": 6957,
      "పురోగ": 6958,
      "##తులైన": 6959,
      "తెలిసి": 6960,
      "రచయిత్రి": 6961,
      "ప్రవేశించి": 6962,
      "##పర్తిలో": 6963,
      "పుస్తక": 6964,
      "దృష్": 6965,
      "పర్యాట": 6966,
      "సింగ": 6967,
      "ఒక్కొక్క": 6968,
      "నగర్లో": 6969,
      "పద్ధతి": 6970,
      "రాజధానిగా": 6971,
      "స్నేహం": 6972,
      "ప్రసార": 6973,
      "చక్కగా": 6974,
      "##న్నెల": 6975,
      "పదవికి": 6976,
      "డ్రైన": 6977,
      "వెల్లింగ్టన్": 6978,
      "సమాజంలో": 6979,
      "ఫెలో": 6980,
      "##స్తోంది": 6981,
      "ద్రోణుడు": 6982,
      "నియమితుడ": 6983,
      "ఇస్లామిక్": 6984,
      "మరిన్ని": 6985,
      "##భారత": 6986,
      "విక్రయ": 6987,
      "విశాల్": 6988,
      "శ్రీరాములు": 6989,
      "##మవుతుంది.": 6990,
      "స్మారక": 6991,
      "ఫెస్టివల్": 6992,
      "కాస్ట్రో": 6993,
      "ఆందోళన": 6994,
      "ఏకీకృత": 6995,
      "మంజూరు": 6996,
      "బ్యూటీ": 6997,
      "జగిత్యాల": 6998,
      "వసూలు": 6999,
      "చౌదరి": 7000,
      "ధారావాహ": 7001,
      "నక్షత్ర": 7002,
      "గఢ్వాల్": 7003,
      "##గాంధీ": 7004,
      "స్క్రీన్": 7005,
      "బడ్జెట్": 7006,
      "ఐర్లాండ్": 7007,
      "శశికళ": 7008,
      "అథ": 7009,
      "అక్": 7010,
      "అమ్": 7011,
      "అఖి": 7012,
      "ఆత్మక": 7013,
      "ఉప్ప": 7014,
      "ఉప్పు": 7015,
      "ఐసి": 7016,
      "ఓం": 7017,
      "ఓట్లు": 7018,
      "కందు": 7019,
      "కంచ": 7020,
      "కంది,": 7021,
      "ఖండి": 7022,
      "గడ": 7023,
      "గ్వ": 7024,
      "టు": 7025,
      "తట్టు": 7026,
      "ధరి": 7027,
      "పడు": 7028,
      "పవర్": 7029,
      "భై": 7030,
      "మచి": 7031,
      "రవీ": 7032,
      "వజ": 7033,
      "సైన్": 7034,
      "సతీ": 7035,
      "##ధారిత": 7036,
      "##ాహ్": 7037,
      "##ీన్స్": 7038,
      "##తర్": 7039,
      "##తరం": 7040,
      "##క్రో": 7041,
      "##పది": 7042,
      "##పడ్డాడు.": 7043,
      "##భ్య": 7044,
      "##లుక": 7045,
      "విచార": 7046,
      "ఉన్నారు,": 7047,
      "##ించేవారు.": 7048,
      "##ికెట్": 7049,
      "##కరంగ": 7050,
      "సంగ్రహ": 7051,
      "సంపన్న": 7052,
      "##లిలోనూ": 7053,
      "##వాడు,": 7054,
      "##క్షే": 7055,
      "##ములతో": 7056,
      "ముద్ద": 7057,
      "స్నాన": 7058,
      "ఒకప్పుడు": 7059,
      "కొమ్మ": 7060,
      "##దు,": 7061,
      "##దులు,": 7062,
      "##నీటి": 7063,
      "నాన్": 7064,
      "స్వర్ణ": 7065,
      "అతడిని": 7066,
      "##శాస": 7067,
      "ఉత్పత్తు": 7068,
      "కలిగే": 7069,
      "సమయానికి": 7070,
      "##ప్పుడే": 7071,
      "మిర్": 7072,
      "అంటు": 7073,
      "గోలు": 7074,
      "##యన్స్": 7075,
      "##వరంలోనూ": 7076,
      "భారతదేశం,": 7077,
      "వర్షా": 7078,
      "రాజకీయాలు": 7079,
      "పనిచేసాడు.": 7080,
      "యాజ": 7081,
      "లాటిన్": 7082,
      "బ్రె": 7083,
      "నాటకం": 7084,
      "##వెటోరియల్": 7085,
      "చురుకు": 7086,
      "క్రిస్టి": 7087,
      "##లైట్": 7088,
      "వహించారు.": 7089,
      "##ీర్ఘ": 7090,
      "భావించాడు.": 7091,
      "భావించారు.": 7092,
      "కేంద్రాలుగ్రామానికి": 7093,
      "##ళ్ళు,": 7094,
      "తుని": 7095,
      "ప్రభాకర": 7096,
      "##స్తాడు": 7097,
      "రచయిత.": 7098,
      "ఇచ్చారు.": 7099,
      "సింగ్,": 7100,
      "కమిషన్": 7101,
      "పర్యాటకు": 7102,
      "దోహద": 7103,
      "కాకుండా,": 7104,
      "ఏప్రిల్లో": 7105,
      "రుద్ర": 7106,
      "పరిశ్రమల": 7107,
      "తప్పని": 7108,
      "ముస్లి": 7109,
      "ప్రయాణి": 7110,
      "విభాగాలు": 7111,
      "స్నేహ": 7112,
      "నామకరణం": 7113,
      "ఒకరి": 7114,
      "పోరాటం": 7115,
      "గీత": 7116,
      "కమ్యూనిటీ": 7117,
      "చర్యలు": 7118,
      "చిత్రాన్ని": 7119,
      "##పూడిలో": 7120,
      "నడిప": 7121,
      "అద్భుతమైన": 7122,
      "నిజామాబాదు": 7123,
      "మ్యూజిక్": 7124,
      "మ్యూజియం": 7125,
      "చెరకు,": 7126,
      "పునర్ని": 7127,
      "##ించబడతాయి.": 7128,
      "మాంసం": 7129,
      "హీరోగా": 7130,
      "##సంఖ్యలో": 7131,
      "ఈక్వెటోరియల్": 7132,
      "ఎవరు": 7133,
      "త్రాగు": 7134,
      "ఇవికూడా": 7135,
      "డాలర్లు": 7136,
      "ప్రావిన్స్": 7137,
      "జార్జ్": 7138,
      "సిస్టమ్": 7139,
      "కొలువులో": 7140,
      "భువనగిరి": 7141,
      "##ార్జున": 7142,
      "సుదీర్ఘ": 7143,
      "సదుపాయ": 7144,
      "ఆరోపణ": 7145,
      "సమ్మేళ": 7146,
      "సంభాషణ": 7147,
      "యంత్ర": 7148,
      "కారిడ": 7149,
      "డిప్యూటీ": 7150,
      "విముక్తి": 7151,
      "న్యూక్లియర్": 7152,
      "నెదర్లాండ్": 7153,
      "బదిలీ": 7154,
      "డ్రైనేజీ": 7155,
      "మచిలీ": 7156,
      "అఫ్": 7157,
      "అసా": 7158,
      "అమ్ము": 7159,
      "ఆజ్ఞ": 7160,
      "ఇర్": 7161,
      "కమీ": 7162,
      "చమురు": 7163,
      "జట్": 7164,
      "టౌన్": 7165,
      "ధాన": 7166,
      "ఫ్లా": 7167,
      "ఫ్లో": 7168,
      "లఘు": 7169,
      "వారు.": 7170,
      "వాడు.": 7171,
      "శీర్": 7172,
      "షీ": 7173,
      "సన్యా": 7174,
      "హర్య": 7175,
      "##ర్రి": 7176,
      "##తని": 7177,
      "##నాల్": 7178,
      "##ణి.": 7179,
      "##యిం": 7180,
      "##ిస్తున్న": 7181,
      "##వని": 7182,
      "##చన": 7183,
      "##మటి": 7184,
      "##భవన": 7185,
      "##షైర్": 7186,
      "##బర": 7187,
      "##బిన": 7188,
      "##ఇతర": 7189,
      "##స్పి": 7190,
      "##స్కూ": 7191,
      "##డిన్": 7192,
      "గ్రామస్థ": 7193,
      "ప్రై": 7194,
      "##నుల": 7195,
      "##ించలేదు.": 7196,
      "##ికొ": 7197,
      "##తున్నాడు.": 7198,
      "##గుళ": 7199,
      "సంచ": 7200,
      "##డ్లో": 7201,
      "##ానికీ": 7202,
      "##టుగా": 7203,
      "##శాలలో": 7204,
      "పావు": 7205,
      "##ంటసాల": 7206,
      "నిశ్చ": 7207,
      "నిధులు": 7208,
      "నిరూప": 7209,
      "ముది": 7210,
      "మున్సి": 7211,
      "చెక్క": 7212,
      "చెల్లె": 7213,
      "సరళ": 7214,
      "##గిల్": 7215,
      "##గితే": 7216,
      "ఆరో": 7217,
      "##పాత": 7218,
      "##సంస్థ": 7219,
      "##బాబ": 7220,
      "##బాబా": 7221,
      "వెన": 7222,
      "వెన్న": 7223,
      "##్రిప్": 7224,
      "విద్యాభా": 7225,
      "మీర్": 7226,
      "##ణి,": 7227,
      "శివు": 7228,
      "శిరో": 7229,
      "రాజ్యం": 7230,
      "అందుకున్న": 7231,
      "ఎక్కువ.": 7232,
      "స్థలం": 7233,
      "చేయడంతో": 7234,
      "పరంగా": 7235,
      "రూపు": 7236,
      "ఉండేవి.": 7237,
      "మేరకు": 7238,
      "అంశం": 7239,
      "దీప": 7240,
      "బిజిన": 7241,
      "డాక్యు": 7242,
      "##జాబాద్": 7243,
      "అనుగుణంగా": 7244,
      "##మోహన్": 7245,
      "పితామ": 7246,
      "##చున్నారు.": 7247,
      "##ుంటే": 7248,
      "##ధిలో": 7249,
      "వార్డు": 7250,
      "బహిరంగంగా": 7251,
      "దాస్": 7252,
      "మహాన": 7253,
      "నిర్మల్": 7254,
      "జాగ": 7255,
      "తీసుకొ": 7256,
      "నటించాడు.": 7257,
      "పెద్దగా": 7258,
      "కొన్నిసార్లు": 7259,
      "##్రేడ్": 7260,
      "రూపాయి": 7261,
      "ధర్మరాజా": 7262,
      "బెరీలియం": 7263,
      "విజయ్": 7264,
      "యూనియ": 7265,
      "సంస్కార": 7266,
      "అన్నీ": 7267,
      "మానసిక": 7268,
      "పురాణం": 7269,
      "##ధుమ": 7270,
      "తీసుకురా": 7271,
      "##పూజ": 7272,
      "కృష్ణమూర్తి": 7273,
      "కృష్ణశాస్త్రి": 7274,
      "స్థిర": 7275,
      "వ్యాపారం": 7276,
      "##స్థిర": 7277,
      "ప్రకటించాడు.": 7278,
      "బ్యాడ్": 7279,
      "బ్యాచి": 7280,
      "ఆలయం,": 7281,
      "ఇచ్చే": 7282,
      "అరబ్బ": 7283,
      "సూర్యుడు": 7284,
      "సత్యం": 7285,
      "అయ్యాయి.": 7286,
      "లక్ష్మ": 7287,
      "చేపట్టిన": 7288,
      "చదివి": 7289,
      "సముద్రతీ": 7290,
      "సృష్టి": 7291,
      "డేటా": 7292,
      "తలె": 7293,
      "ద్రౌ": 7294,
      "##జర్వే": 7295,
      "అల్జీరియాలో": 7296,
      "విజయవాడలో": 7297,
      "లైఫ్": 7298,
      "భక్తుల": 7299,
      "టెస్టులో": 7300,
      "ఎడారి": 7301,
      "అనుసంధాని": 7302,
      "రూపొందించిన": 7303,
      "నివసిస్తున్నారు.": 7304,
      "కనుగొన్న": 7305,
      "ఆయుర్వేద": 7306,
      "ఆమదాల": 7307,
      "నాయకత్వంలో": 7308,
      "ద్వీపంలో": 7309,
      "నేపథ్యంలో": 7310,
      "##దేవాలయాలు": 7311,
      "ప్రోత్సాహ": 7312,
      "ఉత్సవాలు": 7313,
      "స్పెయిన్": 7314,
      "గురించిన": 7315,
      "నౌక": 7316,
      "##ించబడింది,": 7317,
      "లక్షణాలు": 7318,
      "సమావేశంలో": 7319,
      "అన్వే": 7320,
      "గానీ,": 7321,
      "చైర్మన్": 7322,
      "శృంగవరపుకోట": 7323,
      "సాయంత్రం": 7324,
      "ప్రెసిడెన్": 7325,
      "బాలసుబ్రహ్మణ్యం": 7326,
      "నాగరికత": 7327,
      "రాజవంశం": 7328,
      "అరణ్య": 7329,
      "రాలేదు.": 7330,
      "తిరస్కర": 7331,
      "అభివర్ణ": 7332,
      "అవగాహన": 7333,
      "##య్యూరు": 7334,
      "హిమాచల్": 7335,
      "మొఘల్": 7336,
      "ఏదైనా": 7337,
      "కఠిన": 7338,
      ".అ": 7339,
      "అబ్బ": 7340,
      "ఆదరణ": 7341,
      "ఈశ్వ": 7342,
      "ఎద్దు": 7343,
      "ఏం": 7344,
      "కేంద": 7345,
      "జవహ": 7346,
      "టర్": 7347,
      "టాం": 7348,
      "డబుల్": 7349,
      "దౌ": 7350,
      "దాత": 7351,
      "నాన": 7352,
      "పట్": 7353,
      "రజ": 7354,
      "వూ": 7355,
      "వాల": 7356,
      "వాన": 7357,
      "శబ్ద": 7358,
      "##ధన": 7359,
      "##ర్యా": 7360,
      "##జాతీయ": 7361,
      "##జనం": 7362,
      "##గలు": 7363,
      "##గడ్డ": 7364,
      "##ేసి": 7365,
      "##వళి": 7366,
      "##పూరు": 7367,
      "##పడుతుంది.": 7368,
      "##మాండ్": 7369,
      "##మర్రు": 7370,
      "##థర్": 7371,
      "##ఫు": 7372,
      "##బల": 7373,
      "##బ్రి": 7374,
      "##్రన్": 7375,
      "##ంలోనే": 7376,
      "##న్నర": 7377,
      "ప్రక్క": 7378,
      "##ుంబా": 7379,
      "##ుండే": 7380,
      "##కుడి": 7381,
      "##గావ్": 7382,
      "##ించండి": 7383,
      "##ికీ": 7384,
      "##కరంగా": 7385,
      "##తిమ": 7386,
      "##లిత": 7387,
      "##రా,": 7388,
      "పోయిన": 7389,
      "సాను": 7390,
      "స్తు": 7391,
      "##సిల్": 7392,
      "##మిత్ర": 7393,
      "కోర్": 7394,
      "కోరుకు": 7395,
      "##నియా,": 7396,
      "సరస్": 7397,
      "##సాయి": 7398,
      "మాస్ట": 7399,
      "కళాశాలలు,": 7400,
      "కాగి": 7401,
      "##పి,": 7402,
      "##పిక్": 7403,
      "##లలోనూ": 7404,
      "##యాలో": 7405,
      "వెలుగు": 7406,
      "పొట్టి": 7407,
      "##ులైన": 7408,
      "వీటికి": 7409,
      "##వారికి": 7410,
      "బాలిక": 7411,
      "వేసు": 7412,
      "స్టూ": 7413,
      "నేడు": 7414,
      "##వంత్": 7415,
      "సమర్ధ": 7416,
      "##డానికి,": 7417,
      "ఉండాలి.": 7418,
      "మేన": 7419,
      "అంపై": 7420,
      "శ్రీమతి": 7421,
      "ఎన్నికై": 7422,
      "భూమిని": 7423,
      "##ులుగా": 7424,
      "##ట్లేదు.": 7425,
      "##మేష్": 7426,
      "##వరం,": 7427,
      "పూర్వీ": 7428,
      "##లంబ": 7429,
      "కుమారులు": 7430,
      "##లవంత": 7431,
      "రెండుసార్లు": 7432,
      "ఆర్ట్స్,": 7433,
      "సమీక్ష": 7434,
      "గ్రామం..": 7435,
      "తరచూ": 7436,
      "పదవ": 7437,
      "సంవత్సరాలుగా": 7438,
      "అత్యవసర": 7439,
      "పనిచేసి": 7440,
      "రెండూ": 7441,
      "శాసనసభకు": 7442,
      "రూపొ": 7443,
      "కల్యా": 7444,
      "గొల్ల": 7445,
      "బెర్": 7446,
      "పోటీలలో": 7447,
      "నాట్య": 7448,
      "ఒకరు,": 7449,
      "తెలిసిన": 7450,
      "ఇక్కడకు": 7451,
      "బొబ్బి": 7452,
      "పరుగులతో": 7453,
      "అలస": 7454,
      "దేశాలకు": 7455,
      "నాగేశ్వరరావు": 7456,
      "క్షే": 7457,
      "వెంకటప్ప": 7458,
      "స్థితి": 7459,
      "స్థిరమైన": 7460,
      "పుస్తకాలు": 7461,
      "పలువు": 7462,
      "అరెస్టు": 7463,
      "బహుశా": 7464,
      "తయారుచేయ": 7465,
      "ప్రేమి": 7466,
      "నిరంతర": 7467,
      "రావట్లేదు.": 7468,
      "దోపి": 7469,
      "చాళు": 7470,
      "జలపాతం": 7471,
      "అనంతగిరి": 7472,
      "##రుసటి": 7473,
      "ఆగస్టులో": 7474,
      "ఆస్ట్రేలియన్": 7475,
      "బోర్డ్": 7476,
      "నాణేల": 7477,
      "##వాహక": 7478,
      "రికార్": 7479,
      "రాజీవ్": 7480,
      "నర్సీ": 7481,
      "సెప్టెంబరులో": 7482,
      "ఎగువ": 7483,
      "కప్లో": 7484,
      "డాక్టర్లు,": 7485,
      "జుట్టు": 7486,
      "నికెల్": 7487,
      "పోయాడు.": 7488,
      "##హెచ్.": 7489,
      "విపరీ": 7490,
      "ప్రెసిడెంట్": 7491,
      "కాపాడ": 7492,
      "కాలిఫోర్": 7493,
      "ఉత్తరాన": 7494,
      "నిర్వహించెదరు.": 7495,
      "మాడుగుల": 7496,
      "ఇబ్బందు": 7497,
      "ఐక్యరాజ్యసమితి": 7498,
      "హింస": 7499,
      "పరాక్రమ": 7500,
      "పొలిట్బ్యూరో": 7501,
      "ఛానల్": 7502,
      "బయలుదే": 7503,
      "ఇంగ్లాండు": 7504,
      "వంతెన": 7505,
      "కౌరవ": 7506,
      "పర్షియన్": 7507,
      "##తరువాత": 7508,
      "డిపార్ట్": 7509,
      "పొటాషియం": 7510,
      "సయ్యద్": 7511,
      "బొంబాయి": 7512,
      "ఆమదాలవలస": 7513,
      "అరి": 7514,
      "అజ్ఞ": 7515,
      "అటువంటి": 7516,
      "ఆయ": 7517,
      "ఆయా": 7518,
      "ఏల": 7519,
      "ఏజ": 7520,
      "ఓడ": 7521,
      "క్యాల": 7522,
      "గింజ": 7523,
      "టొ": 7524,
      "దయ": 7525,
      "నకులు": 7526,
      "పఠ": 7527,
      "పరు": 7528,
      "పండ": 7529,
      "బస్": 7530,
      "బలవంత": 7531,
      "మృత్య": 7532,
      "మరుసటి": 7533,
      "శూ": 7534,
      "సన్న": 7535,
      "హరిక": 7536,
      "##ోత్": 7537,
      "##రద": 7538,
      "##రార్": 7539,
      "##గజ": 7540,
      "##కన": 7541,
      "##యిక": 7542,
      "##ెలో": 7543,
      "##ెలు": 7544,
      "##వణ": 7545,
      "##వాల్": 7546,
      "##చార్": 7547,
      "##పథ": 7548,
      "##పార్": 7549,
      "##సన్,": 7550,
      "##ఎన్.": 7551,
      "##బుంటు": 7552,
      "##ఖా": 7553,
      "##ఢిల్లీ": 7554,
      "ప్రవా": 7555,
      "ప్రస్థానం": 7556,
      "##కులలో": 7557,
      "వివరి": 7558,
      "##ించని": 7559,
      "సంపాదక": 7560,
      "##రియం": 7561,
      "##ానికే": 7562,
      "##మామ": 7563,
      "##ంటాయి.": 7564,
      "##ానంతరం": 7565,
      "రాక్ష": 7566,
      "##విన్": 7567,
      "##ెండు": 7568,
      "##నాగ": 7569,
      "##దురు.": 7570,
      "##ళ్లలో": 7571,
      "ఆర్యుల": 7572,
      "కాట": 7573,
      "కాదని": 7574,
      "వాటం": 7575,
      "సరఫరాగ్రామంలో": 7576,
      "వెయ్య": 7577,
      "పొద్దు": 7578,
      "సహచ": 7579,
      "చిక్కు": 7580,
      "మూలం": 7581,
      "శిల్": 7582,
      "##రీఫ్": 7583,
      "ఇతనికి": 7584,
      "బాస్": 7585,
      "##ల్లోని": 7586,
      "ఉపసం": 7587,
      "వేగం": 7588,
      "వేలాది": 7589,
      "పెసర": 7590,
      "##పూర్వ": 7591,
      "పరస్ప": 7592,
      "పాలించారు.": 7593,
      "మిథ": 7594,
      "ఆర్టి": 7595,
      "దీక్ష": 7596,
      "వాడే": 7597,
      "పట్టభద్ర": 7598,
      "గోవా": 7599,
      "గోధుమ": 7600,
      "విస్తరణ": 7601,
      "పిఠా": 7602,
      "హెల్": 7603,
      "నగరాన్ని": 7604,
      "దేశ్": 7605,
      "అంతస్తు": 7606,
      "చిత్రమాల": 7607,
      "మధ్యాహ్": 7608,
      "కులం": 7609,
      "##ట్లాండ్": 7610,
      "వంతు": 7611,
      "సెక": 7612,
      "సెక్ర": 7613,
      "పూర్ణ": 7614,
      "తీరంలో": 7615,
      "నెరవే": 7616,
      "తెలుగు,": 7617,
      "కృత": 7618,
      "భాగాలు": 7619,
      "##ర్యాలలోనూ": 7620,
      "##గేట్": 7621,
      "వారు,": 7622,
      "రిట": 7623,
      "దానితో": 7624,
      "అధ్యాప": 7625,
      "లభించాయి.": 7626,
      "##పట్నం": 7627,
      "రామలింగ": 7628,
      "పూణ": 7629,
      "రాజుల": 7630,
      "మంచిర్యాలలోనూ": 7631,
      "మ్యాచ్లలో": 7632,
      "స్థానాన్ని": 7633,
      "విశ్లేష": 7634,
      "తొలిసారిగా": 7635,
      "హైస్కూ": 7636,
      "అంటూ": 7637,
      "నిలిపి": 7638,
      "సముద్రమ": 7639,
      "తూర్పున": 7640,
      "పీపు": 7641,
      "మార్చిలో": 7642,
      "పాల్గొన్నాడు.": 7643,
      "ప్రకటన": 7644,
      "పుస్తకాన్ని": 7645,
      "అరటి": 7646,
      "ఓడిపోయాడు.": 7647,
      "ఐదు,": 7648,
      "శక్తివంతమైన": 7649,
      "నాయకుడిగా": 7650,
      "నైపు": 7651,
      "ఆల్బ": 7652,
      "చారిత్రిక": 7653,
      "##స్తుంటాయి.": 7654,
      "పూజలు": 7655,
      "ఒకరు.": 7656,
      "పూర్వపు": 7657,
      "##లక్ష్మీ": 7658,
      "కారణాల": 7659,
      "పంపాడు.": 7660,
      "##భిప్రా": 7661,
      "ఇస్లాం": 7662,
      "పదిహే": 7663,
      "ప్రిన్సి": 7664,
      "కేరళలోని": 7665,
      "వ్యాసాలు": 7666,
      "మార్పులు": 7667,
      "పర్యటనలో": 7668,
      "చివరలో": 7669,
      "అసోసియేట్": 7670,
      "నేతృత్వంలోని": 7671,
      "పేదరిక": 7672,
      "ఆదాయం": 7673,
      "కాన్ఫర": 7674,
      "కార్యకలాప": 7675,
      "ప్రదేశాలలో": 7676,
      "ఫెస్టివ": 7677,
      "సిద్ధిపేట": 7678,
      "నివారణ": 7679,
      "ప్రస్తావన": 7680,
      "ఉచిత": 7681,
      "స్థూలక": 7682,
      "గ్రాడ్యుయేట్": 7683,
      "సంరక్షణా": 7684,
      "##కుమారి": 7685,
      "బ్రాహ్మణు": 7686,
      "రైల్వేస్టేషన్": 7687,
      "గుర్జర": 7688,
      "పోరాడ": 7689,
      "రవీంద్ర": 7690,
      "బ్యాచిలర్": 7691,
      "స్టూడియో": 7692,
      "నర్సీపట్న": 7693,
      "అన్నారు.": 7694,
      "అర్చ": 7695,
      "అదృ": 7696,
      "ఆండ": 7697,
      "ఏళ్ళ": 7698,
      "ఐ.": 7699,
      "ఒరి": 7700,
      "ఒడ్డు": 7701,
      "ఓపె": 7702,
      "కరు": 7703,
      "కత్తి": 7704,
      "కప్పు": 7705,
      "కర్ర": 7706,
      "ఖి": 7707,
      "చారు": 7708,
      "టౌ": 7709,
      "డ్రామ": 7710,
      "తాన": 7711,
      "తదన": 7712,
      "తద్వారా": 7713,
      "ధూ": 7714,
      "పోగ": 7715,
      "భట్": 7716,
      "మన్యం": 7717,
      "రాయి": 7718,
      "శనగ": 7719,
      "##ధర": 7720,
      "##ాతి": 7721,
      "##ాత్మక": 7722,
      "##లకల": 7723,
      "##రం,": 7724,
      "##జింగ్": 7725,
      "##గూర్": 7726,
      "##తలో": 7727,
      "##కవి": 7728,
      "##కళా": 7729,
      "##వయ": 7730,
      "##వాలు": 7731,
      "##వైన": 7732,
      "##ంజ్": 7733,
      "##డ,": 7734,
      "##డన్": 7735,
      "##పల": 7736,
      "##పాన": 7737,
      "##పడ్డారు.": 7738,
      "##సెన్": 7739,
      "##సనం": 7740,
      "##ఘా": 7741,
      "##అతను": 7742,
      "##ర్మి": 7743,
      "##డియన్": 7744,
      "##క్చ": 7745,
      "##రులను": 7746,
      "##ల్సీ": 7747,
      "##కులతో": 7748,
      "విప్ల": 7749,
      "##ాలున్నాయి.": 7750,
      "##గుణ": 7751,
      "##లిలో": 7752,
      "##లిని": 7753,
      "##లిలోను,": 7754,
      "##సులను": 7755,
      "##మాన్య": 7756,
      "##ంటాడు.": 7757,
      "##ానంద": 7758,
      "##గ్ల": 7759,
      "##వులతో": 7760,
      "##నేశ్వ": 7761,
      "సాధ్య": 7762,
      "విద్యు": 7763,
      "##నాడు,": 7764,
      "##ేశ్": 7765,
      "మాస్": 7766,
      "మామి": 7767,
      "##తాడు": 7768,
      "వాష": 7769,
      "వాటర్": 7770,
      "పుల్ల": 7771,
      "వ్యవస్థాపక": 7772,
      "డిస్ట": 7773,
      "డిమాండ్": 7774,
      "పొరుగు": 7775,
      "తిల": 7776,
      "భూత": 7777,
      "భాస్కర": 7778,
      "##జి,": 7779,
      "ఉపన": 7780,
      "బాలబడులు": 7781,
      "వేణు": 7782,
      "##ప్రధాన": 7783,
      "ప్రాంతాలను": 7784,
      "##జీ,": 7785,
      "తాత్": 7786,
      "సుగ్రీ": 7787,
      "సుబ్రహ్మణ": 7788,
      "ఆసుపత్రిలో": 7789,
      "మిత్రు": 7790,
      "అంశ": 7791,
      "బిందు": 7792,
      "అమలా": 7793,
      "సెమీ": 7794,
      "##వరే": 7795,
      "ట్రాఫిక్": 7796,
      "తీర్థ": 7797,
      "దుశ్": 7798,
      "ఫిలాస": 7799,
      "మందికి": 7800,
      "నిర్మించబడిన": 7801,
      "అందమైన": 7802,
      "కొత్తగూడెం": 7803,
      "చేసుకొ": 7804,
      "పనిచేసే": 7805,
      "చెప్పే": 7806,
      "సంగీతాన్ని": 7807,
      "సూత్ర": 7808,
      "కార్మిక": 7809,
      "సభ్యురాలిగా": 7810,
      "అక్టోబరులో": 7811,
      "ఇద్దరు,": 7812,
      "నాటకాలు": 7813,
      "సంబంధాలను": 7814,
      "రచనలను": 7815,
      "రాజులు": 7816,
      "శతాబ్": 7817,
      "##చేశారు.": 7818,
      "శాస్త్రంలో": 7819,
      "##వాడలో": 7820,
      "నిర్మాణానికి": 7821,
      "సంగీతం,": 7822,
      "తీసుకున్నారు.": 7823,
      "తుఫ": 7824,
      "కమలా": 7825,
      "పాల్గొన్న": 7826,
      "మొక్కలు": 7827,
      "అరబ్": 7828,
      "సర్వీస్": 7829,
      "అయ్యే": 7830,
      "అయ్యర్": 7831,
      "తయారుచే": 7832,
      "నైపుణ": 7833,
      "##పోయినా": 7834,
      "నగర్లోనూ": 7835,
      "పరిశ్రమలో": 7836,
      "అత్యధికంగా": 7837,
      "గెలిచాడు.": 7838,
      "శంకర్": 7839,
      "నల్గొండలోనూ": 7840,
      "టాక్సీ": 7841,
      "##రళీ": 7842,
      "వహిస్తున్నాయి.": 7843,
      "రసాయనిక": 7844,
      "క్రీడలలో": 7845,
      "దగ్గరగా": 7846,
      "ఐరోపాలో": 7847,
      "పదవిలో": 7848,
      "అధిగమ": 7849,
      "కృషికి": 7850,
      "ఉంటుంది,": 7851,
      "ఖాళీ": 7852,
      "ఆవిష్కర": 7853,
      "ఫైనాన్": 7854,
      "దర్శకుడిగా": 7855,
      "క్రైస్త": 7856,
      "స్నేహితు": 7857,
      "కార్మికుల": 7858,
      "సన్నిహి": 7859,
      "గేమ్": 7860,
      "బ్యాట్స్మన్": 7861,
      "అనుకూలంగా": 7862,
      "తదితర": 7863,
      "##వెల్త్": 7864,
      "నరేంద్ర": 7865,
      "నమూనా": 7866,
      "ప్రభావితం": 7867,
      "చేశాడు,": 7868,
      "రాఘవ": 7869,
      "భాగస్వామ్యం": 7870,
      "స్తంభ": 7871,
      "భవిష్యత్తు": 7872,
      "పరిగణి": 7873,
      "విశిష్ట": 7874,
      "ఎన్టీఆర్": 7875,
      "ఉర్దూ": 7876,
      "ప్రభుత్వాన్ని": 7877,
      "పొడవైన": 7878,
      "ఎలక్ట్రానిక్": 7879,
      "ఆశ్చర్య": 7880,
      "ఈశాన్య": 7881,
      "చురుకుగా": 7882,
      "పునర్నిర్మ": 7883,
      "విద్యాభాస్యం": 7884,
      "బిజినెస్": 7885,
      "ద్రౌపది": 7886,
      "ప్రెసిడెన్సీ": 7887,
      "మృత్యు": 7888,
      "అచ": 7889,
      "అహ": 7890,
      "అత్త": 7891,
      "అరే": 7892,
      "ఆన": 7893,
      "ఎక్క": 7894,
      "ఏరియా,": 7895,
      "కారు": 7896,
      "కరువు": 7897,
      "గరి": 7898,
      "గడుపు": 7899,
      "ఛై": 7900,
      "డార్": 7901,
      "తూ": 7902,
      "నల": 7903,
      "పృ": 7904,
      "మి.": 7905,
      "మెట్": 7906,
      "మెడ": 7907,
      "యార్": 7908,
      "రమ": 7909,
      "రంప": 7910,
      "రమేష్": 7911,
      "సరా": 7912,
      "సెన్": 7913,
      "హమ": 7914,
      "హర్": 7915,
      "హోద": 7916,
      "##దీయ": 7917,
      "##తుంటారు.": 7918,
      "##న.": 7919,
      "##ని.": 7920,
      "##నైన": 7921,
      "##కోగ": 7922,
      "##క్యూ": 7923,
      "##యలు": 7924,
      "##శారు.": 7925,
      "##టంటే": 7926,
      "##ట్రో": 7927,
      "##వెం": 7928,
      "##వ్యూ": 7929,
      "##ంటుంది.": 7930,
      "##డె": 7931,
      "##మోగ్రఫీ": 7932,
      "##భీ": 7933,
      "##సౌ": 7934,
      "##ఎఫ్": 7935,
      "##ఫైన": 7936,
      "##బుల": 7937,
      "##ఉంది": 7938,
      "##ాలలోని": 7939,
      "##స్మ": 7940,
      "##డిద": 7941,
      "ప్రెస్": 7942,
      "##ల్చ": 7943,
      "##ించలేక": 7944,
      "##కరి": 7945,
      "చేనే": 7946,
      "చేస్తే": 7947,
      "చేస్తోంది": 7948,
      "##రాబాద్": 7949,
      "##వుతుంది.": 7950,
      "##ల్లీ": 7951,
      "నిడ": 7952,
      "##బ్లి": 7953,
      "##స్తీ": 7954,
      "ప్రాక్": 7955,
      "##సియ": 7956,
      "##నాతన": 7957,
      "సికి": 7958,
      "మాధవ": 7959,
      "##ూర్తి": 7960,
      "జిల్లాను": 7961,
      "##తాబ్": 7962,
      "##ళ్లను": 7963,
      "కిమీ": 7964,
      "కాథ": 7965,
      "వాహన": 7966,
      "##హదూర్": 7967,
      "##ట్టే": 7968,
      "##చ్చారు.": 7969,
      "##సంఘ": 7970,
      "వెలు": 7971,
      "నిర్మి": 7972,
      "నిర్వచ": 7973,
      "##ప్పటికి": 7974,
      "##జిక్యూ": 7975,
      "తిప్ప": 7976,
      "చిరు": 7977,
      "##యిస్": 7978,
      "##డం.": 7979,
      "బాబా": 7980,
      "##జియా": 7981,
      "ఉపరి": 7982,
      "##స్ట్,": 7983,
      "స్టో": 7984,
      "పెళ్లి": 7985,
      "నేత": 7986,
      "ఉండదు.": 7987,
      "మేలో": 7988,
      "మొదలైంది.": 7989,
      "ఆర్డర్": 7990,
      "##కొక": 7991,
      "పనిని": 7992,
      "కంచి": 7993,
      "అమర": 7994,
      "రెడ్": 7995,
      "##చున్నది.": 7996,
      "అంత్య": 7997,
      "అధికారు": 7998,
      "దుష్": 7999,
      "##టీఎం": 8000,
      "కాంట్రా": 8001,
      "నెమ్మ": 8002,
      "జాతుల": 8003,
      "అసెంబ్లీకి": 8004,
      "నటించారు": 8005,
      "చేసుకో": 8006,
      "##లేఖ": 8007,
      "##పెద్ది": 8008,
      "రిజి": 8009,
      "కలప": 8010,
      "గొలు": 8011,
      "వ్యాసం": 8012,
      "కార్తీ": 8013,
      "అమెరికా,": 8014,
      "రాజుకు": 8015,
      "##మార్గ": 8016,
      "కార్యక్రమాలలో": 8017,
      "భావించి": 8018,
      "##ధులు,": 8019,
      "క్షీ": 8020,
      "స్థితిలో": 8021,
      "పాల్గొని": 8022,
      "ఆలయానికి": 8023,
      "ఓడిపోయింది.": 8024,
      "అయ్యారు.": 8025,
      "ఐదుగురు": 8026,
      "సిద్ధాం": 8027,
      "ప్రయత్నాలు": 8028,
      "బలూ": 8029,
      "పేర్కొన": 8030,
      "మహారాజు": 8031,
      "లక్ష్మి": 8032,
      "##పోవడం,": 8033,
      "ఎమ్మెల్సీ": 8034,
      "దోస": 8035,
      "పండితులు": 8036,
      "అవకాశాలు": 8037,
      "బెంగళూరు": 8038,
      "టైమ్స్": 8039,
      "నెలల": 8040,
      "డిసెంబరులో": 8041,
      "కలుగ": 8042,
      "ఆసియాలో": 8043,
      "చదవ": 8044,
      "గుంటూరులోను,": 8045,
      "చీఫ్": 8046,
      "ఎడ్యు": 8047,
      "నవంబరులో": 8048,
      "త్రిభు": 8049,
      "మునిసి": 8050,
      "వర్గీకర": 8051,
      "విలువైన": 8052,
      "ఆటగాడు.": 8053,
      "చెబుతారు.": 8054,
      "హరిత": 8055,
      "##పెట్టిన": 8056,
      "లీగ్లో": 8057,
      "గాని,": 8058,
      "అబ్దు": 8059,
      "##పడుతున్న": 8060,
      "నేతృత్వంలో": 8061,
      "యు.ఎస్.": 8062,
      "వాయవ్య": 8063,
      "##లేదు,": 8064,
      "మాదిరిగానే": 8065,
      "అయస్కాంత": 8066,
      "నమోద": 8067,
      "క్రీ.పూ.": 8068,
      "బిలియన్ల": 8069,
      "సులభంగా": 8070,
      "గుర్తిస్తూ": 8071,
      "అయ్యింది.": 8072,
      "చదరపు": 8073,
      "ప్రోగ్రామ్": 8074,
      "స్పీకర్": 8075,
      "పరమాణు": 8076,
      "విద్వాంసు": 8077,
      "ఒంటరి": 8078,
      "##మింటన్": 8079,
      "అగ్రహారంలో": 8080,
      "సార్వత్రిక": 8081,
      "నాశనం": 8082,
      "ఫిరోజాబాద్": 8083,
      "నిరవాకి": 8084,
      "పిలిచేవారు.": 8085,
      "ప్రాచుర్యం": 8086,
      "బ్యాడ్మింటన్": 8087,
      "రంపచో": 8088,
      "ఆం": 8089,
      "ఆపిల్": 8090,
      "ఏమీ": 8091,
      "ఏటి": 8092,
      "ఐరి": 8093,
      "ఒప్పు": 8094,
      "కట్టి": 8095,
      "గడ్డి": 8096,
      "జ్వ": 8097,
      "థామ": 8098,
      "పిండి": 8099,
      "పల్లిలోను,": 8100,
      "బాయిల": 8101,
      "బసవ": 8102,
      "బహదూర్": 8103,
      "మసీ": 8104,
      "మమ్మీ": 8105,
      "లెస్": 8106,
      "లాంగ్": 8107,
      "వదల": 8108,
      "వస్తాయి.": 8109,
      "వుండి": 8110,
      "శేష": 8111,
      "శ్రమ": 8112,
      "షరీఫ్": 8113,
      "##ుడైన": 8114,
      "##రాయి": 8115,
      "##గుం": 8116,
      "##కతా": 8117,
      "##కేషన్": 8118,
      "##ొప్": 8119,
      "##శ్రే": 8120,
      "##టాన్": 8121,
      "##వడంతో": 8122,
      "##సు.": 8123,
      "##షోర్": 8124,
      "##బెట్ట": 8125,
      "##్యంగా": 8126,
      "##ారే": 8127,
      "##నిజ": 8128,
      "##స్కు": 8129,
      "##స్సీ": 8130,
      "##ాయమ్మ": 8131,
      "##క్ల": 8132,
      "##క్ట్": 8133,
      "##రుద్ధ": 8134,
      "ప్రతా": 8135,
      "##కుట": 8136,
      "విత్త": 8137,
      "ఉన్నప్పుడు,": 8138,
      "ఉన్నప్పటికీ,": 8139,
      "##ించటానికి": 8140,
      "##లిజ": 8141,
      "లోతు": 8142,
      "చేతుల": 8143,
      "##ద్దులు": 8144,
      "##వాణి": 8145,
      "##గ్జ": 8146,
      "##దిలే": 8147,
      "వైపున": 8148,
      "##స్తమ": 8149,
      "##రుగురు": 8150,
      "సాక్ష": 8151,
      "ముంద": 8152,
      "వైద్యులు": 8153,
      "##ెండ్": 8154,
      "కొర": 8155,
      "##త్తీస్": 8156,
      "కోర్సు": 8157,
      "కళాకారులు": 8158,
      "##ళ్లు,": 8159,
      "##పాన్": 8160,
      "మూత": 8161,
      "మూవీ": 8162,
      "భారతి": 8163,
      "డిస్క్": 8164,
      "నిర్ధార": 8165,
      "##ాల్ని": 8166,
      "మండలాలు": 8167,
      "వీజీ": 8168,
      "బాక్": 8169,
      "##హామ్": 8170,
      "##ళ్ళకు": 8171,
      "చేయడంలో": 8172,
      "సురేష్": 8173,
      "సుజాత": 8174,
      "ఉండేవాడు.": 8175,
      "పాలి": 8176,
      "సమావేశం": 8177,
      "పార్కు": 8178,
      "##జాతి": 8179,
      "డిగ్రీని": 8180,
      "యుఎస్": 8181,
      "అమర్": 8182,
      "ప్రత్యేకత": 8183,
      "విధమైన": 8184,
      "##లోనూ,": 8185,
      "జరిపిన": 8186,
      "దేశాన్ని": 8187,
      "చిత్రంగా": 8188,
      "ప్రారంభమైంది.": 8189,
      "విజయాన్ని": 8190,
      "##పాలిటీ": 8191,
      "ఉత్తీర్": 8192,
      "వనరుల్లోకి": 8193,
      "వర్క్": 8194,
      "తీసుకె": 8195,
      "తొలు": 8196,
      "నిర్వహించబడు": 8197,
      "చేసుకోవ": 8198,
      "అయినప్పటికీ,": 8199,
      "##ించబడ్డారు.": 8200,
      "##వ్,": 8201,
      "ఉపయోగించారు.": 8202,
      "న్యూఢిల్లీ": 8203,
      "రేడాన్": 8204,
      "##వచ్చని": 8205,
      "##ించుకో": 8206,
      "నాటకరంగ": 8207,
      "మర్రి": 8208,
      "సంవత్సరాలలో": 8209,
      "సంవత్సరాలకు": 8210,
      "##తూ,": 8211,
      "##మార్గం": 8212,
      "బీడీ": 8213,
      "విషయాన్ని": 8214,
      "కర్మా": 8215,
      "గోర్బచేవ్,": 8216,
      "శాస్త్రం": 8217,
      "కుమారుని": 8218,
      "నిర్మాణాలు": 8219,
      "శాఖలో": 8220,
      "సంగీతంలో": 8221,
      "##చుకున్నారు.": 8222,
      "హైదరాబాదులోని": 8223,
      "ప్రచురించింది.": 8224,
      "తేలిక": 8225,
      "##మానంద": 8226,
      "##శిక్ష": 8227,
      "కవితా": 8228,
      "అక్షర": 8229,
      "నదికి": 8230,
      "కనిపించింది.": 8231,
      "##రెడ్డి,": 8232,
      "నైతిక": 8233,
      "రావడానికి": 8234,
      "##వాదం": 8235,
      "##ింపబడిన": 8236,
      "క్రమం": 8237,
      "చదువుకున్నాడు.": 8238,
      "##పెట్టాడు.": 8239,
      "ఆరు,": 8240,
      "ఫిల్మోగ్రఫీ": 8241,
      "ముస్లింలు": 8242,
      "కోల్కతా": 8243,
      "టాప్": 8244,
      "గౌడ": 8245,
      "విశాఖపట్నంలో": 8246,
      "ఉపాధి": 8247,
      "మద్రాసులో": 8248,
      "ట్రై": 8249,
      "చేరుకున్న": 8250,
      "భోజన": 8251,
      "పెరుగుతున్న": 8252,
      "ముఖర్జీ": 8253,
      "క్యాన్సర్": 8254,
      "టిబ": 8255,
      "విగ్రహాలు": 8256,
      "ఎల్.": 8257,
      "##వచ్చు,": 8258,
      "ఇంతలో": 8259,
      "ప్రియ": 8260,
      "పవిత్రమైన": 8261,
      "##శాస్త్రంలో": 8262,
      "విస్తీర్ణంలో": 8263,
      "ఫీల్డ్": 8264,
      "ఆకలి": 8265,
      "ఆకట్టు": 8266,
      "పార్లమెంట్": 8267,
      "ముంచ": 8268,
      "పునర్నిర్మా": 8269,
      "శ్వేత": 8270,
      "ఇరాన్": 8271,
      "పసుపు,": 8272,
      "నష్టం": 8273,
      "##య్యింది.": 8274,
      "సామర్థ్యం": 8275,
      "నిజామాబాద్లోనూ": 8276,
      "మదన్": 8277,
      "##కాంత్": 8278,
      "త్వరగా": 8279,
      "తదిత": 8280,
      "శ్రీకృష్ణుడు": 8281,
      "నామినేషన్": 8282,
      "డివిజనులో": 8283,
      "పాయింట్": 8284,
      "ప్రదేశాలుదేవాలయాలు": 8285,
      "##జయుడు": 8286,
      "భద్రాచల": 8287,
      "##నుంచి": 8288,
      "సిరిసి": 8289,
      "పునాది": 8290,
      "ఆధిపత్యం": 8291,
      "సంయుక్త": 8292,
      "కలెక్టర్": 8293,
      "తల్లిదండ్రులు": 8294,
      "చిన్నతనంలో": 8295,
      "రహస్య": 8296,
      "అర్హత": 8297,
      "సుల్తాన్": 8298,
      "పరిణామ": 8299,
      "శ్రీనివాస్": 8300,
      "మార్క్సిస్ట్": 8301,
      "కొంచెం": 8302,
      "సమకాలీన": 8303,
      "డెవలప్మెంట్": 8304,
      "నిర్దిష్ట": 8305,
      "హర్యానా": 8306,
      "పితామహా": 8307,
      "చిత్రమాలిక": 8308,
      "పీపుల్స్": 8309,
      "తుఫాను": 8310,
      "ఉపరితల": 8311,
      "నెమ్మదిగా": 8312,
      "వీజీటీఎం": 8313,
      "అటు": 8314,
      "అస్సా": 8315,
      "అబెల్": 8316,
      "ఆడా": 8317,
      "ఆకార": 8318,
      "ఆదర్శ": 8319,
      "ఆనాటి": 8320,
      "ఆమిర్": 8321,
      "ఇద": 8322,
      "ఇవీ": 8323,
      "ఇబ్ర": 8324,
      "ఈజి": 8325,
      "ఉన్ని": 8326,
      "ఉమె": 8327,
      "ఊరి": 8328,
      "ఎర్": 8329,
      "ఎక్": 8330,
      "ఎండి": 8331,
      "ఐదవ": 8332,
      "గానీ": 8333,
      "గంభ": 8334,
      "ఘనంగా": 8335,
      "చైన": 8336,
      "డ్యా": 8337,
      "తవ్వ": 8338,
      "తింట": 8339,
      "ధనం": 8340,
      "ధార్మిక": 8341,
      "భగవ": 8342,
      "మరీ": 8343,
      "ర్యాం": 8344,
      "లెక్": 8345,
      "వరం": 8346,
      "శరత్": 8347,
      "##దత్తు": 8348,
      "##దేవ్": 8349,
      "##దళం": 8350,
      "##నము": 8351,
      "##కత": 8352,
      "##కూర": 8353,
      "##ూల": 8354,
      "##యూ": 8355,
      "##యొక్క": 8356,
      "##వలి": 8357,
      "##వద్ద": 8358,
      "##వచ్చి": 8359,
      "##వ్రోపో": 8360,
      "##చారి": 8361,
      "##చర్య": 8362,
      "##పిల్ల": 8363,
      "##పడుతూ": 8364,
      "##మయిన": 8365,
      "##స్ర": 8366,
      "##షత్": 8367,
      "##ాయో": 8368,
      "##క్తంగా": 8369,
      "##రుక": 8370,
      "##రులకు": 8371,
      "ప్రహ్లా": 8372,
      "##ల్డింగ్": 8373,
      "##కుర్తి": 8374,
      "విల్": 8375,
      "నుండే": 8376,
      "ఉన్నా": 8377,
      "##ించేవాడు.": 8378,
      "##కరా": 8379,
      "సంక్రా": 8380,
      "##డును": 8381,
      "##డ్నీ": 8382,
      "##రితమైన": 8383,
      "##లియ": 8384,
      "##టును": 8385,
      "##వా,": 8386,
      "##ానో": 8387,
      "రాధ": 8388,
      "రాము": 8389,
      "##క్షంలో": 8390,
      "##క్షన్స్": 8391,
      "##వేసి": 8392,
      "##ష్కరణ": 8393,
      "##మున్న": 8394,
      "##స్తున్నా": 8395,
      "ముక్తి": 8396,
      "##మియర్": 8397,
      "##నాధ": 8398,
      "కొల్ల": 8399,
      "కురి": 8400,
      "##ందున,": 8401,
      "##్యాస": 8402,
      "కోన": 8403,
      "కోట్లు": 8404,
      "సిఫ": 8405,
      "##నియో": 8406,
      "మాన్": 8407,
      "తెచ్చుకు": 8408,
      "కాపాడు": 8409,
      "పురుగు": 8410,
      "జనగామ": 8411,
      "##పిస్తుంది.": 8412,
      "##పిప్పి": 8413,
      "##భాగాన్ని": 8414,
      "కారై": 8415,
      "శివుని": 8416,
      "##ించినా": 8417,
      "##ించినప్పుడు": 8418,
      "అవార్": 8419,
      "##కోడ": 8420,
      "ఉపన్యా": 8421,
      "వేర్": 8422,
      "వేరే": 8423,
      "పెరు": 8424,
      "నేర్ప": 8425,
      "ఉండేవారు.": 8426,
      "పాలకులు": 8427,
      "మేము": 8428,
      "##కృతి": 8429,
      "మరణించింది.": 8430,
      "సమాజం": 8431,
      "##ైదీ": 8432,
      "సంస్థ.": 8433,
      "జీర్ణ": 8434,
      "అనుసరి": 8435,
      "పిర": 8436,
      "హెచ్చ": 8437,
      "##లంగాణ": 8438,
      "పట్టణానికి": 8439,
      "సంతతికి": 8440,
      "##మే.": 8441,
      "చేశాయి.": 8442,
      "వస్తువుల": 8443,
      "వస్తువులను": 8444,
      "మేనేజ్మెంట్": 8445,
      "నిర్మించింది.": 8446,
      "కథల": 8447,
      "లింగం": 8448,
      "##కూడా": 8449,
      "భాగమైంది.": 8450,
      "వెలుపల": 8451,
      "దానిపై": 8452,
      "మహిళలకు": 8453,
      "గెరి": 8454,
      "కేంబ": 8455,
      "సభ్యుడు": 8456,
      "సభ్యులుగా": 8457,
      "విజయవంత": 8458,
      "##బర్ట్": 8459,
      "##నికేషన్": 8460,
      "స్థాపించబడిన": 8461,
      "అన్నది.": 8462,
      "వెళ్ళారు.": 8463,
      "సందే": 8464,
      "విషయంలో": 8465,
      "విశ్రా": 8466,
      "దుకాణ": 8467,
      "##ధులను": 8468,
      "ఫ్రంట్": 8469,
      "ఆదివారం": 8470,
      "కొనసాగి": 8471,
      "నారదుడు": 8472,
      "పాండ్యుల": 8473,
      "ఎదుర": 8474,
      "రంజ": 8475,
      "కవిత": 8476,
      "విద్యార్థుల": 8477,
      "బ్రాడ్": 8478,
      "##వేత్త.": 8479,
      "సింహ": 8480,
      "శక్తిని": 8481,
      "దొరికి": 8482,
      "నాణెం": 8483,
      "రావడంతో": 8484,
      "గురుదాస్": 8485,
      "ఇవ్వడం": 8486,
      "సందర్భాలలో": 8487,
      "అనంతపురం": 8488,
      "నోబెల్": 8489,
      "నార్కట్": 8490,
      "ప్రచురించారు.": 8491,
      "విశాఖపట్నంలోనూ": 8492,
      "జర్మన్": 8493,
      "లోక్సభకు": 8494,
      "జె.": 8495,
      "నిర్వహిస్తుంది.": 8496,
      "జగన్": 8497,
      "శ్రేయ": 8498,
      "కుంభ": 8499,
      "నవలా": 8500,
      "స్పెషల్": 8501,
      "ఉదాహరణకు": 8502,
      "సర్వీసు,": 8503,
      "టోర్నమెంట్లో": 8504,
      "పార్వతీపురంలోను,": 8505,
      "శ్రీకాకుళంలోనూ": 8506,
      "అశ్వత్": 8507,
      "జొన్న,": 8508,
      "వెస్ట్రన్": 8509,
      "క్రీడాకారు": 8510,
      "హక్కుల": 8511,
      "కీలకమైన": 8512,
      "ఇరాక్": 8513,
      "నిర్మాతగా": 8514,
      "ఆపరే": 8515,
      "అదనంగా": 8516,
      "బ్యాట్స్మెన్": 8517,
      "అంతర్గత": 8518,
      "విగ్రహాన్ని": 8519,
      "పరిమాణం": 8520,
      "చెందుతున్న": 8521,
      "కళ్యాణ": 8522,
      "ధ్వం": 8523,
      "ప్రస్తావ": 8524,
      "బాలసుబ్రహ్మణ్యం,": 8525,
      "డొమి": 8526,
      "ఎకనా": 8527,
      "మరికొ": 8528,
      "వాయిద్య": 8529,
      "ఊపిరితి": 8530,
      "ఎగ్జిక్యూ": 8531,
      "సదాశివ": 8532,
      "ఇనుప": 8533,
      "రూపకల్పన": 8534,
      "కమిషనర్": 8535,
      "స్పష్టంగా": 8536,
      "బ్యానర్పై": 8537,
      "అసిస్ట": 8538,
      "బొలీవియన్": 8539,
      "ఆర్గనైజేషన్": 8540,
      "జమీంద": 8541,
      "జలాశ": 8542,
      "వైభవంగా": 8543,
      "ఉత్సవం": 8544,
      "వజ్ర": 8545,
      "వెంకటప్పయ్య": 8546,
      "హెల్త్": 8547,
      "నైపుణ్య": 8548,
      "కాన్ఫరెన్స్": 8549,
      "పోగొ": 8550,
      "ఐరిష్": 8551,
      "థామస్": 8552,
      "టిబెట్": 8553,
      "ఇబ్రహీ": 8554,
      "ఈజిప్": 8555,
      "గంభీ": 8556,
      "కేంబ్రిడ్": 8557,
      "అజ": 8558,
      "అక్రమ": 8559,
      "అస్స": 8560,
      "ఆగి": 8561,
      "ఆఖరి": 8562,
      "ఇప్పటిక": 8563,
      "ఏది": 8564,
      "ఏకా": 8565,
      "ఏడుగు": 8566,
      "ఏదో": 8567,
      "గార": 8568,
      "చ్యవ": 8569,
      "చైర్": 8570,
      "ట్రేడ్": 8571,
      "డ్యూ": 8572,
      "తృ": 8573,
      "నవీ": 8574,
      "పల్": 8575,
      "ఫాల్": 8576,
      "ముత్": 8577,
      "రోగ": 8578,
      "వడ్ల": 8579,
      "శాత": 8580,
      "షూ": 8581,
      "సాయుధ": 8582,
      "హర": 8583,
      "##ోయ": 8584,
      "##ర,": 8585,
      "##రవాణా": 8586,
      "##జ్యాన్ని": 8587,
      "##జనాత్మక": 8588,
      "##గౌ": 8589,
      "##గజ్": 8590,
      "##నవి": 8591,
      "##నెల్": 8592,
      "##ేని": 8593,
      "##కలి": 8594,
      "##ెస్ట్": 8595,
      "##ట్ర": 8596,
      "##వూరు": 8597,
      "##మను": 8598,
      "##మందు": 8599,
      "##సలు": 8600,
      "##షేక": 8601,
      "##బెట్టి": 8602,
      "##్యాల్": 8603,
      "##లోక": 8604,
      "##ంద్వ": 8605,
      "##ందనే": 8606,
      "##ందరికీ": 8607,
      "##స్కర్": 8608,
      "##న్నో": 8609,
      "ప్రవాస": 8610,
      "##ట్జర్": 8611,
      "వివే": 8612,
      "విదేశ": 8613,
      "##నుని": 8614,
      "##ించారని": 8615,
      "##ూరీ": 8616,
      "సంబల్": 8617,
      "##తిన్": 8618,
      "##రిన్": 8619,
      "##పుణు": 8620,
      "##వాళ్ళ": 8621,
      "##ానగర్": 8622,
      "నిమ": 8623,
      "నిఘ": 8624,
      "నిబంధ": 8625,
      "రాశి": 8626,
      "##దిలో": 8627,
      "వైస్": 8628,
      "వైల్డ్": 8629,
      "##వేళ": 8630,
      "ముర": 8631,
      "ముగ": 8632,
      "##ేదని": 8633,
      "##మిన్": 8634,
      "కొలు": 8635,
      "కూచి": 8636,
      "##క్టరీ": 8637,
      "##ింగ్,": 8638,
      "వాదన": 8639,
      "పుట్టు": 8640,
      "##పిలో": 8641,
      "డిజి": 8642,
      "##చ్చాడు.": 8643,
      "##ంచు": 8644,
      "గుణ": 8645,
      "##ేవారి": 8646,
      "మీటర్లు": 8647,
      "స్వర్గ": 8648,
      "పంపు": 8649,
      "జరుగుతున్న": 8650,
      "అవినీ": 8651,
      "వేస్తారు.": 8652,
      "##పోత": 8653,
      "##లోనికి": 8654,
      "చేయబడి": 8655,
      "చేయగల": 8656,
      "సుగంధ": 8657,
      "ఉన్నారు.ప్రాథమిక": 8658,
      "మిర్యాల": 8659,
      "అంతిమ": 8660,
      "జీన్స్": 8661,
      "అమర్చ": 8662,
      "అమృత": 8663,
      "సంఘం,": 8664,
      "చిత్రాలకు": 8665,
      "వచ్చా": 8666,
      "ప్రతిజ్ఞ": 8667,
      "సాధించారు.": 8668,
      "సీపీ": 8669,
      "దుమ్ము": 8670,
      "కథ,": 8671,
      "అందించింది.": 8672,
      "అందరికీ": 8673,
      "సంవత్సరం,": 8674,
      "విశ్వస": 8675,
      "దర్శకులు": 8676,
      "ప్రపంచం": 8677,
      "నటన": 8678,
      "నిర్మాణాన్ని": 8679,
      "చరిత్రను": 8680,
      "లంబ": 8681,
      "భాషగా": 8682,
      "##ాలియన్": 8683,
      "శాసనసభలో": 8684,
      "ఉపయోగించడం": 8685,
      "ఉద్యాన": 8686,
      "కార్బను": 8687,
      "గుర్తించిన": 8688,
      "గుర్తించారు.": 8689,
      "బెర్బ": 8690,
      "లాభ": 8691,
      "పాటలను": 8692,
      "పోటీలు": 8693,
      "బ్రౌన్": 8694,
      "స్థాపించి": 8695,
      "అతిథి": 8696,
      "అవార్డులను": 8697,
      "జట్టుతో": 8698,
      "రైట్": 8699,
      "క్రియా": 8700,
      "మూడుసార్లు": 8701,
      "మంచిర్యాల": 8702,
      "బుద్ధి": 8703,
      "అప్పటికి": 8704,
      "గోర్బచేవ్కు": 8705,
      "కుమారుడు.": 8706,
      "అలవా": 8707,
      "అలహా": 8708,
      "##గిరిలో": 8709,
      "ఆధారాలు": 8710,
      "హాస్పి": 8711,
      "సముదాయ": 8712,
      "##తెలంగాణ": 8713,
      "ఎంపీ": 8714,
      "తేలి": 8715,
      "పాండ్యులు": 8716,
      "పుస్తకాల": 8717,
      "చేరాయి.": 8718,
      "పేర్కొన్న": 8719,
      "##వేత్త,": 8720,
      "ఫ్రాన్సి": 8721,
      "##ఫిల్": 8722,
      "కన్యా": 8723,
      "##బడుతున్న": 8724,
      "పత్రికలలో": 8725,
      "ప్రయాణీ": 8726,
      "నిర్ణయం": 8727,
      "అడ్ర": 8728,
      "నటుడు,": 8729,
      "##సెస్టర్": 8730,
      "పడగొట్ట": 8731,
      "జ్ఞానం": 8732,
      "ఖమ్మంలోను,": 8733,
      "కరీంనగర్లోను,": 8734,
      "దిగుమతి": 8735,
      "కామర్సు": 8736,
      "##లెనిని": 8737,
      "ఆదిలాబాద్లోను,": 8738,
      "పెరుగుతుంది.": 8739,
      "క్యాచ్": 8740,
      "చెందాడు.": 8741,
      "అంచనా.": 8742,
      "స్టావ్రోపో": 8743,
      "మల్లిక": 8744,
      "త్రవ్వ": 8745,
      "పరిమిత": 8746,
      "ముగిసిన": 8747,
      "అప్పుడ": 8748,
      "##........": 8749,
      "దిశగా": 8750,
      "పునరుద్ధరణ": 8751,
      "ప్రీమియర్": 8752,
      "గ్రాడ్యుయేషన్": 8753,
      "##గ్వి": 8754,
      "ప్రశ్ని": 8755,
      "శోభ": 8756,
      "##కూడదు.": 8757,
      "తమ్ముడు": 8758,
      "కెప్టెన్గా": 8759,
      "అమృత్స": 8760,
      "నెట్వర్క్": 8761,
      "వ్యవసాయాధారిత": 8762,
      "రాజ్యాంగ": 8763,
      "చారిత్రాత్మక": 8764,
      "విభాగానికి": 8765,
      "శుక్రవారం": 8766,
      "రంగానికి": 8767,
      "కామన్వెల్త్": 8768,
      "సుప్రసిద్ధ": 8769,
      "పటేల్": 8770,
      "హుస్సేన్": 8771,
      "అద్వైతి": 8772,
      "విచారణ": 8773,
      "కారిడార్": 8774,
      "##బాబ్వే": 8775,
      "వెనక్కి": 8776,
      "పలువురు": 8777,
      "రికార్డింగ్": 8778,
      "కాలిఫోర్నియా": 8779,
      "క్యాలె": 8780,
      "దుశ్శాస": 8781,
      "ఛైర్మన్": 8782,
      "...": 8783,
      "అక్కి": 8784,
      "ఇస్తారు.": 8785,
      "ఉగ్ర": 8786,
      "ఉబుంటు": 8787,
      "ఊరు": 8788,
      "ఎఐ": 8789,
      "కల్వ": 8790,
      "ఖ్యా": 8791,
      "జెట్": 8792,
      "ట్యూ": 8793,
      "త్యా": 8794,
      "ధృత": 8795,
      "నేద": 8796,
      "నిండి": 8797,
      "ప్య": 8798,
      "పసి": 8799,
      "ప్యా": 8800,
      "పడే": 8801,
      "పడిన": 8802,
      "పూరి": 8803,
      "బస": 8804,
      "భేద": 8805,
      "భాయ్": 8806,
      "మల్లి": 8807,
      "యజ": 8808,
      "యిం": 8809,
      "యేట": 8810,
      "రక": 8811,
      "రఘు": 8812,
      "వడ": 8813,
      "షార్ట్": 8814,
      "##దాలు": 8815,
      "##దగ్గ": 8816,
      "##లైన్": 8817,
      "##ల్యు": 8818,
      "##గాలు": 8819,
      "##తన్": 8820,
      "##కథ": 8821,
      "##కన్య": 8822,
      "##టైన": 8823,
      "##టన్,": 8824,
      "##ండింగ్": 8825,
      "##డొ": 8826,
      "##మూరి": 8827,
      "##బాయి": 8828,
      "##బడ్డారు.": 8829,
      "##ాలైన": 8830,
      "##డియ": 8831,
      "##డిల్": 8832,
      "ప్రయో": 8833,
      "ప్రవహ": 8834,
      "ప్రవర్త": 8835,
      "విడిగా": 8836,
      "విటమి": 8837,
      "ఉన్నది.": 8838,
      "##గుల్": 8839,
      "సం.": 8840,
      "##రిక్": 8841,
      "సౌర": 8842,
      "పాత్రిక": 8843,
      "##ండ్రు": 8844,
      "నిరోధ": 8845,
      "నిపుణు": 8846,
      "##వియా": 8847,
      "##వే.": 8848,
      "##స్తాను.": 8849,
      "సాక్షి": 8850,
      "సాగర్": 8851,
      "##ేదీ": 8852,
      "కొం": 8853,
      "కూర్చ": 8854,
      "మొహమ్మద్": 8855,
      "##త్తర": 8856,
      "ప్రభుత్వంలో": 8857,
      "##మైన,": 8858,
      "రోజూ": 8859,
      "మామూ": 8860,
      "##పాఠ": 8861,
      "##పాజి": 8862,
      "జనసంఖ్య": 8863,
      "ఆరోగ్యం": 8864,
      "##త్రియ": 8865,
      "ఉత్సా": 8866,
      "నాగ్": 8867,
      "గుమ్మ": 8868,
      "స్వీయ": 8869,
      "తిరి": 8870,
      "భూషణ్": 8871,
      "అందువల్ల": 8872,
      "రోజులలో": 8873,
      "బాల్యం": 8874,
      "ప్రాంతం.": 8875,
      "నీటితో": 8876,
      "గ్రె": 8877,
      "##కొత్త": 8878,
      "లేఖ": 8879,
      "పట్టిక": 8880,
      "##కార్య": 8881,
      "అనుచ": 8882,
      "గోత్రం": 8883,
      "##వర్ణ": 8884,
      "పిళ్ళ": 8885,
      "వారితో": 8886,
      "##గ్రత్త": 8887,
      "విధులు": 8888,
      "అసమాన": 8889,
      "##దాసు": 8890,
      "##ధిని": 8891,
      "చిత్రాలను": 8892,
      "రీమే": 8893,
      "##స్పె": 8894,
      "సీఆర్": 8895,
      "తీగ": 8896,
      "ఫిజి": 8897,
      "పునః": 8898,
      "కాంగో": 8899,
      "చేసేందుకు": 8900,
      "కిలోమీటర్లు": 8901,
      "దేవా": 8902,
      "అందించిన": 8903,
      "##త్వానికి": 8904,
      "నాయకుల": 8905,
      "తోటి": 8906,
      "##ించబడే": 8907,
      "##తులుగా": 8908,
      "పనిచేసారు.": 8909,
      "అధ్యాయ": 8910,
      "సాంబ": 8911,
      "కలవాడు": 8912,
      "న్యూస్": 8913,
      "##విద్యా": 8914,
      "విడుదలయ్యాయి.": 8915,
      "##ించుకొ": 8916,
      "మనస్సు": 8917,
      "##డీఏ": 8918,
      "##ేశ్వరం": 8919,
      "విశ్వవిద్యాలయం,": 8920,
      "అల్ప": 8921,
      "తండ్రి,": 8922,
      "ఇక్కడే": 8923,
      "ఏర్పడ": 8924,
      "మహాసముద్ర": 8925,
      "సేవలకు": 8926,
      "అలె": 8927,
      "తీసుకువచ్చ": 8928,
      "దేశాల్లో": 8929,
      "చివరిలో": 8930,
      "మాత్రమే.": 8931,
      "##ఫీల్డ్": 8932,
      "పిల్లలను": 8933,
      "కృష్ణుడు": 8934,
      "తేజ": 8935,
      "పాండవులు": 8936,
      "మొక్కలను": 8937,
      "ఎదురు": 8938,
      "రంగుల": 8939,
      "##మూల": 8940,
      "దృఢ": 8941,
      "##ొందాడు.": 8942,
      "##ారావు,": 8943,
      "విధానంలో": 8944,
      "చేపల": 8945,
      "##ఫియా": 8946,
      "హోం": 8947,
      "దొడ్డి": 8948,
      "నైరు": 8949,
      "కెరీర్లో": 8950,
      "తప్పకుండా": 8951,
      "పండిత": 8952,
      "దగ్గరకు": 8953,
      "రాయల్": 8954,
      "స్పానిష్": 8955,
      "నగరం.": 8956,
      "చదువుతున్న": 8957,
      "ఫలితాలు": 8958,
      "మారిన": 8959,
      "నటుడు.": 8960,
      "నారాయణరావు": 8961,
      "వున్నవి": 8962,
      "బంజ": 8963,
      "సోదరు": 8964,
      "బ్రహ్మదేవుడు": 8965,
      "ప్రచురించాడు.": 8966,
      "భక్తులకు": 8967,
      "##ార్ధం": 8968,
      "కోల్పోయిన": 8969,
      "ఒకరిగా": 8970,
      "మద్రాస్": 8971,
      "భోజనం": 8972,
      "త్రిపుర": 8973,
      "విరాళ": 8974,
      "డబ్బింగ్": 8975,
      "ఇంతకు": 8976,
      "దళాలు": 8977,
      "పంచాయతీకి": 8978,
      "క్వీన్స్": 8979,
      "డైరెక్ట": 8980,
      "సంస్కరణలు": 8981,
      "నిలబడి": 8982,
      "##శాస్త్రం": 8983,
      "ముంబైలోని": 8984,
      "చంపి": 8985,
      "గూడా": 8986,
      "గవర్నరు": 8987,
      "పెరిగిన": 8988,
      "##కారిణి": 8989,
      "సభ్యత్వం": 8990,
      "భూభాగంలో": 8991,
      "విస్తృతమైన": 8992,
      "##ద్దీన్": 8993,
      "నికో": 8994,
      "కొద్దిగా": 8995,
      "లక్ష్యంగా": 8996,
      "క్రాస్": 8997,
      "ముగిసింది.": 8998,
      "అంతర్భాగ": 8999,
      "సంభవించిన": 9000,
      "హనుమ": 9001,
      "వినిప": 9002,
      "వైఎస్సార్": 9003,
      "ఇటీవలి": 9004,
      "ఉచితంగా": 9005,
      "ఇందిరాగాంధీ": 9006,
      "గుండెపోటు": 9007,
      "కానీ,": 9008,
      "ఎవరూ": 9009,
      "సత్కరించింది.": 9010,
      "సైంధవుని": 9011,
      "ఫెడరేషన్": 9012,
      "పొగాకు,": 9013,
      "బీజపూర్": 9014,
      "ఆఫీసర్": 9015,
      "సదస్సు": 9016,
      "ఐసోటోపు": 9017,
      "జింబాబ్వే": 9018,
      "మైనారిటీ": 9019,
      "మినుము": 9020,
      "అటవీ": 9021,
      "లోతైన": 9022,
      "ఇసుక": 9023,
      "చెఱకుపిప్పి": 9024,
      "గొట్టపు": 9025,
      "స్క్వాష్": 9026,
      "సైన్సెస్": 9027,
      "సెక్రటరీ": 9028,
      "ఒడ్డున": 9029,
      "చారుదత్తు": 9030,
      "డ్రామా": 9031,
      "డిస్ట్రిక్": 9032,
      "అంత్యక్రియ": 9033,
      "సిద్ధాంతాన్ని": 9034,
      "సిరిసిల్ల": 9035,
      "కారైక్క": 9036,
      "అవార్డు,": 9037,
      "పిరమి": 9038,
      "ఎగ్జిక్యూటివ్": 9039,
      "ఇప్పటికే": 9040,
      "నిఘంటు": 9041,
      "నేదున": 9042,
      "రీమేక్": 9043,
      "సీఆర్డీఏ": 9044,
      "అనీ": 9045,
      "అన్య": 9046,
      "ఆతి": 9047,
      "ఆపై": 9048,
      "ఆచర": 9049,
      "ఇంద": 9050,
      "ఈగ్రామంలో": 9051,
      "ఎప్పుడు": 9052,
      "ఎక్కి": 9053,
      "ఎమ్మే": 9054,
      "ఏటా": 9055,
      "కంద": 9056,
      "కన్య": 9057,
      "కవరే": 9058,
      "గుత్": 9059,
      "గలవ": 9060,
      "గద్వ": 9061,
      "చెం": 9062,
      "ఛత్తీస్": 9063,
      "జట్లు": 9064,
      "జులై": 9065,
      "తాండ": 9066,
      "దళి": 9067,
      "పలాస": 9068,
      "బజ": 9069,
      "బచ్చ": 9070,
      "భోగ": 9071,
      "మన్న": 9072,
      "మరు": 9073,
      "రేవ": 9074,
      "వాం": 9075,
      "శ్యా": 9076,
      "సహద": 9077,
      "హొ": 9078,
      "##దండ": 9079,
      "##లికా": 9080,
      "##రకాల": 9081,
      "##రాలలో": 9082,
      "##కను": 9083,
      "##కర్మ": 9084,
      "##కాండ": 9085,
      "##ౌండ్": 9086,
      "##డాలు": 9087,
      "##పర్వ": 9088,
      "##పతీ": 9089,
      "##సీ,": 9090,
      "##బ్రా": 9091,
      "##బాల్": 9092,
      "##బాంగ్": 9093,
      "##ఇ.": 9094,
      "##అమెరిక": 9095,
      "##ాలంలో": 9096,
      "##డితే": 9097,
      "ప్రవ": 9098,
      "##ట్జ": 9099,
      "విచిత్ర": 9100,
      "##నుకు": 9101,
      "##తుడైన": 9102,
      "##గులు,": 9103,
      "##ాంశం": 9104,
      "##ానియా": 9105,
[...]
