{
  "version": "1.0",
  "truncation": null,
  "padding": null,
  "added_tokens": [
    {
      "id": 0,
      "content": "<s>",
      "single_word": false,
      "lstrip": false,
      "rstrip": false,
      "normalized": false,
      "special": true
    },
    {
      "id": 1,
      "content": "</s>",
      "single_word": false,
      "lstrip": false,
      "rstrip": false,
      "normalized": false,
      "special": true
    },
    {
      "id": 2,
      "content": "<unk>",
      "single_word": false,
      "lstrip": false,
      "rstrip": false,
      "normalized": false,
      "special": true
    },
    {
      "id": 3,
      "content": "<pad>",
      "single_word": false,
      "lstrip": false,
      "rstrip": false,
      "normalized": false,
      "special": true
    }
  ],
  "normalizer": null,
  "pre_tokenizer": {
    "type": "ByteLevel",
    "add_prefix_space": true,
    "trim_offsets": true,
    "use_regex": true
  },
  "post_processor": null,
  "decoder": {
    "type": "ByteLevel",
    "add_prefix_space": true,
    "trim_offsets": true,
    "use_regex": true
  },
  "model": {
    "type": "BPE",
    "dropout": null,
    "unk_token": null,
    "continuing_subword_prefix": null,
    "end_of_word_suffix": null,
    "fuse_unk": false,
    "byte_fallback": false,
    "ignore_merges": false,
    "vocab": {
      "<s>": 0,
      "</s>": 1,
      "<unk>": 2,
      "<pad>": 3,
      "!": 4,
      "\"": 5,
      "#": 6,
      "$": 7,
      "%": 8,
      "&": 9,
      "'": 10,
      "(": 11,
      ")": 12,
      "*": 13,
      "+": 14,
      ",": 15,
      "-": 16,
      ".": 17,
      "/": 18,
      "0": 19,
      "1": 20,
      "2": 21,
      "3": 22,
      "4": 23,
      "5": 24,
      "6": 25,
      "7": 26,
      "8": 27,
      "9": 28,
      ":": 29,
      ";": 30,
      "<": 31,
      "=": 32,
      ">": 33,
      "?": 34,
      "@": 35,
      "A": 36,
      "B": 37,
      "C": 38,
      "D": 39,
      "E": 40,
      "F": 41,
      "G": 42,
      "H": 43,
      "I": 44,
      "J": 45,
      "K": 46,
      "L": 47,
      "M": 48,
      "N": 49,
      "O": 50,
      "P": 51,
      "Q": 52,
      "R": 53,
      "S": 54,
      "T": 55,
      "U": 56,
      "V": 57,
      "W": 58,
      "X": 59,
      "Y": 60,
      "Z": 61,
      "[": 62,
      "\\": 63,
      "]": 64,
      "^": 65,
      "_": 66,
      "a": 67,
      "b": 68,
      "c": 69,
      "d": 70,
      "e": 71,
      "f": 72,
      "g": 73,
      "h": 74,
      "i": 75,
      "j": 76,
      "k": 77,
      "l": 78,
      "m": 79,
      "n": 80,
      "o": 81,
      "p": 82,
      "q": 83,
      "r": 84,
      "s": 85,
      "t": 86,
      "u": 87,
      "v": 88,
      "w": 89,
      "x": 90,
      "y": 91,
      "z": 92,
      "{": 93,
      "|": 94,
      "}": 95,
      "¡": 96,
      "¢": 97,
      "£": 98,
      "¤": 99,
      "¥": 100,
      "¦": 101,
      "§": 102,
      "¨": 103,
      "©": 104,
      "ª": 105,
      "«": 106,
      "¬": 107,
      "®": 108,
      "¯": 109,
      "°": 110,
      "±": 111,
      "²": 112,
      "³": 113,
      "µ": 114,
      "¶": 115,
      "·": 116,
      "¸": 117,
      "¹": 118,
      "º": 119,
      "»": 120,
      "¼": 121,
      "½": 122,
      "¾": 123,
      "¿": 124,
      "Â": 125,
      "Ã": 126,
      "Ä": 127,
      "Å": 128,
      "Õ": 129,
      "Ö": 130,
      "Ø": 131,
      "Ù": 132,
      "Ú": 133,
      "Û": 134,
      "à": 135,
      "á": 136,
      "â": 137,
      "ï": 138,
      "Ġ": 139,
      "Ģ": 140,
      "ģ": 141,
      "Ĥ": 142,
      "ĥ": 143,
      "Ħ": 144,
      "ħ": 145,
      "Ĩ": 146,
      "ĩ": 147,
      "Ī": 148,
      "ī": 149,
      "Ĭ": 150,
      "ĭ": 151,
      "Į": 152,
      "į": 153,
      "İ": 154,
      "ı": 155,
      "Ĳ": 156,
      "ĳ": 157,
      "Ĵ": 158,
      "ĵ": 159,
      "Ķ": 160,
      "ķ": 161,
      "ĸ": 162,
      "Ĺ": 163,
      "ĺ": 164,
      "Ļ": 165,
      "ļ": 166,
      "Ľ": 167,
      "ľ": 168,
      "Ŀ": 169,
      "ŀ": 170,
      "Ł": 171,
      "ł": 172,
      "Ń": 173,
      "à°": 174,
      "à±": 175,
      "Ġà°": 176,
      "à±į": 177,
      "à°¿": 178,
      "à°¾": 179,
      "à°°": 180,
      "à°Ĥ": 181,
      "à±ģ": 182,
      "à°²": 183,
      "à°¨": 184,
      "à°ķ": 185,
      "à°¯": 186,
      "à±ĭ": 187,
      "à°¦": 188,
      "à°¤": 189,
      "à°®": 190,
      "à°¡": 191,
      "à°µ": 192,
      "à°Ł": 193,
      "Ġà°ª": 194,
      "à±ĩ": 195,
      "à°¸": 196,
      "Ġà°ķ": 197,
      "à±Ģ": 198,
      "à°Ĺ": 199,
      "Ġà°¸": 200,
      "à°¿.": 201,
      "à°ª": 202,
      "Ġà°µ": 203,
      "à±Ĩ": 204,
      "à±Ĥ": 205,
      "Ġà°¨": 206,
      "Ġà°Ĺ": 207,
      "Ġà°ī": 208,
      "Ġà°®": 209,
      "à°ļ": 210,
      "Ġà°ħ": 211,
      "à°¿à°Ĥ": 212,
      "à±Ī": 213,
      "à±ģà°Ĥ": 214,
      "Ġà°¦": 215,
      "à°¬": 216,
      "à°¶": 217,
      "Ġà°°": 218,
      "à°£": 219,
      "Ġà°Ĩ": 220,
      "à°ľ": 221,
      "à±ģ.": 222,
      "à°·": 223,
      "Ġà°ľ": 224,
      "Ġà°ļ": 225,
      "Ġ1": 226,
      "à±Ĭ": 227,
      "Ġà°²": 228,
      "à°§": 229,
      "Ġà°¤": 230,
      "à°¹": 231,
      "Ġà°īà°¨": 232,
      "Ġà°¬": 233,
      "à°¥": 234,
      "à±ģ,": 235,
      "à±Ģ.": 236,
      "à°Ń": 237,
      "Ġà°ĩ": 238,
      "âĢ": 239,
      "à°«": 240,
      "à°³": 241,
      "âĢĮ": 242,
      "à°¾à°Ĥ": 243,
      "à°ķà°°": 244,
      "à±įâĢĮ": 245,
      "à°Ĥ,": 246,
      "Ġ10": 247,
      "à±ĩà°Ĥ": 248,
      "à°µà°¸": 249,
      "Ġ5": 250,
      "à°¿,": 251,
      "Ġà°¶": 252,
      "à±Ĩà°Ĥ": 253,
      "Ġà°Ń": 254,
      "Ġà°¸à°®": 255,
      "à±Į": 256,
      "Ġ2": 257,
      "à±ĥ": 258,
      "à°¬à°¡": 259,
      "à°¯à°µà°¸": 260,
      "Ġà°Ĵ": 261,
      "à°°à°¤": 262,
      "Ġà°İ": 263,
      "Ġà°Ī": 264,
      "à°²à°²": 265,
      "Ġà°ħà°¨": 266,
      "à°ĸ": 267,
      "à°²à°¨": 268,
      "Ġà°Ĵà°ķ": 269,
      "Ġà°¹": 270,
      "à°µà°°": 271,
      "Ġà°¡": 272,
      "à°ªà°¤": 273,
      "à±į,": 274,
      "à°°à°ķ": 275,
      "Ġà°Ĩà°°": 276,
      "Ġà°Ł": 277,
      "Ġ20": 278,
      "Ġà°¸à°°": 279,
      "Ġ(": 280,
      "à°ł": 281,
      "Ġà°ľà°¨": 282,
      "à°Łà°°": 283,
      "Ġà°ı": 284,
      "à°łà°¶": 285,
      "Ġà°«": 286,
      "Ġà°ķà°³": 287,
      "Ġà°¯": 288,
      "à°¤à°°": 289,
      "Ġà°ªà°°": 290,
      "à°¤à°¨": 291,
      "Ġ19": 292,
      "à°·à°¨": 293,
      "à°°à°Ń": 294,
      "à°¡à°²": 295,
      "à°«à°°": 296,
      "Ġà°ľà°°": 297,
      "à°°à°£": 298,
      "Ġà°¸à°°à°«à°°": 299,
      "à°¯à°¨": 300,
      "à°¥à°®": 301,
      "à°°à°®": 302,
      "Ġt": 303,
      "à°Łà°²": 304,
      "à°²à°¯": 305,
      "à°²à°ķ": 306,
      "à°¾,": 307,
      "à°¹à°¦": 308,
      "à°¯à°ķ": 309,
      "Ġà°ĩà°¦": 310,
      "à°¯à°°": 311,
      "Ġo": 312,
      "à°¦à°°": 313,
      "Ġà°°à°¹à°¦": 314,
      "in": 315,
      "Ġa": 316,
      "à°¸à°°": 317,
      "à±ĭà°Ĥ": 318,
      "à±Ĭà°Ĥ": 319,
      "er": 320,
      "Ġ201": 321,
      "on": 322,
      "à°ķà°²": 323,
      "à°¦à°²": 324,
      "Ġà°Ĩà°«": 325,
      "Ġ3": 326,
      "à°¨à°°": 327,
      "à°¯à°®": 328,
      "à°Ĥ.": 329,
      "Ġà°¸à°¹": 330,
      "Ġà°īà°¤": 331,
      "Ġà°¤à°°": 332,
      "Ġà°·": 333,
      "à°°à°µ": 334,
      "à°µà°¤": 335,
      "à°·à°£": 336,
      "à±ĭ,": 337,
      "Ġà°İà°ķ": 338,
      "Ġà°Ĩà°¸": 339,
      "à°µà°²": 340,
      "Ġà°ķà°²": 341,
      "Ġà°ħà°¤à°¨": 342,
      "à°Ĺà°°": 343,
      "Ġà°¤à°¨": 344,
      "à°ªà°²": 345,
      "à°¯à°¤": 346,
      "à°İ": 347,
      "à°°à°¸": 348,
      "à°ĺ": 349,
      "Ġ-": 350,
      "à°ľà°¨": 351,
      "Ġà°ħà°Ń": 352,
      "Ġà°īà°ª": 353,
      "à°Ĺà°£": 354,
      "Ġà°Ĩà°®": 355,
      "Ġà°®à°¹": 356,
      "à°²à°¤": 357,
      "Ġs": 358,
      "Ġ4": 359,
      "à°²à°µ": 360,
      "Ġ\"": 361,
      "he": 362,
      "Ġà°ħà°µ": 363,
      "à°¡à°µ": 364,
      "en": 365,
      "à±Ģ,": 366,
      "Ġà°¬à°¸": 367,
      "Ġà°®à°°": 368,
      "Ġà°ªà°¬": 369,
      "Ġ7": 370,
      "à°¥à°ķ": 371,
      "à°Ĺà°£à°¨": 372,
      "à°¬à°°": 373,
      "Ġà°ľà°¨à°Ĺà°£à°¨": 374,
      "Ġà°ħà°²": 375,
      "à°Ĺà°²": 376,
      "th": 377,
      "à°°à°§": 378,
      "Ġp": 379,
      "à°¯à°¶": 380,
      "Ġà°ħà°®": 381,
      "à°¨à°µ": 382,
      "à°µà°¸à°°": 383,
      "Ġ/": 384,
      "Ġà°ªà°¥à°ķ": 385,
      "Ġà°µà°°": 386,
      "Ġb": 387,
      "Ġà°ªà°Ł": 388,
      "à°°à°ª": 389,
      "Ġà°Ĵà°ķà°Ł": 390,
      "Ġw": 391,
      "Ġà°ĩà°¤à°°": 392,
      "Ġc": 393,
      "Ġof": 394,
      "is": 395,
      "à°ªà°Ł": 396,
      "Ġà°ħà°ķ": 397,
      "Ġà°®à°°à°£": 398,
      "Ġto": 399,
      "Ġ200": 400,
      "à°°à°¦": 401,
      "Ġà°ħà°¯": 402,
      "Ġà°ªà°¦": 403,
      "à°ľà°ķ": 404,
      "Ġor": 405,
      "Ġà°ħà°¸": 406,
      "ti": 407,
      "à°ļà°¡": 408,
      "à°ķà°¨": 409,
      "00": 410,
      "à°ļà°¬à°¡": 411,
      "Ġà°İà°¨": 412,
      "à°¨à°ª": 413,
      "Ġà°ĸ": 414,
      "Ġà°ıà°¡": 415,
      "Ġà°µà°¸": 416,
      "Ġà°ħà°¤": 417,
      "à°¸à°¨": 418,
      "à°®à°¨": 419,
      "Ġà°¬à°¹": 420,
      "Ġà°ķà°¨": 421,
      "Ġan": 422,
      "à°¦à°ķ": 423,
      "Ġà°ªà°¨": 424,
      "à°Ĺà°¨": 425,
      "Ġthe": 426,
      "à°ªà°°": 427,
      "Ġf": 428,
      "ha": 429,
      "Ġà°Ĺà°£": 430,
      "Ġà°ħà°°": 431,
      "tion": 432,
      "or": 433,
      "à°¨à°¤": 434,
      "à°Łà°£": 435,
      "Ġà°µà°°à°ķ": 436,
      "Ġà°µà°¦": 437,
      "Ġà°¨à°®": 438,
      "es": 439,
      "à°¯à°²": 440,
      "à°¤à°®": 441,
      "Ġ6": 442,
      "Ġà°ªà°¶": 443,
      "à°¸à°Ń": 444,
      "Ġ8": 445,
      "Ġin": 446,
      "à°¨à°¦": 447,
      "ing": 448,
      "Ġà°ħà°§": 449,
      "Ġà°Ĩà°Ł": 450,
      "à°µà°¯": 451,
      "Ġà°§": 452,
      "à°·à°ķ": 453,
      "à°¸à°®": 454,
      "Ġd": 455,
      "à°¨à°²": 456,
      "Ġà°µà°ļ": 457,
      "à°°à°µà°¹": 458,
      "Ġà°Ĩà°¶": 459,
      "Ġ2011": 460,
      "à°Ĺà°µ": 461,
      "à°ªà°¡": 462,
      "an": 463,
      "à±į.": 464,
      "Ġm": 465,
      "Ġà°°à°µ": 466,
      "à±ĥà°Ĥ": 467,
      "à°¦à°Ł": 468,
      "Ġà°Ķ": 469,
      "à°¯à°µ": 470,
      "à°¦à°¨": 471,
      "Ġà°ªà°ķ": 472,
      "à°°à°¬": 473,
      "Ġà°¬à°¯": 474,
      "Ġà°ıà°°": 475,
      "ĠâĢ": 476,
      "Ġà°°à°ķ": 477,
      "à°ķà°¡": 478,
      "us": 479,
      "ith": 480,
      "Ġà°®à°§": 481,
      "à°®à°°": 482,
      "à°¿:": 483,
      "Ġà°¸à°¹à°ķ": 484,
      "Ġà°ķà°°": 485,
      "à°ľà°ķà°µà°°": 486,
      "ed": 487,
      "à°¯à°ķà°°": 488,
      "Ġ18": 489,
      "19": 490,
      "à°°à°¯": 491,
      "Ġ202": 492,
      "Ġà°ħà°µà°¸à°°": 493,
      "à°¤à°ķ": 494,
      "à°ķà°°à°£": 495,
      "à°·à°§": 496,
      "Ġà°ħà°¦": 497,
      "Ġà°¸à°¬": 498,
      "Ġà°ĩà°³": 499,
      "Ġà°īà°¦": 500,
      "Ġà°ıà°Ł": 501,
      "Ġà°Ķà°·à°§": 502,
      "à°Łà°ķ": 503,
      "Ġà°Ĳ": 504,
      "Ġà°®à°Ĺà°µ": 505,
      "à°¨à°®": 506,
      "Ġà°Ĩà°Łà°²": 507,
      "à°²à°¬à°¡": 508,
      "Ġ11": 509,
      "Ġà°ľà°¨à°¨": 510,
      "ll": 511,
      "Ġà°ĵ": 512,
      "Ġà°Ĩà°¡à°µ": 513,
      "à°İà°®": 514,
      "ur": 515,
      "Ġbe": 516,
      "à±Ĥà°Ĥ": 517,
      "Ġà°ħà°ª": 518,
      "ch": 519,
      "à°µà°¨": 520,
      "Ġà°Ĩà°¯à°¨": 521,
      "Ġà°ªà°°à°ªà°¤": 522,
      "Ġà°¨à°Ł": 523,
      "à°°à°¤à°¦": 524,
      "à°Łà°£à°®": 525,
      "à°µà°¡": 526,
      "Ġà°µà°¨à°°": 527,
      "Ġà°¨à°Ĺà°°": 528,
      "ar": 529,
      "à°°à°¹": 530,
      "Ġà°ħà°®à°²à°µ": 531,
      "à°¶à°ķ": 532,
      "Ġ,": 533,
      "à°°à°ľ": 534,
      "à°¸à°¨à°¸à°Ń": 535,
      "à±į-": 536,
      "à°µà°¹": 537,
      "Ġh": 538,
      "Ġ199": 539,
      "un": 540,
      "Ġà°°à°ļ": 541,
      "Ġà°Ĩà°§": 542,
      "à°°à°²": 543,
      "Ġà°¦à°°": 544,
      "),": 545,
      "à°²à°ª": 546,
      "om": 547,
      "Ġwith": 548,
      "Ġ9": 549,
      "à°²à°®": 550,
      "Ġ'": 551,
      "à°ħ": 552,
      "à°¯à°¸": 553,
      "Ġà°²à°ķ": 554,
      "Ġ15": 555,
      "Ġà°ľà°Ł": 556,
      "ĠÂ": 557,
      "Ġà°ļà°°": 558,
      "ĠA": 559,
      "ĠâĢ¢": 560,
      "à°ķà°Ł": 561,
      "à°¥à°²": 562,
      "Ġà°¤à°®": 563,
      "Ġe": 564,
      "à°Ĩ": 565,
      "ent": 566,
      "à°µà°ļ": 567,
      "20": 568,
      "à°¯à°¡": 569,
      "Ġà°¸à°Ń": 570,
      ".-": 571,
      "à°ļà°°": 572,
      "Ġfor": 573,
      "à°ľà°°": 574,
      "Ġany": 575,
      "ers": 576,
      "Ġà°ĺ": 577,
      "Ġ17": 578,
      "Ġà°¸à°®à°¯": 579,
      "li": 580,
      "à°Ĺà°¤": 581,
      "Ġ12": 582,
      "ĠÂ·": 583,
      "ĠZ": 584,
      "Ġi": 585,
      "Ġà°īà°ªà°¯": 586,
      "ce": 587,
      "à°®à°²": 588,
      "Ġ198": 589,
      "ri": 590,
      "à°Łà°¨": 591,
      "Ġ16": 592,
      "hi": 593,
      "à°°à°µà°°": 594,
      "ation": 595,
      "Ġà°¦à°ķ": 596,
      "Ġà°Ĩà°¡": 597,
      "Ġà°®à°¨": 598,
      "Ġà°ľà°²à°µ": 599,
      "Ġ14": 600,
      "à°®à°ķ": 601,
      "Ġà°ľà°²à°µà°¨à°°": 602,
      "à°¡à°°": 603,
      "à°®à°¤": 604,
      "Ġ195": 605,
      "Ġsu": 606,
      "Ġà°Ĩà°²à°¯": 607,
      "Ġà°²à°Ń": 608,
      "erson": 609,
      "al": 610,
      "Ġà°Ĵà°ķà°°": 611,
      "Ġperson": 612,
      "Ġ.": 613,
      "à±Īà°Ĥ": 614,
      "à°µà°°à°£": 615,
      "Ġ0": 616,
      "à±ģ)": 617,
      "à°¨à°¨": 618,
      "Ġà°ªà°²": 619,
      "à±į)": 620,
      "Ġà°ĩà°ķ": 621,
      "Ġà°ħà°¡": 622,
      "à°ĩ": 623,
      "à°ķà°°à°£à°ķ": 624,
      "Ġà°µà°¹": 625,
      "Ġca": 626,
      "Ġà°ļà°¦": 627,
      "Ġà°§à°°": 628,
      "à°¨à°ķ": 629,
      "à°¯à°¬à°¡": 630,
      "ly": 631,
      "Ġà°ķà°ļ": 632,
      "Ġà°¸à°¤": 633,
      "à°¾.": 634,
      "Ġ13": 635,
      "à°²à°°": 636,
      "à°¤à°²": 637,
      "à±ĩ,": 638,
      "à°Ĺà°®": 639,
      "ro": 640,
      "Ġà°ķà°®": 641,
      "Ġ2016": 642,
      "Ġby": 643,
      "à°¹à°°": 644,
      "Ġà°ĩà°µ": 645,
      "à°ªà°¦": 646,
      "Ġà°®à°¦": 647,
      "Ġ197": 648,
      "à°²à°Ĺ": 649,
      "à°¤à°Ĺ": 650,
      "Ġcaus": 651,
      "ay": 652,
      "ten": 653,
      "Ġand": 654,
      "Ġ50": 655,
      "Ġis": 656,
      "à°ŀ": 657,
      "à°¯à°£": 658,
      "Ġà°¤à°²": 659,
      "à°³à°²": 660,
      "ev": 661,
      "à°°à°ļ": 662,
      "à°¯à°Ł": 663,
      "Ġà°¨à°µ": 664,
      "à°¨à°Ł": 665,
      "Ġà°Ĩà°ķ": 666,
      "Ġà°ļà°Ł": 667,
      "à°ļà°²": 668,
      "Ġà°ªà°¡": 669,
      "à°İà°¸": 670,
      "à°°à°¨": 671,
      "à°ķà°¯": 672,
      "à°¿)": 673,
      "Ġ57": 674,
      "Ġà°Ĩà°¦": 675,
      "le": 676,
      "Ġà°µà°²": 677,
      "Ġà°Ľ": 678,
      "à°¸à°µ": 679,
      "à±Ģà°Ĥ": 680,
      "à°ľà°¯": 681,
      "Ġtha": 682,
      "ct": 683,
      "à°¨à°¸": 684,
      "Ġà°Ĩà°Ĺ": 685,
      "Ġg": 686,
      "à°ķà°ª": 687,
      "Ġà°ķà°¥": 688,
      "à°·à°²": 689,
      "Ġà°¶à°¤": 690,
      "Ġex": 691,
      "à°ªà°¨": 692,
      "à°Ńà°µ": 693,
      "no": 694,
      "à°µà°µ": 695,
      "Ġ194": 696,
      "ho": 697,
      "à°¯à°ª": 698,
      "Ġsha": 699,
      "000": 700,
      "Ġde": 701,
      "à°°à°ľà°²": 702,
      "Ġà°¨à°²": 703,
      "Ġ196": 704,
      "Ġ30": 705,
      "Ġà°ħà°¤à°¡": 706,
      "Ġshall": 707,
      "it": 708,
      "Ġà°¤à°ª": 709,
      "à°¡à°¨": 710,
      "Ġthat": 711,
      "ĠS": 712,
      "à±Ĥ,": 713,
      "à°§à°¨": 714,
      "Ġà°ĩà°¨": 715,
      "à°¶à°¨": 716,
      "Ġà°ĩà°ļ": 717,
      "Ġà°¶à°ķ": 718,
      "à°ĸà°ªà°Ł": 719,
      "à°¶à°ķà°¤": 720,
      "Ġ25": 721,
      "re": 722,
      "Ġ58": 723,
      "à°ªà°ķ": 724,
      "id": 725,
      "se": 726,
      "Ġwhi": 727,
      "ment": 728,
      "à±į:": 729,
      "Ġà°Ĩà°²": 730,
      "18": 731,
      "Ġli": 732,
      "Ġà°¤à°Ĺ": 733,
      "Ġwhich": 734,
      "à°°à°¦à°°": 735,
      "Ġcon": 736,
      "à°¨à°Ĺà°°": 737,
      "à°¡à°®": 738,
      "Ġà°ķà°ª": 739,
      "Ġà°µà°¯à°¸": 740,
      "der": 741,
      "ĠI": 742,
      "Ġmay": 743,
      "à°ļà°¨": 744,
      "Ġ22": 745,
      "Ġà°İà°²": 746,
      "ul": 747,
      "Ġk": 748,
      "à°µà°Ĺ": 749,
      "Ġà°ĩà°¤à°¨": 750,
      "Ġ23": 751,
      "10": 752,
      "Ġà°ªà°¤": 753,
      "à±ģ-": 754,
      "à°Łà°®": 755,
      "Ġà°İà°®": 756,
      ".--": 757,
      "mp": 758,
      "Ġà°®à°¹à°¬": 759,
      "Ġà°Ĳà°¦": 760,
      "tend": 761,
      "à°°à°Ĺ": 762,
      "à°Ĥ)": 763,
      "à°®à°£": 764,
      "à°¸à°²": 765,
      "à±Įà°Ĥ": 766,
      "Ġpro": 767,
      "Ġà°İà°µà°°": 768,
      "à°¡à°µà°ļ": 769,
      "Ġsuch": 770,
      "à°·à°¨à°²": 771,
      "ath": 772,
      "Ġ24": 773,
      "ra": 774,
      "ab": 775,
      "à°£à°®": 776,
      "Ġà°Ĩà°¨": 777,
      "Ġà°¤à°¯": 778,
      "à±įâĢĮ,": 779,
      "ine": 780,
      "..": 781,
      "à°®à°¦": 782,
      "Ġà°ķà°µ": 783,
      "Ġà°ĩà°¸": 784,
      "à°ķà°²à°²": 785,
      "Ġ28": 786,
      "Ġ2001": 787,
      "Ġ2022": 788,
      "15": 789,
      "Ġà°µà°¨": 790,
      "Ġ193": 791,
      "at": 792,
      "ic": 793,
      "Ġà°¨à°¡": 794,
      "Ġà°ļà°ķ": 795,
      "à°ĺà°¨": 796,
      "Ġà°Ĭ": 797,
      "Ġà°µà°²à°¨": 798,
      "Ġà°¨à°¦": 799,
      "à°Ĩà°°": 800,
      "Ġà°®à°Ł": 801,
      "ear": 802,
      "à°¤à°ª": 803,
      "à°ľà°¯à°µ": 804,
      "Ġà°¬à°²": 805,
      "Ġà°ĩà°ª": 806,
      "à°·à°¯": 807,
      "12": 808,
      "Ġy": 809,
      "à°°à°¯à°¤": 810,
      "Ġà°Ĺà°°": 811,
      "à°°à°ķà°Ł": 812,
      "Ġà°ıà°ª": 813,
      "Ġà°īà°·": 814,
      "Ġà°®à°²": 815,
      "Ġ59": 816,
      "Ġ37": 817,
      "ut": 818,
      "ĠH": 819,
      "à°Ĥ:": 820,
      "à°¡à°Ĺ": 821,
      "à°µà°ķ": 822,
      "st": 823,
      "à°·à°°": 824,
      "Ġà°¹à°°": 825,
      "à°µà°®": 826,
      "16": 827,
      "Ġà°ľà°¨à°µà°°": 828,
      "unis": 829,
      "Ġà°°à°ļà°¯": 830,
      "à°Ī": 831,
      "Ġà°Ńà°ķ": 832,
      "Ġ26": 833,
      "Ġth": 834,
      "Ġ40": 835,
      "à°¨à°¡": 836,
      "à°¤à°µ": 837,
      "Ġà°İà°¤": 838,
      "able": 839,
      "à°ķà°¤": 840,
      "Ġà°ĩà°Ł": 841,
      "Ġà°¶à°°": 842,
      "Ġà°ĵà°Ł": 843,
      "Ġyear": 844,
      "17": 845,
      "vo": 846,
      "à°ķà°®": 847,
      "Ġà°ķà°Ł": 848,
      "Ġà°¦à°Ĺ": 849,
      "Ġà°Ĩà°¤": 850,
      "à°ľà°®": 851,
      "à°¹à°¨": 852,
      "Ġ2019": 853,
      "la": 854,
      "Ġà°Ĩà°¹": 855,
      "Ġà°¢": 856,
      "à°Ľ": 857,
      "à°·à°¤": 858,
      "Ġà°ĩà°²": 859,
      "ever": 860,
      "Ġdeath": 861,
      "13": 862,
      "Ġhe": 863,
      "Ġha": 864,
      "Ġyears": 865,
      "23": 866,
      "à°¯à°§": 867,
      "Ġà°®à°¤": 868,
      "Ġas": 869,
      "ve": 870,
      "Ġun": 871,
      "à°¢": 872,
      "à°ı": 873,
      "Ġà°ľà°²": 874,
      "Ġà°ĩà°¤": 875,
      "Ġà°İà°¸": 876,
      "hoever": 877,
      "à°¯à°Ĺ": 878,
      "à°Ĺà°³": 879,
      "Ġ36": 880,
      "Ġpunis": 881,
      "ge": 882,
      "à°²à°ªà°²": 883,
      "à°¬à°¨": 884,
      "à°³à°¨": 885,
      "Ġà°İà°¦": 886,
      "Ġà°ıà°ķ": 887,
      "Ġimp": 888,
      "14": 889,
      "Whoever": 890,
      "à°°à°¶": 891,
      "ison": 892,
      "ec": 893,
      "à°Ĳ": 894,
      "à°®à°¯": 895,
      "à°¡à°¤": 896,
      "à°Ĺà°Ł": 897,
      "Ġà°¦à°¶": 898,
      "Ġcom": 899,
      "Ġà°ĵà°¡": 900,
      "ption": 901,
      "à°ªà°¬à°¡": 902,
      "à°ľà°¯à°¨": 903,
      "Ġà°¤à°ķ": 904,
      "Ġ33": 905,
      "Ġà°ħà°µà°ķ": 906,
      "Ġint": 907,
      "ĠB": 908,
      "Ġà°¸à°¨": 909,
      "erm": 910,
      "Ġ2009": 911,
      "Ġextend": 912,
      "11": 913,
      "à°Łà°¡": 914,
      "Ġà°«à°²": 915,
      "à°ľà°¯à°¨à°Ĺà°°": 916,
      "Ġà°¤à°¦": 917,
      "Ġà°Īà°¯à°¨": 918,
      "à°µà°°à°ķ": 919,
      "hed": 920,
      "Ġà°ªà°¦à°µ": 921,
      "rison": 922,
      "ub": 923,
      "Ġà°¨à°°": 924,
      "Ġà°¹à°¤": 925,
      "Ġimprison": 926,
      "Ġimprisonment": 927,
      "24": 928,
      "à°¾)": 929,
      "à±ģ:": 930,
      "Ġà°ħà°¬": 931,
      "Ġ27": 932,
      "Ġ2013": 933,
      "50": 934,
      "à±į\"": 935,
      "à°¡à°Ł": 936,
      "Ġà°ķà°¥à°²": 937,
      "à°ļà°Ĺ": 938,
      "à°·à°ª": 939,
      "Ġà°¸à°®à°¸": 940,
      "Ġ2018": 941,
      "Ġno": 942,
      "à°Ĵ": 943,
      "Ġà°¥": 944,
      "à±ģ\"": 945,
      "à°¦à°®": 946,
      "à±Ĩ.": 947,
      "à°¹à°®": 948,
      "Ġ29": 949,
      "à°Łà°ª": 950,
      "à±ĩ.": 951,
      "à°ªà°£": 952,
      "âĢĵ": 953,
      "Ġà°Ńà°¦": 954,
      "Ġterm": 955,
      "ither": 956,
      "Ġpunished": 957,
      "25": 958,
      "as": 959,
      "à°ľà°²": 960,
      "à°§à°®": 961,
      "Ġfine": 962,
      "urt": 963,
      "à°¡à°ª": 964,
      "à°¶à°®": 965,
      "Ġà°¬à°°": 966,
      "Ġà°Ĵà°¡": 967,
      "Ġà°¸à°°à°¸": 968,
      "à°İà°²": 969,
      "cri": 970,
      "ĠM": 971,
      "Ġ2014": 972,
      "Ġà°¤à°°à°ª": 973,
      "ence": 974,
      "ther": 975,
      "Ġà°ĸà°®": 976,
      "Ġdes": 977,
      "Ġnot": 978,
      "cation": 979,
      "à°µà°¦": 980,
      "Ġà°°à°ļà°¨": 981,
      "Ġà°ĩà°¤à°¡": 982,
      "à°µà°Ł": 983,
      "à°ªà°¬": 984,
      "Ġà°ħà°¶": 985,
      "Ġà°ĩà°°": 986,
      "Ġà°«à°¸": 987,
      "ere": 988,
      "Ġà°Ĩà°Ĺà°¸": 989,
      "22": 990,
      "od": 991,
      "ĠE": 992,
      "à°¡à°¯": 993,
      "Ġà°¨à°ķ": 994,
      "Ġ35": 995,
      "Ġ2008": 996,
      "Ġhurt": 997,
      "Ġeither": 998,
      "Ġcomm": 999,
      "à°§à°¤": 1000,
      "Ġà°Ĵà°ª": 1001,
      "à°ĸà°°": 1002,
      "Ġ2021": 1003,
      "Ġcause": 1004,
      "Ġdescri": 1005,
      "po": 1006,
      "à°¡à°ķ": 1007,
      "Ġà°Ĺà°²": 1008,
      "à°£à°¯": 1009,
      "Ġà°ļà°²à°¨": 1010,
      "à°Ńà°®": 1011,
      "Ġà°ıà°¦": 1012,
      "Ġà°¤à°°à°Ĺà°¤": 1013,
      "Ġoff": 1014,
      "Ġ2020": 1015,
      "Ġdescription": 1016,
      "ir": 1017,
      "à¤": 1018,
      "ĠT": 1019,
      "à°ī": 1020,
      "à°§à°°": 1021,
      "Ġon": 1022,
      "Ġal": 1023,
      "unt": 1024,
      "vocation": 1025,
      "28": 1026,
      "Ġ)": 1027,
      "Ġ:": 1028,
      "Ġà°ħà°ľ": 1029,
      "Ġà°°à°·": 1030,
      "Ġà°Ńà°µà°¨": 1031,
      "ily": 1032,
      "à°Ĺà°¦": 1033,
      "Ġà°®à°³": 1034,
      "Ġà°Ńà°°": 1035,
      "Ġ21": 1036,
      "ke": 1037,
      "à°µà°ª": 1038,
      "Ġà°Ĺà°¤": 1039,
      "gh": 1040,
      "à°°à°³": 1041,
      "à±ģ/": 1042,
      "à°¦à°µ": 1043,
      "à°®à°®": 1044,
      "à°µà°¬à°¡": 1045,
      "Ġà°ħà°¨à°ķ": 1046,
      "Ġà°Ĩà°Łà°Ĺ": 1047,
      "Ġit": 1048,
      "Ġn": 1049,
      "à°¤à°¸": 1050,
      "à°®à°¹": 1051,
      "à°ļà°ķ": 1052,
      "Ġà°ħà°Ĺ": 1053,
      "Ġà°¬à°¦": 1054,
      "Ġà°İà°¡": 1055,
      "Ġ43": 1056,
      "Ġprovocation": 1057,
      "à°Ĵà°ķ": 1058,
      "im": 1059,
      "à°ķà°ľ": 1060,
      "à°®à°¡": 1061,
      "Ġà°¸à°Ĺà°Ł": 1062,
      "Ġà°Ĩà°¯": 1063,
      "Ġà°ľà°®": 1064,
      "ant": 1065,
      "à°ĩà°¦": 1066,
      "now": 1067,
      "Ġknow": 1068,
      "96": 1069,
      "Ġ*": 1070,
      "ĠD": 1071,
      "à±į'": 1072,
      "Ġà°ħà°Ł": 1073,
      "à°¬à°²": 1074,
      "Ġà°Ĩà°ª": 1075,
      "Ġà°İà°°": 1076,
      "à°°à°®à°£": 1077,
      "à°µà°²à°¸": 1078,
      "Ġ2006": 1079,
      "26": 1080,
      "à°²à°¸": 1081,
      "à°¯à°ªà°¡": 1082,
      "à°¦à°Ĺ": 1083,
      "à°ļà°¯": 1084,
      "à°¯à°ķà°¤": 1085,
      "Ġ34": 1086,
      "à°ľà°¨à°¨": 1087,
      "30": 1088,
      "so": 1089,
      "ĠC": 1090,
      "Ġr": 1091,
      "Ġus": 1092,
      "Ġ2012": 1093,
      "à°¨à°ªà°¦": 1094,
      "est": 1095,
      "à°¯à°µà°¹à°°": 1096,
      "Ġcommit": 1097,
      "40": 1098,
      "58": 1099,
      "90": 1100,
      "à°²à°¬": 1101,
      "à°ļà°µà°ļ": 1102,
      "Ġà°¦à°³": 1103,
      "à°¶à°ª": 1104,
      "Ġ2017": 1105,
      "ĠEx": 1106,
      "57": 1107,
      "80": 1108,
      "ld": 1109,
      "ĠP": 1110,
      "à°®à°µ": 1111,
      "Ġà°¸à°¦": 1112,
      "Ġà°®à°£": 1113,
      "Ġà°²à°²": 1114,
      "à°¹à°¸": 1115,
      "à°¥à°¨": 1116,
      "Ġhas": 1117,
      "à°²à°Ń": 1118,
      "Ġà°Ĺà°¡": 1119,
      "Ġà°ħà°£": 1120,
      "Ġà°«à°°": 1121,
      "Ġact": 1122,
      "Ġsec": 1123,
      "Ġ2007": 1124,
      "and": 1125,
      "à°µà°¹à°£": 1126,
      "Ġif": 1127,
      "Ġconf": 1128,
      "Ġà°Ĭà°°": 1129,
      "pe": 1130,
      "pl": 1131,
      "te": 1132,
      "ty": 1133,
      "à°ªà°®": 1134,
      "Ġà°Ĺà°¦": 1135,
      "Ġà°ļà°²": 1136,
      "Ġà°Īà°®": 1137,
      "Ġhis": 1138,
      "'s": 1139,
      "97": 1140,
      "ow": 1141,
      "our": 1142,
      "rom": 1143,
      "à°Ĥ\"": 1144,
      "à°¦à°¤": 1145,
      "à°µà°²à°¨": 1146,
      "à°Ĺà°¸": 1147,
      "à±Ĥ.": 1148,
      "Ġà°īà°°": 1149,
      "à°ļà°Ł": 1150,
      "à°¬à°Ł": 1151,
      "à°§à°ķ": 1152,
      "Ġ44": 1153,
      "Ġfrom": 1154,
      "ide": 1155,
      ").": 1156,
      "21": 1157,
      "ill": 1158,
      "à°¨à°Ĺ": 1159,
      "Ġà°Ĩà°ļ": 1160,
      "Ġà°¹à°¨": 1161,
      "Ġà°¡à°¯": 1162,
      "Ġ190": 1163,
      "Ġ2010": 1164,
      "Ġà°¤à°¨à°ķ": 1165,
      "lly": 1166,
      "Ġliable": 1167,
      "Ġlike": 1168,
      "Ġunder": 1169,
      "Ġlikely": 1170,
      "29": 1171,
      "35": 1172,
      "vant": 1173,
      "à°ķà°²à°¨": 1174,
      "à°®à°ª": 1175,
      "Ġà°¸à°²": 1176,
      "à°ľà°§": 1177,
      "Ġ46": 1178,
      "Ġ2023": 1179,
      "Ġre": 1180,
      "à°¿-": 1181,
      "à°¯à°¦": 1182,
      "à°¡à°¡": 1183,
      "à±Ī,": 1184,
      "à°¬à°¦": 1185,
      "Ġà°°à°¦": 1186,
      "Ġà°°à°¸": 1187,
      "à°Ńà°ľ": 1188,
      "Ġà°ħà°®à°²": 1189,
      "Ġ60": 1190,
      "Ġà°Ĳà°°": 1191,
      "Ġalso": 1192,
      "39": 1193,
      "70": 1194,
      "ap": 1195,
      "ff": 1196,
      "si": 1197,
      "à°ķà°µ": 1198,
      "à°¤à°¯": 1199,
      "Ġà°ķà°²à°ķ": 1200,
      "à°¶à°²": 1201,
      "à°¶à°µ": 1202,
      "Ġà°ĩà°¬": 1203,
      "Ġà°¸à°®à°ķ": 1204,
      "Ġà°Łà°°": 1205,
      "Ġà°ıà°²": 1206,
      "Ġà°Ĩà°¸à°ķ": 1207,
      "Ġ45": 1208,
      "à°°à°ªà°¡": 1209,
      "ĠâĢĺ": 1210,
      "Ġà°°à°ļà°¨à°²": 1211,
      "200": 1212,
      "ous": 1213,
      "Ġà°ĭ": 1214,
      "à°¿\"": 1215,
      "à°°à°ªà°¤": 1216,
      "à°²à°ľ": 1217,
      "à°ªà°¥": 1218,
      "Ġà°īà°®": 1219,
      "âĢĻ": 1220,
      "Ġà°¡à°¬": 1221,
      "Ġ2004": 1222,
      "Ġdis": 1223,
      "Ġ2024": 1224,
      "Ġhom": 1225,
      "Ġcauses": 1226,
      "à°¶à°¨à°Ĺ": 1227,
      "27": 1228,
      "36": 1229,
      "98": 1230,
      "du": 1231,
      "à°²à°ļ": 1232,
      "à°¤à°Ł": 1233,
      "à°ªà°Ĺ": 1234,
      "Ġ100": 1235,
      "Ġ56": 1236,
      "à°°à°£à°ķ": 1237,
      "Ġother": 1238,
      "Ġchi": 1239,
      "ans": 1240,
      "anation": 1241,
      "lic": 1242,
      "planation": 1243,
      "Ġchild": 1244,
      "ĠN": 1245,
      "à±ģ),": 1246,
      "Ġà°Ĵà°ķà°ª": 1247,
      "Ġà°ªà°°à°®": 1248,
      "ong": 1249,
      "à°İà°¨": 1250,
      "Ġdo": 1251,
      "Ġmur": 1252,
      "ĠHD": 1253,
      "Ġoffence": 1254,
      "Ġà°ķà°²à°ķà°¤": 1255,
      "47": 1256,
      "am": 1257,
      "à°¨à°¯": 1258,
      "à°ķà°Ĺ": 1259,
      "à°Ĺà°¡": 1260,
      "à°Ĺà°¢": 1261,
      "Ġà°¨à°°à°¸": 1262,
      "à°ľà°¸": 1263,
      "Ġat": 1264,
      "Ġwom": 1265,
      "Ġà°ĸà°°": 1266,
      "ort": 1267,
      "Ġforce": 1268,
      "Ġmurder": 1269,
      "38": 1270,
      "87": 1271,
      "iv": 1272,
      "out": 1273,
      "ĠW": 1274,
      "à°¿'": 1275,
      "à°¯à°¦à°°": 1276,
      "à°µà°¶": 1277,
      "Ġà°İà°Ĺ": 1278,
      "à°²à°¨à°²": 1279,
      "Ġser": 1280,
      "Ġpur": 1281,
      "Ġme": 1282,
      "Ġà°¬à°¯à°Ł": 1283,
      "ust": 1284,
      "Ġà°µà°²à°¸": 1285,
      "ĠExplanation": 1286,
      "94": 1287,
      "fe": 1288,
      "ful": 1289,
      "ĠF": 1290,
      "à°°à°¡": 1291,
      "à°®à°Ł": 1292,
      "Ġà°®à°²à°¯": 1293,
      "à°·à°¸": 1294,
      "Ġà°ľà°¯": 1295,
      "Ġà°ıà°®": 1296,
      "Ġà°ıà°³": 1297,
      "Ġab": 1298,
      "Ġà°¤à°°à°²": 1299,
      "Ġ1990": 1300,
      "Ġ1980": 1301,
      "icide": 1302,
      "Ġservant": 1303,
      "56": 1304,
      "ĠK": 1305,
      "à°°à°Ł": 1306,
      "à°¦à°¯": 1307,
      "Ġà°Ĩà°ľ": 1308,
      "Ġà°Ĩà°ķà°°": 1309,
      "Ġà°¬à°Ł": 1310,
      "à°ĸà°²": 1311,
      "erc": 1312,
      "one": 1313,
      "Ġ38": 1314,
      "Ġbo": 1315,
      "tention": 1316,
      "ĠIn": 1317,
      "Ġpurpo": 1318,
      "48": 1319,
      "VD": 1320,
      "à°°à°°": 1321,
      "à°¯à°¯à°¨": 1322,
      "à°µà°Ń": 1323,
      "à°¸à°Ĺ": 1324,
      "Ġà°Ĺà°µà°°": 1325,
      "Ġà°Ĺà°®à°¨": 1326,
      "Ġà°Īà°¸": 1327,
      "Ġ2015": 1328,
      "Ġpub": 1329,
      "Ġintend": 1330,
      "Ġsection": 1331,
      "Ġpublic": 1332,
      "46": 1333,
      "55": 1334,
      "91": 1335,
      "lunt": 1336,
      "ta": 1337,
      "à°¯à°¯": 1338,
      "à°¯à°²à°¨": 1339,
      "à±ĭ)": 1340,
      "à°®à°¸": 1341,
      "à°®à°¶": 1342,
      "à°®à°µà°°": 1343,
      "Ġà°ªà°µ": 1344,
      "à°Ĺà°ª": 1345,
      "à°ªà°ļ": 1346,
      "à°ļà°µ": 1347,
      "Ġ2000": 1348,
      "Ġà°ħà°¸à°²": 1349,
      "Ġ80": 1350,
      "Ġmo": 1351,
      "ĠâĢĵ": 1352,
      "arily": 1353,
      "Ġthis": 1354,
      "law": 1355,
      "Ġà°ļà°²à°¨à°ļ": 1356,
      "luntarily": 1357,
      "31": 1358,
      "42": 1359,
      "75": 1360,
      "min": 1361,
      "Ġ.--": 1362,
      "à°¾-": 1363,
      "à°°à°¥": 1364,
      "à°¦à°¡": 1365,
      "à±Ģ)": 1366,
      "à±Ģ-": 1367,
      "Ġà°®à°¸": 1368,
      "Ġà°Ĩà°µ": 1369,
      "Ġà°ļà°¨": 1370,
      "à°§à°ªà°¡": 1371,
      "à°Ńà°¦": 1372,
      "à°ķà°°à°®": 1373,
      "Ġà°¸à°®à°°": 1374,
      "Ġà°®à°¹à°°": 1375,
      "Ġ48": 1376,
      "Ġ2002": 1377,
      "Ġintention": 1378,
      "à°ķà°°à°£à°²": 1379,
      "Ġhim": 1380,
      "di": 1381,
      "Ġ&": 1382,
      "à°¿;": 1383,
      "à°¡à°µà°°": 1384,
      "à°Ĺà°ľ": 1385,
      "à°§à°¨à°²": 1386,
      "Ġà°Ńà°¯": 1387,
      "Ġà°ľà°¨à°¤": 1388,
      "à°¯à°ķà°²": 1389,
      "Ġà°¤à°°à°«": 1390,
      "Ġ75": 1391,
      "à°°à°ľà°²à°ķ": 1392,
      "Ġà°ĺà°¨": 1393,
      "Ġà°¦à°¶à°²": 1394,
      "Ġwoman": 1395,
      "93": 1396,
      "nap": 1397,
      "um": 1398,
      "Ġl": 1399,
      "à°²à°¡": 1400,
      "à°ķà°ķ": 1401,
      "Ġà°ªà°¤à°ķ": 1402,
      "Ġà°ħà°¹": 1403,
      "Ġà°ħà°¨à°Ĺ": 1404,
      "à°°à°£à°®": 1405,
      "à°¯à°¤à°²": 1406,
      "à°ĺà°Ł": 1407,
      "Ġ70": 1408,
      "Ġ2003": 1409,
      "Ġà°īà°¦à°¯": 1410,
      "idnap": 1411,
      "Ġknowing": 1412,
      "ĠDVD": 1413,
      "ourse": 1414,
      "43": 1415,
      "45": 1416,
      "60": 1417,
      "82": 1418,
      "84": 1419,
      "95": 1420,
      "rong": 1421,
      "ted": 1422,
      "Ġ!": 1423,
      "à°Ĥ'": 1424,
      "à°¯à°Ń": 1425,
      "à°®à°ļ": 1426,
      "Ġà°®à°ķà°°": 1427,
      "Ġà°¬à°¡": 1428,
      "Ġà°¬à°²à°®": 1429,
      "à°³à°ķ": 1430,
      "Ġten": 1431,
      "Ġ31": 1432,
      "à°·à°£à°²": 1433,
      "à°ĺà°²": 1434,
      "à°¨à°ªà°°": 1435,
      "Ġ1996": 1436,
      "Ġsub": 1437,
      "Ġcausing": 1438,
      "Ġgu": 1439,
      "ĠSub": 1440,
      "ĠSubs": 1441,
      "37": 1442,
      "il": 1443,
      "ts": 1444,
      "ĠV": 1445,
      "à±įâĢ": 1446,
      "à°¦à°ª": 1447,
      "Ġà°¨à°µà°²": 1448,
      "Ġà°Ĺà°ľ": 1449,
      "Ġà°ħà°µà°¸": 1450,
      "à±Ī.": 1451,
      "à°°à°£à°²": 1452,
      "Ġ47": 1453,
      "à°ªà°°à°ļ": 1454,
      "riev": 1455,
      "Ġ1952": 1456,
      "Ġcons": 1457,
      "ate": 1458,
      "Ġused": 1459,
      "rievous": 1460,
      "67": 1461,
      "99": 1462,
      "»¿": 1463,
      "Â°": 1464,
      "ï»¿": 1465,
      "Ġra": 1466,
      "à°Łà°Ĺ": 1467,
      "à°¸à°¹": 1468,
      "Ġà°ķà°¦à°²": 1469,
      "Ġà°µà°¶": 1470,
      "Ġà°īà°ļ": 1471,
      "à°¬à°¤": 1472,
      "Ġà°ľà°Ĺ": 1473,
      "Ġà°ľà°¹": 1474,
      "à°¹à°¤": 1475,
      "Ġà°¬à°²à°µ": 1476,
      "Ġà°Ńà°Ł": 1477,
      "Ġà°Ńà°°à°¤": 1478,
      "Ġso": 1479,
      "à°°à°ªà°°": 1480,
      "Ġà°Ĺà°£à°¨": 1481,
      "ore": 1482,
      "Ġà°§à°¨": 1483,
      "Ġà°Ĳà°¸": 1484,
      "Ġ1995": 1485,
      "Ġwithout": 1486,
      "Ġhomicide": 1487,
      "Ġboth": 1488,
      "à±įâĢį": 1489,
      "ces": 1490,
      "pable": 1491,
      "à°±": 1492,
      "à°®à°Ĺ": 1493,
      "Ġà°ªà°¸": 1494,
      "à°ªà°¸": 1495,
      "Ġà°Ĺà°¨": 1496,
      "à°¹à°ķ": 1497,
      "Ġà°¬à°¯à°²": 1498,
      "Ġà°ĩà°®": 1499,
      "Ġà°Ĵà°²": 1500,
      "Ġà°İà°ª": 1501,
      "Ġà°İà°«": 1502,
      "Ġ2005": 1503,
      "à°¨à°®à°¯": 1504,
      "ĠAct": 1505,
      "Ġcaused": 1506,
      "Ġ1960": 1507,
      "ulpable": 1508,
      "Ġthere": 1509,
      "sion": 1510,
      "Ġconsent": 1511,
      "per": 1512,
      "Ġà°¨à°°à°¹": 1513,
      "Ġà°īà°²": 1514,
      "Ġà°ħà°°à°ķ": 1515,
      "Ġà°ħà°µà°¤": 1516,
      "Ġà°²à°¨": 1517,
      "à°Ńà°ľà°¨": 1518,
      "Ġà°¡à°ļ": 1519,
      "Ġbeing": 1520,
      "Ġ1998": 1521,
      "Ġgrievous": 1522,
      "ercourse": 1523,
      "Ġpurpose": 1524,
      "Ġà°ħà°µà°¸à°°à°®": 1525,
      "33": 1526,
      "77": 1527,
      "ad": 1528,
      "jur": 1529,
      "ter": 1530,
      "Ġlaw": 1531,
      "à±ģ'": 1532,
      "à±ģ;": 1533,
      "à°¤à°¤": 1534,
      "à°Ĺà°¯": 1535,
      "Ġà°µà°¨à°ªà°°": 1536,
      "à±Ĩ,": 1537,
      "Ġà°ħà°ĸ": 1538,
      "Ġà°ħà°¡à°µ": 1539,
      "à°ľà°ª": 1540,
      "Ġà°ļà°¤": 1541,
      "Ġà°ľà°¨à°°à°²": 1542,
      "Ġse": 1543,
      "Ġ41": 1544,
      "Ġbod": 1545,
      "ise": 1546,
      "Ġdone": 1547,
      "Ġmin": 1548,
      "Ġà°Ĩà°¯à°¨à°ķ": 1549,
      "Ġher": 1550,
      "Ġ1992": 1551,
      "Ġ1993": 1552,
      "Ġà°¨à°µà°²à°²": 1553,
      "Ġ1947": 1554,
      "ght": 1555,
      "Ġà°¨à°°à°¹à°¤": 1556,
      "66": 1557,
      "85": 1558,
      "ig": 1559,
      "qu": 1560,
      "sa": 1561,
      "ĠO": 1562,
      "ĠR": 1563,
      "à±ģ?": 1564,
      "à°¨à°¹": 1565,
      "à°¡à°¦": 1566,
      "à°µà°£": 1567,
      "Ġà°ķà°¦": 1568,
      "à°ªà°·": 1569,
      "à±Ĥà°Ĥ,": 1570,
      "Ġà°®à°Ĺ": 1571,
      "Ġà°ħà°ľà°°": 1572,
      "Ġà°Ńà°Ĺà°µ": 1573,
      "à°µà°°à°°": 1574,
      "Ġà°¤à°°à°ļ": 1575,
      "Ġà°¤à°¨à°¨": 1576,
      "Ġwho": 1577,
      "Ġcri": 1578,
      "ang": 1579,
      "Ġà°ħà°¦à°¨à°ª": 1580,
      "Ġ1994": 1581,
      "à°ħà°µ": 1582,
      "Ġ1982": 1583,
      "Ġ1989": 1584,
      "Ġ1955": 1585,
      "Ġ1970": 1586,
      "ĠSch": 1587,
      "Ġconfin": 1588,
      "duct": 1589,
      "minal": 1590,
      ".,": 1591,
      "44": 1592,
      "49": 1593,
      "age": 1594,
      "lo": 1595,
      "os": 1596,
      "à°ķà°²à°ķ": 1597,
      "à°¯à°ľ": 1598,
      "à°¤à°ªà°²": 1599,
      "à°µà°ľ": 1600,
      "à°Łà°¸": 1601,
      "à°Łà°®à°¨": 1602,
      "Ġà°®à°®": 1603,
      "à°ļà°¦": 1604,
      "à°¶à°¨à°®": 1605,
      "à±įâĢĮ.": 1606,
      "Ġà°¹à°ķ": 1607,
      "à°µà°²à°¸à°²": 1608,
      "Ġà°®à°¹à°®": 1609,
      "Ġst": 1610,
      "Ġ42": 1611,
      "Ġà°ħà°®à°°": 1612,
      "Ġinjur": 1613,
      "Ġà°Ķà°°": 1614,
      "Ġ1991": 1615,
      "ĠÂ°": 1616,
      "2016": 1617,
      "Ġ1984": 1618,
      "à°¯à°£à°ª": 1619,
      "Ġà°¤à°ªà°¸": 1620,
      "stan": 1621,
      "Ġmeans": 1622,
      "saul": 1623,
      "Ġcriminal": 1624,
      "03": 1625,
      "32": 1626,
      "41": 1627,
      "71": 1628,
      "89": 1629,
      "CC": 1630,
      "ally": 1631,
      "à±į),": 1632,
      "à°¾\"": 1633,
      "à±ĭ-": 1634,
      "à°µà°³": 1635,
      "à°Łà°¬à°¦": 1636,
      "à°Ĺà°µà°°": 1637,
      "Ġà°¸à°ª": 1638,
      "Ġà°īà°Ĺ": 1639,
      "Ġà°®à°ļ": 1640,
      "Ġà°ħà°ļ": 1641,
      "Ġà°Ĩà°¦à°°": 1642,
      "Ġà°Ĩà°ķà°²": 1643,
      "Ġà°ļà°°à°£": 1644,
      "Ġà°ĩà°·": 1645,
      "Ġà°İà°Ł": 1646,
      "Ġà°Īà°¶": 1647,
      "à°µà°°à°²": 1648,
      "Ġtw": 1649,
      "Ġage": 1650,
      "Ġ32": 1651,
      "Ġà°ķà°²à°¦": 1652,
      "Ġsa": 1653,
      "Ġwill": 1654,
      "ess": 1655,
      "à°¨à°¦à°¨": 1656,
      "à°¯à°µà°ļ": 1657,
      "Ġ1997": 1658,
      "Ġ1999": 1659,
      "à°ķà°Łà°Ĺ": 1660,
      "Ġsuff": 1661,
      "Ġ1974": 1662,
      "Ġ1962": 1663,
      "Ġlife": 1664,
      "rain": 1665,
      "Ġ376": 1666,
      "voluntarily": 1667,
      "Ġintent": 1668,
      "Ġminor": 1669,
      "34": 1670,
      "61": 1671,
      "fu": 1672,
      "ount": 1673,
      "sti": 1674,
      "ĠU": 1675,
      "Ġen": 1676,
      "à°ģ": 1677,
      "à°ķà°¸": 1678,
      "à°¯à°¸à°Ń": 1679,
      "à°¦à°¬": 1680,
      "Ġà°¸à°ľ": 1681,
      "Ġà°µà°ķ": 1682,
      "Ġà°µà°¡": 1683,
      "à±Ĩà°Ĥ,": 1684,
      "Ġà°Ĺà°Ł": 1685,
      "Ġà°°à°¤": 1686,
      "à°£à°¨": 1687,
      "à°£à°ķ": 1688,
      "Ġà°ľà°ª": 1689,
      "à°¥à°°": 1690,
      "Ġà°Ĵà°ķà°¡": 1691,
      "à°Łà°²à°ķ": 1692,
      "à°Ĥ..": 1693,
      "Ġà°µà°°à°²": 1694,
      "Ġà°ĸà°Ĺ": 1695,
      "Ġman": 1696,
      "à°¯à°µà°¹": 1697,
      "Ġ117": 1698,
      "à°ħà°®": 1699,
      "Ġ1983": 1700,
      "Ġ1986": 1701,
      "Ġ1951": 1702,
      "ĠThe": 1703,
      "Ġrest": 1704,
      "fully": 1705,
      "54": 1706,
      "63": 1707,
      "65": 1708,
      "72": 1709,
      "79": 1710,
      "86": 1711,
      "ping": 1712,
      "ses": 1713,
      "Ġâ": 1714,
      "Ġvoluntarily": 1715,
      "à°¦à°²à°¯": 1716,
      "Ġà°ķà°¡": 1717,
      "Ġà°ķà°·": 1718,
      "à°Ĺà°ªà°¡": 1719,
      "Ġà°®à°ķ": 1720,
      "à°ļà°Ĺà°²": 1721,
      "Ġà°°à°¥": 1722,
      "à°ľà°µ": 1723,
      "Ġà°ĩà°ľ": 1724,
      "Ġà°Ńà°µ": 1725,
      "Ġà°¯à°ľ": 1726,
      "Ġpo": 1727,
      "Ġculpable": 1728,
      "Ġ150": 1729,
      "Ġgiv": 1730,
      "Ġà°ķà°¥à°¨": 1731,
      "à°Łà°ªà°°à°®": 1732,
      "Ġabduct": 1733,
      "Ġintending": 1734,
      "Ġbodily": 1735,
      "62": 1736,
      "64": 1737,
      "ac": 1738,
      "ak": 1739,
      "lf": 1740,
      "Ġà°ªà°ł": 1741,
      "Ġà°ķà°¤": 1742,
      "à°ªà°ľ": 1743,
      "Ġà°¨à°·": 1744,
      "à°ļà°®": 1745,
      "Ġà°¦à°¤": 1746,
      "Ġà°¦à°¶à°ķ": 1747,
      "à°¶à°°": 1748,
      "à°£à°µ": 1749,
      "à°·à°®": 1750,
      "Ġà°ľà°Ĺà°¨": 1751,
      "Ġà°¤à°¤": 1752,
      "à°¹à°°à°£à°ķ": 1753,
      "à°Ńà°ķ": 1754,
      "à°«à°²": 1755,
      "Ġ500": 1756,
      "Ġà°¶à°¬à°°": 1757,
      "à°µà°°à°¸": 1758,
      "Ġ39": 1759,
      "à°İà°«": 1760,
      "à°ĺà°Łà°¨": 1761,
      "Ġshe": 1762,
      "Ġwas": 1763,
      "Ġwrong": 1764,
      "Ġà°µà°¸à°¤": 1765,
      "Ġà°°à°ķà°®": 1766,
      "Ġà°¸à°Ńà°²": 1767,
      "Ġà°®à°¨à°¸": 1768,
      "Ġ1956": 1769,
      "Ġ1948": 1770,
      "ĠII": 1771,
      "Ġproper": 1772,
      "à°®à°¹à°¤": 1773,
      "Ġà°¸à°²à°¹": 1774,
      "Ġmotion": 1775,
      "74": 1776,
      "by": 1777,
      "dly": 1778,
      "eg": 1779,
      "mand": 1780,
      "tort": 1781,
      "ĠJ": 1782,
      "Ġv": 1783,
      "Ġri": 1784,
      "à°°à°ĸ": 1785,
      "à°¨à°¬à°¡": 1786,
      "à°¨à°µà°°": 1787,
      "à°¯à°¤à°¨": 1788,
      "Ġà°ªà°¤à°¨": 1789,
      "Ġà°ķà°¸": 1790,
      "Ġà°ķà°£": 1791,
      "à°Ĺà°µà°¤": 1792,
      "à°ªà°ķà°²": 1793,
      "Ġà°¨à°Ĺ": 1794,
      "Ġà°°à°®": 1795,
      "Ġà°Ĩà°ªà°°": 1796,
      "à°¾à°Ĥ,": 1797,
      "Ġà°¶à°¨": 1798,
      "Ġà°ĸà°¨": 1799,
      "Ġà°¬à°¯à°Łà°ķ": 1800,
      "Ġà°Ĳà°ª": 1801,
      "ure": 1802,
      "à°ħà°¨": 1803,
      "Ġ1950": 1804,
      "Ġ1973": 1805,
      "Ġ1977": 1806,
      "Ġextort": 1807,
      "Ġhave": 1808,
      "Ġintercourse": 1809,
      "Ġcommits": 1810,
      "Ġcommitted": 1811,
      "Ġdoes": 1812,
      "Ġthereby": 1813,
      "Ġinjury": 1814,
      "Ġproperty": 1815,
      "%,": 1816,
      "69": 1817,
      "ĠG": 1818,
      "à°¿),": 1819,
      "à°°à°«": 1820,
      "à±ĭ.": 1821,
      "à°¸à°ķ": 1822,
      "à°¸à°¤": 1823,
      "Ġà°īà°¸": 1824,
      "Ġà°ħà°ªà°°": 1825,
      "à°¶à°¨à°²": 1826,
      "Ġà°°à°ľ": 1827,
      "à°·à°²à°²": 1828,
      "Ġ119": 1829,
      "âĢ²": 1830,
      "à°³à°¤": 1831,
      "à°²à°²à°ķ": 1832,
      "à°¦à°²à°Ĺ": 1833,
      "à°°à°¸à°¨": 1834,
      "à°°à°¸à°¤": 1835,
      "Ġ49": 1836,
      "Ġpr": 1837,
      "Ġpre": 1838,
      "à°ļà°¬à°¡à°¤": 1839,
      "ĠâĢľ": 1840,
      "Ġà°Ĳà°ķ": 1841,
      "Ġ90": 1842,
      "à°ħà°ķ": 1843,
      "Ġà°ĺà°°": 1844,
      "Ġ1988": 1845,
      "Ġ1954": 1846,
      "à°¯à°Łà°¨à°²": 1847,
      "Ġkill": 1848,
      "Ġkidnap": 1849,
      "Ġ1930": 1850,
      "Ġone": 1851,
      "Ġà°ĭà°·": 1852,
      "tain": 1853,
      "Ġà°Ĺà°ľà°ªà°¤": 1854,
      "à±Ī.)": 1855,
      "Ġsuffer": 1856,
      "stit": 1857,
      "51": 1858,
      "73": 1859,
      "76": 1860,
      "ging": 1861,
      "mount": 1862,
      "ru": 1863,
      "ution": 1864,
      "à°²à°¦": 1865,
      "à°¯à°ªà°²": 1866,
      "à°¯à°Ĺà°²": 1867,
      "à°¦à°³": 1868,
      "à°¦à°°à°£": 1869,
      "à°¡à°²à°²": 1870,
      "à°ªà°µ": 1871,
      "à°ļà°®à°¨": 1872,
      "Ġà°ħà°«": 1873,
      "Ġà°ħà°°à°µ": 1874,
      "Ġà°ħà°¹à°®": 1875,
      "à°ľà°Ĺ": 1876,
      "Ġ120": 1877,
      "à°³à°¹à°¸": 1878,
      "Ġ51": 1879,
      "Ġ52": 1880,
      "Ġà°¶à°°à°£": 1881,
      "Ġà°Ĵà°°": 1882,
      "Ġà°İà°ķà°°": 1883,
      "Ġà°Ĵà°ķà°µ": 1884,
      "Ġà°¹à°¬": 1885,
      "à°°à°®à°²": 1886,
      "à°²à°¯à°®": 1887,
      "Ġad": 1888,
      "Ġamount": 1889,
      "Ġà°¸à°¹à°ľ": 1890,
      "à°µà°¤à°²": 1891,
      "thly": 1892,
      "Ġpla": 1893,
      "Ġà°Ĺà°£à°ªà°¤": 1894,
      "Ġdi": 1895,
      "Ġà°ĵà°µà°°": 1896,
      "Ġà°ħà°ªà°¹à°°": 1897,
      "à°µà°¨à°Ĺ": 1898,
      "ary": 1899,
      "und": 1900,
      "Ġ1958": 1901,
      "Ġ1946": 1902,
      "ity": 1903,
      "ree": 1904,
      "à°°à°Ĺà°¡": 1905,
      "Ġà°¬à°²à°¹": 1906,
      "Ġassaul": 1907,
      "Ġinter": 1908,
      "Ġconfine": 1909,
      "04": 1910,
      "68": 1911,
      "78": 1912,
      "DA": 1913,
      "dd": 1914,
      "hment": 1915,
      "ration": 1916,
      "tt": 1917,
      "à°ĥ": 1918,
      "à°°à°³à°²": 1919,
      "à°Ĥ-": 1920,
      "à°Ĥ),": 1921,
      "à°¡à°µà°²": 1922,
      "à°Ĺà°¦à°°": 1923,
      "à°¿..": 1924,
      "à°ļà°°à°£": 1925,
      "Ġà°ħà°·": 1926,
      "à°¶à°¹à°°": 1927,
      "à±ģ..": 1928,
      "à°·à°Ĺ": 1929,
      "Ġà°ľà°Ĺà°¦": 1930,
      "à°Ńà°¨": 1931,
      "Ġ55": 1932,
      "Ġà°ıà°¨": 1933,
      "à°¤à°¨à°®": 1934,
      "Ġà°¸à°¹à°ķà°°": 1935,
      "Ġ72": 1936,
      "Ġ74": 1937,
      "Ġ79": 1938,
      "Ġcust": 1939,
      "Ġfa": 1940,
      "Ġ69": 1941,
      "à°¸à°¨à°¸à°Ńà°ķ": 1942,
      "à°ħà°°": 1943,
      "Ġà°®à°¨à°ķ": 1944,
      "Ġ1971": 1945,
      "Ġ1975": 1946,
      "even": 1947,
      "Ġ1943": 1948,
      "Ġdef": 1949,
      "Ġprov": 1950,
      "Ġ1936": 1951,
      "temp": 1952,
      "Ġlawful": 1953,
      "Ġconfines": 1954,
      "Ġtwo": 1955,
      "Ġwrongfully": 1956,
      "Ġsufferer": 1957,
      "stitution": 1958,
      "\".": 1959,
      "%.": 1960,
      "07": 1961,
      "ain": 1962,
      "ction": 1963,
      "ugh": 1964,
      "áĢ": 1965,
      "ĠX": 1966,
      "Ġï»¿": 1967,
      "à°°à°¥à°®": 1968,
      "à°¯à°ªà°°": 1969,
      "à°¯à°Łà°¨": 1970,
      "à°®à°²à°ķ": 1971,
      "à°Łà°¤": 1972,
      "à°Łà°µ": 1973,
      "à°Łà°¬à°¡": 1974,
      "Ġà°ªà°µà°°": 1975,
      "à°Ĺà°Ĺ": 1976,
      "à°ªà°°à°®": 1977,
      "Ġà°Ĺà°®": 1978,
      "à°¶à°¯": 1979,
      "à°£à°¤": 1980,
      "à°§à°ª": 1981,
      "à°¹à°²": 1982,
      "Ġà°ĩà°Łà°²": 1983,
      "à°ĸà°ķ": 1984,
      "Ġà°¹à°¸": 1985,
      "Ġà°¹à°¸à°¨": 1986,
      "Ġà°¯à°¨à°®": 1987,
      "à°¤à°°à°ª": 1988,
      "Ġà°ªà°°à°¶": 1989,
      "Ġ1920": 1990,
      "à°°à°£à°®à°µ": 1991,
      "à°¯à°®à°¯": 1992,
      "Ġà°īà°ªà°°": 1993,
      "Ġorder": 1994,
      "Ġfi": 1995,
      "han": 1996,
      "Ġ68": 1997,
      "Ġ85": 1998,
      "ome": 1999,
      "Ġill": 2000,
      "ception": 2001,
      "Ġ1985": 2002,
      "Ġsudd": 2003,
      "ala": 2004,
      "Ġ1978": 2005,
      "à°¯à°£à°°": 2006,
      "Ġà°Ľà°¤": 2007,
      "Ġ1967": 2008,
      "self": 2009,
      "Ġà°Ĭà°¹": 2010,
      "ody": 2011,
      "pos": 2012,
      "Ġremand": 2013,
      "Ġhimself": 2014,
      "à°ĺà°Łà°¨à°²": 2015,
      "Ġguil": 2016,
      "Ġrape": 2017,
      "Ġà°¯à°¨à°®à°²à°ķ": 2018,
      "Ġsudden": 2019,
      "Ġguilty": 2020,
      "AN": 2021,
      "ol": 2022,
      "par": 2023,
      "ry": 2024,
      "upe": 2025,
      "ĠL": 2026,
      "Ġle": 2027,
      "à°ĵ": 2028,
      "Ġà°Ŀ": 2029,
      "à°ķà°µà°°": 2030,
      "à°¤à°¡": 2031,
      "à°¸à°¸": 2032,
      "à°ªà°¹": 2033,
      "Ġà°µà°ľ": 2034,
      "à°£à°ª": 2035,
      "âĢĿ": 2036,
      "à±įâĢĮ'": 2037,
      "Ġ53": 2038,
      "Ġà°¹à°®": 2039,
      "Ġà°Łà°¨": 2040,
      "Ġà°¸à°°à°¸à°¨": 2041,
      "à°łà°ķ": 2042,
      "Ġà°ıà°ľ": 2043,
      "Ġ1924": 2044,
      "Ġob": 2045,
      "à°µà°²à°ª": 2046,
      "à°Ĺà°°à°Ĺ": 2047,
      "Ġà°ħà°Ńà°¯": 2048,
      "Ġà°īà°ªà°Ĺ": 2049,
      "à°²à°µà°¡": 2050,
      "thing": 2051,
      "Ġ65": 2052,
      "Ġ66": 2053,
      "llust": 2054,
      "Ġà°Ĩà°¯à°¨à°¨": 2055,
      "Ġà°¨à°Łà°¨": 2056,
      "à°°à°ľà°²à°²": 2057,
      "Ġà°ĺà°Ł": 2058,
      "riv": 2059,
      "event": 2060,
      "Ġà°Ĩà°ķà°¸": 2061,
      "Ġthan": 2062,
      "Ġà°Ĩà°Ĺà°·": 2063,
      "Ġconst": 2064,
      "ĠICC": 2065,
      "ĠIllust": 2066,
      "ĠHere": 2067,
      "ested": 2068,
      "Ġà°ĭà°£": 2069,
      "à°¦à°¬à°¯à°²": 2070,
      "Ġprevent": 2071,
      "Ġplace": 2072,
      "Ġcustody": 2073,
      "Ġconstrain": 2074,
      "06": 2075,
      "08": 2076,
      "em": 2077,
      "ect": 2078,
      "for": 2079,
      "fore": 2080,
      "ph": 2081,
      "ting": 2082,
      "ual": 2083,
      "ww": 2084,
      "wise": 2085,
      "à¥": 2086,
      "à¨": 2087,
      "à±į/": 2088,
      "à±į;": 2089,
      "à°²à°µà°°": 2090,
      "à°ķà°³": 2091,
      "à°¯à°¬": 2092,
      "à°¯à°²à°ķ": 2093,
      "à°¤à°µà°°": 2094,
      "à°®à°ľ": 2095,
      "à°Łà°²à°¨": 2096,
      "à°¸à°°à°®": 2097,
      "Ġà°ķà°¶": 2098,
      "Ġà°¸à°Ĺ": 2099,
      "à°ªà°ª": 2100,
      "Ġà°¨à°¨": 2101,
      "Ġà°ħà°¥": 2102,
      "Ġà°ħà°¦à°¨": 2103,
      "Ġà°¦à°¸à°°": 2104,
      "Ġà°¦à°¹à°¨": 2105,
      "à°¬à°®": 2106,
      "Ġà°ľà°¸": 2107,
      "Ġà°²à°¤": 2108,
      "à°¹à°¬": 2109,
      "à°¹à°£": 2110,
      "à°Ńà°¯": 2111,
      "à°«à°²à°®": 2112,
      "Ġà°İà°¯": 2113,
      "Ġà°İà°¥": 2114,
      "à°ĸà°¨": 2115,
      "Ġà°¯à°ľà°®": 2116,
      "à°¤à°°à°£": 2117,
      "à°·à°¨à°°": 2118,
      "à°¯à°®à°¨": 2119,
      "Ġà°ķà°²à°µ": 2120,
      "Ġà°īà°ªà°¨": 2121,
      "hen": 2122,
      "à°¨à°µà°¨": 2123,
      "Ġcar": 2124,
      "Ġcir": 2125,
      "ist": 2126,
      "Ġ83": 2127,
      "à°ªà°¡à°¤": 2128,
      "à°ħà°¤à°¨": 2129,
      "à°Ĩà°§": 2130,
      "à°Ĩà°«": 2131,
      "à°µà°ļà°¨": 2132,
      "Ġ1987": 2133,
      "Ġ1957": 2134,
      "Ġà°ªà°¡à°Ĺ": 2135,
      "Ġgra": 2136,
      "Ġexce": 2137,
      "Ġ1969": 2138,
      "ided": 2139,
      "uty": 2140,
      "Ġinto": 2141,
      "teen": 2142,
      "Ġhome": 2143,
      "ame": 2144,
      "Ġintentionally": 2145,
      "Ġsubstan": 2146,
      "anger": 2147,
      "à°Ĺà°µà°°à°ª": 2148,
      "Ġsaid": 2149,
      "Ġextorting": 2150,
      "Ġinterested": 2151,
      "Ġconfinement": 2152,
      "Ġcirc": 2153,
      "*,": 2154,
      "52": 2155,
      "83": 2156,
      "DI": 2157,
      "ced": 2158,
      "ds": 2159,
      "up": 2160,
      "ver": 2161,
      "wn": 2162,
      "ĠY": 2163,
      "Ġj": 2164,
      "à°Ŀ": 2165,
      "à°¨à°¤à°¨": 2166,
      "à°ķà°¬à°¡": 2167,
      "à°ķà°Łà°ķ": 2168,
      "à°¦à°¶": 2169,
      "à°¤à°ªà°°": 2170,
      "Ġà°ķà°Łà°ķ": 2171,
      "à±Ģ'": 2172,
      "à±Ģ:": 2173,
      "à°Ĺà°¬": 2174,
      "Ġà°¸à°µ": 2175,
      "Ġà°¸à°«": 2176,
      "Ġà°īà°ķ": 2177,
      "à°ļà°µà°²à°¸": 2178,
      "Ġà°°à°¨": 2179,
      "Ġà°Ĩà°Ń": 2180,
      "à°·à°¶": 2181,
      "Ġà°²à°µ": 2182,
      "à°¹à°³": 2183,
      "à°¥à°²à°²": 2184,
      "à°Ńà°µà°¨": 2185,
      "à°³à°®": 2186,
      "Ġà°Ńà°¯à°ªà°¡": 2187,
      "Ġà°Īà°°": 2188,
      "Ġà°Īà°¨": 2189,
      "à°ĸà°®": 2190,
      "à°²à°¨à°¨": 2191,
      "à°µà°°à°Ĺ": 2192,
      "Ġ(\"": 2193,
      "Ġà°ķà°³à°²": 2194,
      "à°°à°®à°Ł": 2195,
      "Ġtak": 2196,
      "Ġà°¸à°¹à°ļà°°": 2197,
      "à°°à°µà°¡": 2198,
      "Ġsho": 2199,
      "Ġseven": 2200,
      "Ġpar": 2201,
      "Ġpas": 2202,
      "à°¤à°®à°µ": 2203,
      "Ġ82": 2204,
      "Ġà°§à°¨à°¨": 2205,
      "Ġduty": 2206,
      "Ġbeg": 2207,
      "ardi": 2208,
      "Ġ95": 2209,
      "à°ħà°²": 2210,
      "Ġanything": 2211,
      "Ġ1959": 2212,
      "ays": 2213,
      "Ġ504": 2214,
      "Ġ508": 2215,
      "Ġ509": 2216,
      "Ġgo": 2217,
      "ital": 2218,
      "Ġ586": 2219,
      "Ġ288": 2220,
      "ated": 2221,
      "à°ıà°Ł": 2222,
      "à°ıà°ª": 2223,
      "ĠMP": 2224,
      "ĠMa": 2225,
      "ĠPro": 2226,
      "Ġdoing": 2227,
      "ĠKidnap": 2228,
      "Ġend": 2229,
      "Ġgiven": 2230,
      "Ġright": 2231,
      "ĠIllustration": 2232,
      "Ġgrave": 2233,
      "Ġsubstance": 2234,
      "\",": 2235,
      "*[": 2236,
      "ber": 2237,
      "ee": 2238,
      "ii": 2239,
      "igh": 2240,
      "low": 2241,
      "oluntarily": 2242,
      "port": 2243,
      "pital": 2244,
      "Ġ=": 2245,
      "Ġ[": 2246,
      "ĠWhoever": 2247,
      "Ġà¤": 2248,
      "Ġqu": 2249,
      "à°¿?": 2250,
      "à°°à°²à°¨": 2251,
      "à°¨à°ļ": 2252,
      "à°ķà°ļ": 2253,
      "à°ķà°Łà°°": 2254,
      "à°¯à°²à°¤": 2255,
      "à°¤à°¦": 2256,
      "à°¤à°²à°¨": 2257,
      "à°¤à°µà°°à°ķ": 2258,
      "à°®à°¸à°®": 2259,
      "à°®à°·à°ª": 2260,
      "à°Łà°¯": 2261,
      "à°Łà°Ńà°¦": 2262,
      "Ġà°ªà°ļ": 2263,
      "à°¸à°ª": 2264,
      "Ġà°ķà°¡à°ª": 2265,
      "à°Ĺà°ķ": 2266,
      "à°Ĺà°²à°²": 2267,
      "Ġà°µà°§": 2268,
      "Ġà°īà°ľ": 2269,
      "Ġà°®à°¨à°µ": 2270,
      "Ġà°®à°¤à°ª": 2271,
      "Ġà°¦à°¯": 2272,
      "à°¬à°¸": 2273,
      "à°¶à°¸": 2274,
      "à°£à°¶": 2275,
      "à°ľà°¡": 2276,
      "à°·à°°à°®": 2277,
      "Ġà°ľà°µ": 2278,
      "à°§à°µ": 2279,
      "Ġà°¬à°ķ": 2280,
      "à°Ńà°°": 2281,
      "à°³à°Ĺ": 2282,
      "à±įâĢĮ-": 2283,
      "Ġ102": 2284,
      "Ġ1000": 2285,
      "Ġà°Ńà°¤": 2286,
      "Ġà°İà°²à°ķ": 2287,
      "Ġà°Ĵà°ķà°¸": 2288,
      "Ġà°¹à°µ": 2289,
      "Ġà°¹à°ľ": 2290,
      "Ġà°ľà°¨à°¸": 2291,
      "Ġà°ľà°¨à°Ĺ": 2292,
      "Ġ1926": 2293,
      "Ġà°·à°°": 2294,
      "à°·à°£à°ķ": 2295,
      "à°¯à°¤à°²à°¨": 2296,
      "Ġà°īà°ªà°µ": 2297,
      "Ġà°®à°¹à°ªà°¦": 2298,
      "Ġà°ħà°µà°Ĺ": 2299,
      "Ġ73": 2300,
      "Ġ76": 2301,
      "Ġbut": 2302,
      "Ġwo": 2303,
      "à°ļà°¡à°®": 2304,
      "Ġà°ķà°¨à°¬à°¡": 2305,
      "Ġ64": 2306,
      "Ġ86": 2307,
      "Ġmis": 2308,
      "Ġbeli": 2309,
      "hip": 2310,
      "Ġ1953": 2311,
      "Ġà°ªà°¡à°¤": 2312,
      "à°¿).": 2313,
      "Ġ575": 2314,
      "Ġ576": 2315,
      "Ġ1941": 2316,
      "Ġ1942": 2317,
      "Ġ1963": 2318,
      "Ġ1965": 2319,
      "Ġ250": 2320,
      "uld": 2321,
      "...": 2322,
      "Ġà°Ĭà°ª": 2323,
      "Ġthree": 2324,
      "à°Ĺà°³à°Ĺ": 2325,
      "ĠBC": 2326,
      "Ġoffen": 2327,
      "à°īà°¨": 2328,
      "Ġuses": 2329,
      "ĠException": 2330,
      "Ġotherwise": 2331,
      "Ġattemp": 2332,
      "Ġguardi": 2333,
      "ĠVoluntarily": 2334,
      "ign": 2335,
      "Ġà°Ńà°Ĺà°µà°¦": 2336,
      "Ġabducts": 2337,
      "Ġconstraining": 2338,
      "Ġbegging": 2339,
      "Ġbeliev": 2340,
      "05": 2341,
      "09": 2342,
      "59": 2343,
      "500": 2344,
      "81": 2345,
      "88": 2346,
      "The": 2347,
      "ck": 2348,
      "cha": 2349,
      "ms": 2350,
      "xual": 2351,
      "Ġ?": 2352,
      "Ġ{": 2353,
      "à°¾:": 2354,
      "à°Ĥ*": 2355,
      "à°¯à°ļ": 2356,
      "à°¦à°ľ": 2357,
      "à°¦à°ķà°°": 2358,
      "à°¦à°²à°ķ": 2359,
      "à°®à°§": 2360,
      "à°®à°Ńà°¦": 2361,
      "à°¡à°¸": 2362,
      "à°Łà°¬": 2363,
      "à°Łà°ķà°²": 2364,
      "à±ĩ-": 2365,
      "Ġà°¸à°¯": 2366,
      "Ġà°µà°¤": 2367,
      "Ġà°¨à°¶": 2368,
      "Ġà°īà°¡": 2369,
      "Ġà°īà°Ł": 2370,
      "Ġà°®à°ľ": 2371,
      "à°ļà°ķà°ª": 2372,
      "Ġà°°à°¹": 2373,
      "Ġà°Ĩà°²à°ª": 2374,
      "Ġà°ľà°¡": 2375,
      "Ġà°ľà°µà°¹": 2376,
      "Ġà°¤à°¡": 2377,
      "Ġà°¤à°²à°ª": 2378,
      "à°¹à°°à°£": 2379,
      "Ġà°¬à°²à°°": 2380,
      "âĢ³": 2381,
      "Ġà°Ĵà°¤": 2382,
      "Ġà°Ĵà°Ł": 2383,
      "Ġà°İà°¡à°®": 2384,
      "Ġà°¯à°®": 2385,
      "à°¤à°°à°®": 2386,
      "Ġ1923": 2387,
      "Ġtho": 2388,
      "à°²à°¯à°µà°¨": 2389,
      "à°²à°ķà°®": 2390,
      "à°°à°µà°²": 2391,
      "à°Ĺà°°à°²": 2392,
      "à°İà°¤": 2393,
      "à°ĺà°°": 2394,
      "à°ĺà°µ": 2395,
      "Ġà°īà°ªà°ķ": 2396,
      "Ġà°ħà°µà°®": 2397,
      "Ġ78": 2398,
      "à°Ĺà°²à°®": 2399,
      "Ġpow": 2400,
      "Ġpriv": 2401,
      "Ġà°µà°°à°¦à°²": 2402,
      "Ġà°ªà°¦à°®": 2403,
      "Ġà°ħà°°à°¬": 2404,
      "Ġ63": 2405,
      "Ġindu": 2406,
      "à°¯à°µà°§": 2407,
      "llow": 2408,
      "Ġà°ĵà°ª": 2409,
      "ures": 2410,
      "Ġbeen": 2411,
      "2011": 2412,
      "Ġ1979": 2413,
      "Ġ1961": 2414,
      "Ġ1939": 2415,
      "stru": 2416,
      "unishment": 2417,
      "Ġcompe": 2418,
      "Ġà°°à°ļà°¨à°²à°²": 2419,
      "Ġknows": 2420,
      "Ġrupe": 2421,
      "ĠPunishment": 2422,
      "Ġdispos": 2423,
      "Ġà°¬à°¯à°Łà°ªà°¡": 2424,
      "ĠIns": 2425,
      "Ġamounting": 2426,
      "Ġassault": 2427,
      "à°ķà°Łà°ķà°µ": 2428,
      "Ġà°Ĩà°Ńà°°à°£": 2429,
      "ĠKidnapping": 2430,
      "Ġà°®à°¤à°ªà°°à°®": 2431,
      "Ġoffender": 2432,
      "Ġrupees": 2433,
      "%)": 2434,
      "',": 2435,
      "02": 2436,
      "ace": 2437,
      "cl": 2438,
      "com": 2439,
      "el": 2440,
      "fter": 2441,
      "here": 2442,
      "ili": 2443,
      "ject": 2444,
      "mation": 2445,
      "rdly": 2446,
      "sh": 2447,
      "tc": 2448,
      "tr": 2449,
      "the": 2450,
      "ud": 2451,
      "Ġ),": 2452,
      "à±į(": 2453,
      "à°¿*": 2454,
      "à°°à°ķà°°": 2455,
      "à°°à°²à°²": 2456,
      "à°°à°Ĺà°¤": 2457,
      "à°¨à°¶": 2458,
      "à°¨à°Ń": 2459,
      "à°¨à°ķà°¨": 2460,
      "à°ķà°£": 2461,
      "à°¦à°¦": 2462,
      "à°¦à°¸": 2463,
      "à°¦à°¹": 2464,
      "à°¤à°²à°²": 2465,
      "à°¡à°²à°¨": 2466,
      "Ġà°ªà°µà°¨": 2467,
      "Ġà°ķà°ł": 2468,
      "Ġà°ķà°¥à°ķ": 2469,
      "Ġà°ķà°¨à°ª": 2470,
      "Ġà°¸à°¸": 2471,
      "à°ªà°¯": 2472,
      "Ġà°µà°°à°¸": 2473,
      "Ġà°ħà°²à°µ": 2474,
      "à±Ī-": 2475,
      "à°·à°²à°¨": 2476,
      "à°·à°¯à°®": 2477,
      "Ġà°ļà°¦à°°": 2478,
      "à°§à°°à°£": 2479,
      "Ġà°¤à°µ": 2480,
      "à±ģ,,": 2481,
      "à°Ńà°®à°¯": 2482,
      "à°³à°¡": 2483,
      "à°³à°ķà°°": 2484,
      "Ġ54": 2485,
      "à°¿,,": 2486,
      "Ġà°¶à°²": 2487,
      "Ġà°¸à°®à°¨": 2488,
      "à°²à°²à°²": 2489,
      "Ġout": 2490,
      "Ġown": 2491,
      "ined": 2492,
      "Ġar": 2493,
      "à°ķà°²à°µ": 2494,
      "Ġ300": 2495,
      "à°·à°£à°®": 2496,
      "Ġà°īà°ªà°ĸ": 2497,
      "Ġsi": 2498,
      "Ġsame": 2499,
      "Ġà°ħà°µà°¶": 2500,
      "à°¡à°µà°¦": 2501,
      "Ġà°®à°°à°²": 2502,
      "Ġ81": 2503,
      "Ġ84": 2504,
      "Ġinstitution": 2505,
      "à°ķà°¡à°ķ": 2506,
      "1931": 2507,
      "Ġà°Ĳà°Ł": 2508,
      "Ġà°ĵà°°": 2509,
      "arri": 2510,
      "Ġhos": 2511,
      "ĠAV": 2512,
      "ĠAr": 2513,
      "Ġeigh": 2514,
      "Ġetc": 2515,
      "ently": 2516,
      "Ġ1981": 2517,
      "ational": 2518,
      "à±ģ).": 2519,
      "Ġcase": 2520,
      "Ġ506": 2521,
      "Ġexerc": 2522,
      "Ġ1949": 2523,
      "Ġ1937": 2524,
      "ici": 2525,
      "Ġ590": 2526,
      "Ġ596": 2527,
      "irst": 2528,
      "Ġneg": 2529,
      "Ġà°ħà°Łà°µ": 2530,
      "à°²à°Ńà°¤à°°": 2531,
      "à°µà°¹à°£à°²": 2532,
      "Ġdischa": 2533,
      "Ġpurposes": 2534,
      "Ġsexual": 2535,
      "ĠODI": 2536,
      "ack": 2537,
      "Ġprovided": 2538,
      "Ġexcep": 2539,
      "Ġcircum": 2540,
      "Ġtakes": 2541,
      "Ġmisc": 2542,
      "Ġà°ľà°µà°¹à°°": 2543,
      "Ġhospital": 2544,
      "Ġeighteen": 2545,
      "Ġdischar": 2546,
      ".]": 2547,
      "SM": 2548,
      "aus": 2549,
      "din": 2550,
      "et": 2551,
      "oo": 2552,
      "pur": 2553,
      "ss": 2554,
      "ue": 2555,
      "uable": 2556,
      "ys": 2557,
      "Ġro": 2558,
      "Ĥ¹": 2559,
      "Ĺı": 2560,
      "à°¾;": 2561,
      "à°¾),": 2562,
      "à°²à°Ł": 2563,
      "à°¨à°Ĺà°²": 2564,
      "à±ĭ),": 2565,
      "à°¦à°¨à°²": 2566,
      "à°¤à°Ń": 2567,
      "à°¤à°ķà°°": 2568,
      "à°¤à°¸à°°": 2569,
      "à°®à°²à°¨": 2570,
      "à°¡à°¦à°¨": 2571,
      "à°µà°§": 2572,
      "à°Łà°¦": 2573,
      "à°Łà°Ł": 2574,
      "à°Łà°ķà°°": 2575,
      "Ġà°ªà°ª": 2576,
      "à°¸à°Ł": 2577,
      "à°¸à°«": 2578,
      "à±Ģ\"": 2579,
      "à°Ĺà°°à°ķ": 2580,
      "à°¿.,": 2581,
      "à°ªà°¨à°ķ": 2582,
      "Ġà°µà°¯": 2583,
      "Ġà°¨à°°à°ķ": 2584,
      "à°ļà°¨à°²": 2585,
      "Ġà°ħà°µà°°": 2586,
      "à°¬à°ĸ": 2587,
      "à°¶à°¦": 2588,
      "à°¶à°®à°¨": 2589,
      "Ġà°°à°ĺ": 2590,
      "Ġà°°à°®à°£": 2591,
      "Ġà°°à°¹à°¸": 2592,
      "Ġà°Ĩà°ķà°Ł": 2593,
      "à°ľà°¶": 2594,
      "Ġà°ľà°ķ": 2595,
      "Ġà°ľà°¯à°¸": 2596,
      "à°§à°®à°¤": 2597,
      "à°§à°¨à°ķ": 2598,
      "Ġà°¤à°®à°¨": 2599,
      "Ġà°¤à°¦à°¨": 2600,
      "à°¥à°¤": 2601,
      "Ġà°ĩà°°à°µ": 2602,
      "Ġ105": 2603,
      "Ġà°¶à°¬": 2604,
      "Ġà°¶à°¶": 2605,
      "à°²à°²à°¨": 2606,
      "Ġà°¹à°¯": 2607,
      "à°µà°°à°®": 2608,
      "Ġà°¯à°¤": 2609,
      "Ġ1919": 2610,
      "Ġ1916": 2611,
      "Ġ1911": 2612,
      "Ġ1929": 2613,
      "à°¡à°²à°ķ": 2614,
      "Ġà°ľà°°à°Ĺà°¨": 2615,
      "à°²à°ķà°²": 2616,
      "à°¦à°°à°¨": 2617,
      "ind": 2618,
      "à°¨à°°à°¸": 2619,
      "Ġà°¤à°°à°¹": 2620,
      "Ġà°·à°¹": 2621,
      "Ġà°ķà°²à°¸": 2622,
      "à°ĺà°ķ": 2623,
      "à°ĺà°®": 2624,
      "Ġsp": 2625,
      "à°²à°µà°¬à°¡": 2626,
      "Ġ71": 2627,
      "thers": 2628,
      "Ġà°µà°°à°¦": 2629,
      "Ġbu": 2630,
      "Ġchan": 2631,
      "ission": 2632,
      "oration": 2633,
      "à°¯à°²à°ª": 2634,
      "Ġ61": 2635,
      "à°¸à°Ńà°ķ": 2636,
      "Ġ87": 2637,
      "Ġ88": 2638,
      "à°¸à°®à°¯": 2639,
      "aning": 2640,
      "Ġma": 2641,
      "à°¦à°¨à°¨": 2642,
      "1935": 2643,
      "Ġà°Ĳà°İà°¨": 2644,
      "urity": 2645,
      "Ġà°¨à°Łà°¨à°ķ": 2646,
      "ari": 2647,
      "à°ħà°Ĺ": 2648,
      "Ġemp": 2649,
      "à°Ĩà°¸": 2650,
      "Ġ174": 2651,
      "lig": 2652,
      "Ġ121": 2653,
      "Ġ167": 2654,
      "Ġà°Ĩà°¡à°Ł": 2655,
      "Ġ142": 2656,
      "Ġsuicide": 2657,
      "ale": 2658,
      "aluable": 2659,
      "Ġ..": 2660,
      "à°µà°°à°£à°²": 2661,
      "à°ĩà°¤à°°": 2662,
      "Ġ1972": 2663,
      "ayb": 2664,
      "Ġ573": 2665,
      "Ġ1940": 2666,
      "ĠSt": 2667,
      "ĠSec": 2668,
      "Ġ587": 2669,
      "sequ": 2670,
      "Ġconsequ": 2671,
      "ĠIN": 2672,
      "....": 2673,
      "Ġ1931": 2674,
      "Ġ1934": 2675,
      "ater": 2676,
      "icit": 2677,
      "Ġà°Ĭà°Ł": 2678,
      "à°ľà°®à°¹": 2679,
      "Ġà°ľà°²à°Ńà°¯": 2680,
      "Ġ365": 2681,
      "à°ªà°£à°²": 2682,
      "Ġà°Ĺà°²à°¦": 2683,
      "à¤¾": 2684,
      "ĠThi": 2685,
      "Ġsecurity": 2686,
      "Ġ1903": 2687,
      "ĠWrong": 2688,
      "Ġmeaning": 2689,
      "Ġà°ľà°¯à°ļ": 2690,
      "ĠIndi": 2691,
      "Ġconfined": 2692,
      "Ġrestrain": 2693,
      "Ġrestoration": 2694,
      "ĠâĤ¹": 2695,
      "ĠâĹı": 2696,
      "Ġvaluable": 2697,
      "Ġkills": 2698,
      "Ġkidnaps": 2699,
      "Ġfaith": 2700,
      "Ġdefined": 2701,
      "ANDA": 2702,
      "formation": 2703,
      "Ġgood": 2704,
      "Ġendanger": 2705,
      "Ġà°®à°¨à°µà°¡": 2706,
      "Ġwould": 2707,
      "Ġcompel": 2708,
      "Ġexercise": 2709,
      "Ġneglig": 2710,
      "Ġemplo": 2711,
      "ĠSecon": 2712,
      "92": 2713,
      "AG": 2714,
      "ag": 2715,
      "all": 2716,
      "ase": 2717,
      "ail": 2718,
      "ble": 2719,
      "bit": 2720,
      "hu": 2721,
      "ia": 2722,
      "ive": 2723,
      "ife": 2724,
      "led": 2725,
      "other": 2726,
      "ough": 2727,
      "ped": 2728,
      "rt": 2729,
      "ren": 2730,
      "red": 2731,
      "tercourse": 2732,
      "uth": 2733,
      "yed": 2734,
      "¡Õ": 2735,
      "Õ¡Õ": 2736,
      "à¦": 2737,
      "Ġ+": 2738,
      "ĠÙ": 2739,
      "à°¾âĢĮ": 2740,
      "à°²à°¶": 2741,
      "à°²à°®à°¨": 2742,
      "à°¨à°µà°²": 2743,
      "à°ķà°¶": 2744,
      "à°¯à°²à°²": 2745,
      "à°¯à°¸à°®": 2746,
      "à°¦à°ªà°²": 2747,
      "à°¦à°ķà°°à°®": 2748,
      "à°¤à°¶": 2749,
      "à°¤à°²à°ķ": 2750,
      "à°¤à°ķà°²": 2751,
      "à°¤à°µà°²à°¸à°²": 2752,
      "à°µà°²à°ķ": 2753,
      "à°µà°®à°¨": 2754,
      "à°Łà°ªà°²": 2755,
      "Ġà°ªà°¥": 2756,
      "Ġà°ªà°¡à°µ": 2757,
      "Ġà°ķà°¹": 2758,
      "Ġà°ķà°µà°°": 2759,
      "à°Ĺà°²à°ķ": 2760,
      "Ġà°¸à°µà°°": 2761,
      "à°ªà°¨à°²": 2762,
      "à±Ĥ)": 2763,
      "Ġà°¨à°¸": 2764,
      "Ġà°¨à°¯à°¨": 2765,
      "Ġà°Ĺà°µ": 2766,
      "Ġà°Ĺà°²à°µ": 2767,
      "Ġà°īà°¯": 2768,
      "Ġà°®à°¯": 2769,
      "Ġà°®à°¦à°¨": 2770,
      "Ġà°®à°®à°¤": 2771,
      "à°¬à°ķ": 2772,
      "à°¶à°Ĺ": 2773,
      "à°£à°°": 2774,
      "Ġà°Ĩà°¡à°²": 2775,
      "à°ľà°¦": 2776,
      "à°ľà°°à°¯": 2777,
      "Ġà°ľà°¯à°ª": 2778,
      "Ġà°²à°¯": 2779,
      "à°§à°¸": 2780,
      "à°§à°Ń": 2781,
      "Ġà°¬à°¨": 2782,
      "Ġà°¬à°·": 2783,
      "Ġà°¬à°²à°Ĺ": 2784,
      "à°¥à°µ": 2785,
      "à°¥à°²à°¨": 2786,
      "à°¥à°ªà°¤": 2787,
      "à°¥à°²à°®": 2788,
      "à°Ńà°¸": 2789,
      "à°Ńà°µà°¤": 2790,
      "à°³à°ª": 2791,
      "à±įâĢĮâĢĻ": 2792,
      "Ġ108": 2793,
      "Ġà°¶à°¨à°Ĺ": 2794,
      "Ġà°Ńà°Ĺ": 2795,
      "Ġà°Ńà°Ĺà°¤": 2796,
      "Ġà°¸à°®à°Ĺ": 2797,
      "Ġà°¸à°®à°¯à°®": 2798,
      "Ġ219": 2799,
      "à°°à°¤à°²": 2800,
      "à°°à°¤à°¨": 2801,
      "Ġà°Ĵà°ķà°¦": 2802,
      "Ġà°¹à°¯à°ķ": 2803,
      "Ġ1900": 2804,
      "Ġ1915": 2805,
      "Ġ1922": 2806,
      "à°°à°®à°®": 2807,
      "à°ķà°²à°¤": 2808,
      "à°ķà°²à°ª": 2809,
      "Ġ312": 2810,
      "Ġà°·à°Ł": 2811,
      "à°İà°ķ": 2812,
      "hether": 2813,
      "Ġ77": 2814,
      "Ġwor": 2815,
      "Ġwhen": 2816,
      "Ġtort": 2817,
      "tic": 2818,
      "Ġanno": 2819,
      "Ġanother": 2820,
      "à°¦à°ķà°¤": 2821,
      "Ġfo": 2822,
      "orn": 2823,
      "ory": 2824,
      "ession": 2825,
      "à°¤à°®à°¯": 2826,
      "à°¸à°Ńà°²": 2827,
      "ance": 2828,
      "edu": 2829,
      "Ġ1890": 2830,
      "Ġ1870": 2831,
      "Ġ1882": 2832,
      "Ġà°ĵà°¡à°²": 2833,
      "chine": 2834,
      "chiv": 2835,
      "Ġhere": 2836,
      "Ġ96": 2837,
      "à°ħà°ª": 2838,
      "ĠAs": 2839,
      "à°Ĩà°®": 2840,
      "Ġà°ĺà°¨à°¤": 2841,
      "Ġ125": 2842,
      "à°Ĺà°®à°¯": 2843,
      "Ġ507": 2844,
      "Ġ5023": 2845,
      "à°¯à°£à°¨": 2846,
      "Ġ572": 2847,
      "Ġ574": 2848,
      "Ġ579": 2849,
      "cts": 2850,
      "Ġ1944": 2851,
      "Ġ1964": 2852,
      "Ġ584": 2853,
      "ĠIP": 2854,
      "Ġ224": 2855,
      "Ġ232": 2856,
      "Ġ239": 2857,
      "à°Ĥ).": 2858,
      "Ġ1933": 2859,
      "Ġ375": 2860,
      "Ġ364": 2861,
      "Ġ334": 2862,
      "Ġcommission": 2863,
      "à°īà°¦": 2864,
      "Ġalms": 2865,
      "Ġits": 2866,
      "ĠCaus": 2867,
      "vantage": 2868,
      "ffic": 2869,
      "ĠNANDA": 2870,
      "ĠWayb": 2871,
      "ĠFirst": 2872,
      "ĠIntercourse": 2873,
      "Ġlab": 2874,
      "Ġsubject": 2875,
      "Ġà°®à°Ĺà°§": 2876,
      "stances": 2877,
      "ĠGo": 2878,
      "Ġadvantage": 2879,
      "paration": 2880,
      "Ġjail": 2881,
      "Ġpass": 2882,
      "ĠMachine": 2883,
      "à°¨à°ķà°¨à°®": 2884,
      "Ġà°ļà°¦à°°à°ª": 2885,
      "arriage": 2886,
      "ĠArchiv": 2887,
      "Ġcircumstances": 2888,
      "Ġchange": 2889,
      "Ġconsequence": 2890,
      "ĠThirdly": 2891,
      "ĠWrongful": 2892,
      "Ġemployed": 2893,
      "ĠSecondly": 2894,
      "Ġtortures": 2895,
      "Ġannoy": 2896,
      "ĠCausing": 2897,
      "ĠWayback": 2898,
      "ĠArchived": 2899,
      "//": 2900,
      "100": 2901,
      "://": 2902,
      "Aj": 2903,
      "An": 2904,
      "PA": 2905,
      "TT": 2906,
      "cy": 2907,
      "cur": 2908,
      "fy": 2909,
      "gn": 2910,
      "gain": 2911,
      "mu": 2912,
      "na": 2913,
      "ner": 2914,
      "ps": 2915,
      "ually": 2916,
      "ving": 2917,
      "à®": 2918,
      "Ġz": 2919,
      "Ġup": 2920,
      "à°Ļ": 2921,
      "Ġà°ł": 2922,
      "à°¾?": 2923,
      "à°°à°·": 2924,
      "à°Ĥ;": 2925,
      "à±ģâĢĻ": 2926,
      "à±ģà°ģ": 2927,
      "à°²à°ªà°°": 2928,
      "à°¨à°¬": 2929,
      "à°ķà°¥": 2930,
      "à°¯à°µà°¤": 2931,
      "à°¯à°¸à°¨": 2932,
      "à°¯à°µà°²à°¸": 2933,
      "à±ĭ\"": 2934,
      "à°®à°²à°²": 2935,
      "à°¡à°®à°¨": 2936,
      "à°µà°²à°²": 2937,
      "à°µà°·à°£": 2938,
      "à°µà°ľà°¨": 2939,
      "Ġà°ķà°¬": 2940,
      "Ġà°ķà°¡à°¤": 2941,
      "à°Ĺà°²à°¨": 2942,
      "Ġà°¸à°¹à°¦": 2943,
      "à°¿...": 2944,
      "à°ªà°§": 2945,
      "à°ªà°®à°¨": 2946,
      "Ġà°¨à°°à°®": 2947,
      "Ġà°®à°¡": 2948,
      "à°ļà°¤": 2949,
      "à°ļà°¸": 2950,
      "Ġà°°à°¹à°®": 2951,
      "Ġà°Ĩà°µà°°": 2952,
      "Ġà°Ĩà°ļà°°": 2953,
      "Ġà°Ĩà°ĸà°°": 2954,
      "à°ľà°Ĺà°£": 2955,
      "à°·à°Ń": 2956,
      "Ġà°ľà°¬": 2957,
      "Ġà°ļà°®": 2958,
      "à±Ĭ-": 2959,
      "Ġà°¤à°£": 2960,
      "Ġà°¤à°ªà°¤": 2961,
      "Ġà°¬à°¤": 2962,
      "à°¥à°¸": 2963,
      "à°¥à°ª": 2964,
      "à°¥à°²à°ķ": 2965,
      "à°³à°¶": 2966,
      "à°ķà°°à°¨": 2967,
      "à±įâĢĮ)": 2968,
      "Ġ543": 2969,
      "Ġà°¶à°¤à°ķ": 2970,
      "Ġ214": 2971,
      "Ġà°Īà°²": 2972,
      "à°µà°°à°ķà°°": 2973,
      "à°µà°°à°ªà°°": 2974,
      "Ġà°Ĩà°°à°µ": 2975,
      "à°łà°¨": 2976,
      "Ġà°ıà°ķà°²à°µ": 2977,
      "à°¤à°¨à°²": 2978,
      "Ġ1914": 2979,
      "Ġ1925": 2980,
      "Ġ1928": 2981,
      "Ġ1921": 2982,
      "à°°à°Ńà°¦": 2983,
      "à°¡à°²à°®": 2984,
      "à°°à°£à°®à°¯": 2985,
      "à°¯à°¨à°®": 2986,
      "à°°à°®à°¨": 2987,
      "à°¯à°ķà°®": 2988,
      "Ġothers": 2989,
      "Ġac": 2990,
      "Ġap": 2991,
      "Ġafter": 2992,
      "à°¸à°°à°¸": 2993,
      "ertain": 2994,
      "Ġ313": 2995,
      "Ġ323": 2996,
      "Ġ390": 2997,
      "à°¯à°®à°ķ": 2998,
      "Ġà°¤à°¨à°¦": 2999,
      "à°°à°¸à°°à°£": 3000,
      "Ġ--": 3001,
      "à°ľà°¨à°®": 3002,
      "Ġsla": 3003,
      "Ġsedu": 3004,
      "Ġ400": 3005,
      "Ġ415": 3006,
      "Ġ412": 3007,
      "à°²à°µà°ķ": 3008,
      "à°²à°µà°Ĺ": 3009,
      "Ġ\".": 3010,
      "à°¨à°µà°®": 3011,
      "Ġbir": 3012,
      "Ġà°ªà°Łà°®": 3013,
      "Ġwe": 3014,
      "Ġwater": 3015,
      "à°¸à°¨à°²": 3016,
      "à°ªà°°à°ļà°¡": 3017,
      "Ġfir": 3018,
      "Ġfem": 3019,
      "Ġ67": 3020,
      "Ġ800": 3021,
      "Ġinformation": 3022,
      "Ġmi": 3023,
      "Ġmore": 3024,
      "Ġà°Ķà°Ł": 3025,
      "à°¦à°¨à°ķ": 3026,
      "à°®à°°à°ªà°²": 3027,
      "Ġ180": 3028,
      "Ġ1897": 3029,
      "Ġà°Ĳà°ľ": 3030,
      "Ġ115": 3031,
      "Ġ116": 3032,
      "Ġà°ĵà°Łà°®": 3033,
      "Ġà°¨à°Ĺà°°à°ª": 3034,
      "à°¸à°¨à°¸à°Ńà°²": 3035,
      "Ġhtt": 3036,
      "Ġ91": 3037,
      "Ġ93": 3038,
      "à°ħà°¯": 3039,
      "à°ħà°¸": 3040,
      "Ġ158": 3041,
      "Ġà°¤à°®à°ķ": 3042,
      "à°Ĩà°ķ": 3043,
      "206": 3044,
      "Ġà°¸à°Ńà°ķ": 3045,
      "à°ļà°°à°°": 3046,
      "Ġ126": 3047,
      "Ġim": 3048,
      "rit": 3049,
      "Ġ166": 3050,
      "Ġà°Ĩà°¡à°¤": 3051,
      "Ġ147": 3052,
      "Ġpersonal": 3053,
      "Ġ...": 3054,
      "à°ĩà°µ": 3055,
      "Ġà°ļà°¦à°µà°¡": 3056,
      "Ġ130": 3057,
      "à°ªà°¦à°®": 3058,
      "Ġ1976": 3059,
      "Ġà°ªà°¡à°®à°Ł": 3060,
      "Ġ570": 3061,
      "Ġ578": 3062,
      "Ġà°Ĩà°¦à°°à°£": 3063,
      "Ġgir": 3064,
      "Ġgest": 3065,
      "Ġà°ķà°¥à°²à°²": 3066,
      "Ġexc": 3067,
      "Ġ1945": 3068,
      "Ġ301": 3069,
      "Ġ304": 3070,
      "Ġ254": 3071,
      "Ġconta": 3072,
      "ular": 3073,
      "Ġkee": 3074,
      "Ġà°Ĳà°¦à°µ": 3075,
      "Ġprostitution": 3076,
      "Ġ1932": 3077,
      "ates": 3078,
      "ick": 3079,
      "ical": 3080,
      "Ġ595": 3081,
      "Ġ372": 3082,
      "Ġà°®à°¤à°¸": 3083,
      "Ġà°Īà°¯à°¨à°ķ": 3084,
      "à°īà°¤": 3085,
      "Ġ).": 3086,
      "Ġknowled": 3087,
      "owry": 3088,
      "Ġ1904": 3089,
      "sition": 3090,
      "2008": 3091,
      "ansport": 3092,
      "anship": 3093,
      "Ġchildren": 3094,
      "Ġà°¨à°°à°¸à°¨": 3095,
      "Ġintends": 3096,
      "lawful": 3097,
      "Ġrash": 3098,
      "Ġà°Ńà°°à°¤à°ĸ": 3099,
      "sault": 3100,
      "Ġmanner": 3101,
      "Ġprem": 3102,
      "tains": 3103,
      "Ġdie": 3104,
      "Ġassaults": 3105,
      "Ġdefence": 3106,
      "ĠXI": 3107,
      "Ġfive": 3108,
      "Ġilleg": 3109,
      "Ġillicit": 3110,
      "www": 3111,
      "ĠIllustrations": 3112,
      "Ġquick": 3113,
      "Ġguardianship": 3114,
      "Ġprivate": 3115,
      "transport": 3116,
      "Ġexcept": 3117,
      "Ġdischarge": 3118,
      "ĠIndia": 3119,
      "Ġwords": 3120,
      "Ġherein": 3121,
      "ĠAssault": 3122,
      "ĠIPL": 3123,
      "gainst": 3124,
      "Ġbirth": 3125,
      "Ġfemale": 3126,
      "Ġgirl": 3127,
      "Ġcontact": 3128,
      "Ġknowledge": 3129,
      "transportation": 3130,
      "53": 3131,
      "BC": 3132,
      "CH": 3133,
      "FA": 3134,
      "If": 3135,
      "SA": 3136,
      "ci": 3137,
      "co": 3138,
      "ease": 3139,
      "fig": 3140,
      "hon": 3141,
      "his": 3142,
      "ion": 3143,
      "mit": 3144,
      "math": 3145,
      "ne": 3146,
      "ot": 3147,
      "ose": 3148,
      "ring": 3149,
      "Ø§": 3150,
      "Ø±": 3151,
      "Ġ;": 3152,
      "Ġ<": 3153,
      "Ġ\\": 3154,
      "Ġla": 3155,
      "à°¾!": 3156,
      "à°°à°²à°ķ": 3157,
      "à°°à°²à°¤": 3158,
      "à°Ĥ(": 3159,
      "à°ĤâĢĮ": 3160,
      "à°ĤâĢĻ": 3161,
      "à±ģ*": 3162,
      "à±ģâĢĮ": 3163,
      "à°²à°Łà°°": 3164,
      "à°¨à°ªà°¤": 3165,
      "à°ķà°¦": 3166,
      "à°ķà°¤à°¨": 3167,
      "à°ķà°ªà°²": 3168,
      "à°ķà°Ĺà°£": 3169,
      "à°ķà°ļà°°": 3170,
      "à°¯à°µà°°": 3171,
      "à°¦à°µà°²": 3172,
      "à°¤à°ľ": 3173,
      "à°®à°¬": 3174,
      "à°®à°Ń": 3175,
      "à°®à°¯à°®": 3176,
      "à°®à°°à°¬": 3177,
      "à°®à°ķà°°à°£": 3178,
      "à°®à°¨à°µà°®": 3179,
      "à°¡à°¬": 3180,
      "à°¡à°µà°¸": 3181,
      "à°¡à°ªà°²": 3182,
      "à°¡à°ķà°ª": 3183,
      "à°Łà°²à°²": 3184,
      "à°Łà°µà°ļ": 3185,
      "Ġà°ªà°Ĺ": 3186,
      "Ġà°ªà°£": 3187,
      "Ġà°ªà°§": 3188,
      "Ġà°ªà°¹": 3189,
      "à±ĩ\"": 3190,
      "à±ĩ)": 3191,
      "à°¸à°²à°°": 3192,
      "Ġà°ķà°°à°£": 3193,
      "Ġà°ķà°°à°¦": 3194,
      "à°Ĺà°ªà°²": 3195,
      "à°Ĺà°ªà°°": 3196,
      "à°Ĺà°®à°²": 3197,
      "Ġà°¸à°ķ": 3198,
      "Ġà°¸à°ĸ": 3199,
      "Ġà°¸à°¡à°²": 3200,
      "Ġà°¸à°ķà°²": 3201,
      "Ġà°¸à°¬à°°": 3202,
      "à°ªà°¶": 3203,
      "Ġà°µà°¦à°²": 3204,
      "Ġà°¨à°µà°°": 3205,
      "Ġà°¨à°ķà°²": 3206,
      "Ġà°®à°¥": 3207,
      "Ġà°®à°ł": 3208,
      "Ġà°®à°¯à°¨": 3209,
      "Ġà°®à°²à°ª": 3210,
      "Ġà°ħà°ľà°¯": 3211,
      "Ġà°¦à°®": 3212,
      "à°¬à°¯": 3213,
      "Ġà°°à°§": 3214,
      "à°£à°¸": 3215,
      "à°£à°¤à°¨": 3216,
      "Ġà°Ĩà°ªà°¡": 3217,
      "Ġà°Ĩà°µà°°à°£à°²": 3218,
      "à°ľà°¬": 3219,
      "à°ľà°¹": 3220,
      "à±ģ.\"": 3221,
      "à±ģ.,": 3222,
      "à±ģ...": 3223,
      "à°·à°²à°ķ": 3224,
      "Ġà°ľà°ªà°¨": 3225,
      "Ġà°ļà°µ": 3226,
      "Ġà°²à°¬": 3227,
      "Ġà°²à°µà°£": 3228,
      "à°§à°²": 3229,
      "à°§à°¨à°¨": 3230,
      "Ġà°¤à°Ł": 3231,
      "Ġà°¤à°¹à°¸": 3232,
      "à°¥à°¡": 3233,
      "à°³à°µ": 3234,
      "à°³à°²à°¨": 3235,
      "Ġ101": 3236,
      "Ġ517": 3237,
      "Ġà°¶à°¸": 3238,
      "Ġà°¶à°ª": 3239,
      "à±Ĩà°Ĥ.": 3240,
      "Ġà°¸à°®à°°à°¯": 3241,
      "Ġ215": 3242,
      "à°¯à°µà°¸à°°": 3243,
      "à°°à°¤à°¤": 3244,
      "Ġà°Īà°µ": 3245,
      "Ġà°Īà°Ĺ": 3246,
      "Ġà°Īà°ľ": 3247,
      "Ġà°Īà°¤à°¡": 3248,
      "à°²à°²à°ªà°²": 3249,
      "à°ĸà°²à°¨": 3250,
      "à°°à°ķà°®": 3251,
      "à°°à°ķà°Łà°¨": 3252,
      "Ġà°ıà°µ": 3253,
      "Ġà°¯à°¸": 3254,
      "à°¤à°°à°Ĺà°¤": 3255,
      "Ġà°ªà°°à°¸": 3256,
      "Ġ191": 3257,
      "Ġ1918": 3258,
      "Ġ1910": 3259,
      "Ġ1917": 3260,
      "Ġ1913": 3261,
      "Ġà°ľà°°à°Ĺ": 3262,
      "Ġà°ľà°°à°Ĺà°²": 3263,
      "à°Łà°²à°¤": 3264,
      "Ġare": 3265,
      "Ġagainst": 3266,
      "onth": 3267,
      "à°¦à°²à°¤": 3268,
      "Ġ319": 3269,
      "Ġ350": 3270,
      "à°¯à°®à°µ": 3271,
      "Ġà°¸à°¹à°ľà°®": 3272,
      "Ġà°·à°¡": 3273,
      "à°·à°£à°¨": 3274,
      "Ġà°İà°ķà°¨": 3275,
      "Ġà°ķà°²à°ªà°¡": 3276,
      "Ġà°¤à°¨à°²": 3277,
      "Ġà°īà°ªà°¶à°®à°¨": 3278,
      "Ġsign": 3279,
      "Ġ458": 3280,
      "Ġ480": 3281,
      "Ġ\",": 3282,
      "Ġà°ħà°µà°§": 3283,
      "à°¡à°µà°¡": 3284,
      "Ġ720": 3285,
      "Ġ710": 3286,
      "Ġà°ħà°²à°¸": 3287,
      "though": 3288,
      "Ġbhu": 3289,
      "Ġwife": 3290,
      "Ġwhether": 3291,
      "Ġcess": 3292,
      "Ġcertain": 3293,
      "à°°à°¦à°ķ": 3294,
      "Ġà°ªà°¦à°¹": 3295,
      "Ġordin": 3296,
      "Ġà°ħà°¸à°¹": 3297,
      "Ġà°ĸà°¯": 3298,
      "Ġà°ĸà°¨à°¨": 3299,
      "hable": 3300,
      "à°¨à°¤à°ª": 3301,
      "à°¯à°²à°ªà°²": 3302,
      "Ġ600": 3303,
      "Ġ89": 3304,
      "Ġinas": 3305,
      "Ġdays": 3306,
      "Ġmen": 3307,
      "Ġmonth": 3308,
      "à°°à°¬à°²": 3309,
      "Ġà°ķà°°à°ªà°¤": 3310,
      "edit": 3311,
      "Ġ1891": 3312,
      "Ġ1876": 3313,
      "1924": 3314,
      "1928": 3315,
      "1942": 3316,
      "1933": 3317,
      "Ġà°Ĳà°¨à°µ": 3318,
      "à°¨à°®à°²": 3319,
      "Ġ110": 3320,
      "Ġ118": 3321,
      "lls": 3322,
      "lling": 3323,
      "Ġà°¨à°Łà°¨à°¨": 3324,
      "à°µà°¡à°®": 3325,
      "à°°à°¹à°®": 3326,
      "à°°à°ľà°²à°¨": 3327,
      "Ġhund": 3328,
      "Ġwithin": 3329,
      "Ġ94": 3330,
      "Ġ97": 3331,
      "à°²à°®à°¦": 3332,
      "Ġ',": 3333,
      "à°ħà°¦": 3334,
      "à°ħà°¤": 3335,
      "à°ħà°¬": 3336,
      "à°ħà°ľ": 3337,
      "Ġ159": 3338,
      "ĠAn": 3339,
      "à°Ĩà°¨": 3340,
      "à°Ĩà°Ĺ": 3341,
      "2015": 3342,
      "Ġ170": 3343,
      "Ġ172": 3344,
      "Ġ176": 3345,
      "Ġ179": 3346,
      "Ġ1758": 3347,
      "lice": 3348,
      "ceal": 3349,
      "à°®à°²à°Ĺ": 3350,
      "hibit": 3351,
      "Ġà°Ĩà°¡à°ª": 3352,
      "Ġ149": 3353,
      "à°®à°ķà°¥": 3354,
      "Ġà°Ĩà°²à°¯à°®": 3355,
      "Ġpersons": 3356,
      "à°ĩà°ķ": 3357,
      "à°¯à°¬à°¡à°²": 3358,
      "Ġ132": 3359,
      "Ġ133": 3360,
      "Ġ139": 3361,
      "à°¤à°²à°ªà°²": 3362,
      "Ġ505": 3363,
      "à°ŀà°ª": 3364,
      "Ġà°¨à°µà°²à°¨": 3365,
      "Ġà°µà°²à°¸à°²": 3366,
      "à°ľà°¯à°¦": 3367,
      "Ġgive": 3368,
      "Ġà°ķà°¥à°²à°¨": 3369,
      "Ġdeter": 3370,
      "Ġ1966": 3371,
      "Ġ1968": 3372,
      "ref": 3373,
      "Ġ583": 3374,
      "Ġà°Ĩà°²à°¸": 3375,
      "Ġ221": 3376,
      "Ġ246": 3377,
      "Ġà°Ĩà°¨à°ķà°Ł": 3378,
      "Ġ286": 3379,
      "Ġà°µà°¨à°ľ": 3380,
      "Ġ1935": 3381,
      "Ġ1938": 3382,
      "ature": 3383,
      "Ġ373": 3384,
      "Ġthro": 3385,
      "à°¤à°µà°®à°¤": 3386,
      "lati": 3387,
      "137": 3388,
      "Ġ366": 3389,
      "Ġpunishment": 3390,
      "Ġpunishable": 3391,
      "eci": 3392,
      "à°Ĳà°ĩ": 3393,
      "Ġ333": 3394,
      "erman": 3395,
      "Ġà°¨à°°à°¸à°°": 3396,
      "à±į\",": 3397,
      "Ġà°°à°ļà°¨à°²à°¨": 3398,
      "Ġ355": 3399,
      "Ġ359": 3400,
      "à°Ńà°®à°µ": 3401,
      "Ġalthough": 3402,
      "Ġnature": 3403,
      "ime": 3404,
      "à°®à°¡à°ªà°²": 3405,
      "304": 3406,
      "Ġuse": 3407,
      "Ġà°ħà°£à°ļ": 3408,
      "Ġconfession": 3409,
      "Ġ1901": 3410,
      "Ġ1908": 3411,
      "Ġrece": 3412,
      "2007": 3413,
      "Ġdisfig": 3414,
      "Ġdishon": 3415,
      "366": 3416,
      "à°²à°ļà°¨à°ķ": 3417,
      "ĠNe": 3418,
      "Ġwomen": 3419,
      "à°¿',": 3420,
      "fety": 3421,
      "uman": 3422,
      "Ġtherefore": 3423,
      "à°Ńà°ľà°¨à°²": 3424,
      "ĠOSM": 3425,
      "à°¨à°¹à°³": 3426,
      "Ġwhose": 3427,
      "CCI": 3428,
      "à°¾\",": 3429,
      "Ġsafety": 3430,
      "à°ļà°Ĺà°²à°¦": 3431,
      "Ġpoison": 3432,
      "Ġposition": 3433,
      "Ġpolice": 3434,
      "Ġgives": 3435,
      "Ġà°¨à°Ĺà°°à°®": 3436,
      "ĠGB": 3437,
      "olk": 3438,
      "Ġlead": 3439,
      "à¥į": 3440,
      "Ġshoo": 3441,
      "Ġpart": 3442,
      "Ġbelieves": 3443,
      "Ġpower": 3444,
      "Ġinduces": 3445,
      "cles": 3446,
      "Ġà°ķà°¨à°ªà°¡": 3447,
      "Ġà°µà°°à°¸à°Ĺ": 3448,
      "Ġmaim": 3449,
      "Ġnegligently": 3450,
      "Ġà°®à°¦à°¨à°ªà°²": 3451,
      "Ġpassing": 3452,
      "much": 3453,
      "Ġrashly": 3454,
      "Ġillegal": 3455,
      "Ġbhuj": 3456,
      "Ġcessation": 3457,
      "Ġordinary": 3458,
      "Ġinasmuch": 3459,
      "Ġhundred": 3460,
      ",,": 3461,
      "AI": 3462,
      "AS": 3463,
      "BD": 3464,
      "Culpable": 3465,
      "ES": 3466,
      "NT": 3467,
      "With": 3468,
      "ave": 3469,
      "bf": 3470,
      "con": 3471,
      "dis": 3472,
      "ding": 3473,
      "ex": 3474,
      "ft": 3475,
      "gen": 3476,
      "hom": 3477,
      "hra": 3478,
      "iz": 3479,
      "lis": 3480,
      "land": 3481,
      "mber": 3482,
      "nala": 3483,
      "ox": 3484,
      "ost": 3485,
      "rm": 3486,
      "ton": 3487,
      "ttemp": 3488,
      "vt": 3489,
      "ves": 3490,
      "yle": 3491,
      "yout": 3492,
      "ÃĹ": 3493,
      "ÛĮ": 3494,
      "Ġ#": 3495,
      "Ġ$": 3496,
      "Ġve": 3497,
      "à±į+": 3498,
      "à°¿/": 3499,
      "à°¾âĢĻ": 3500,
      "à°°à°¬à°¡": 3501,
      "à±ģ(": 3502,
      "à°²à°¯à°¨": 3503,
      "à°²à°µà°²": 3504,
      "à°²à°Ĺà°°": 3505,
      "à°¨à°µà°¤": 3506,
      "à°¨à°¸à°®": 3507,
      "à°ķà°¡à°²": 3508,
      "à°ķà°¦à°³": 3509,
      "à°¯à°³": 3510,
      "à°¦à°ļ": 3511,
      "à°¦à°Ń": 3512,
      "à°¦à°¶à°²": 3513,
      "à°¦à°ľà°Ĺ": 3514,
      "à°¤à°ªà°Ł": 3515,
      "à°¤à°²à°ª": 3516,
      "à°®à°ķà°°": 3517,
      "à°®à°Łà°²": 3518,
      "à°¡à°¬à°¡": 3519,
      "à°¡à°¦à°Ĺ": 3520,
      "à°µà°ķà°°": 3521,
      "à°µà°µà°¸": 3522,
      "à°µà°¨à°²": 3523,
      "à°Łà°Ń": 3524,
      "à°Łà°ªà°¡": 3525,
      "Ġà°ªà°Ĺà°Ł": 3526,
      "Ġà°ªà°µà°°à°²": 3527,
      "Ġà°ķà°²à°²": 3528,
      "Ġà°ķà°²à°¯": 3529,
      "Ġà°ķà°®à°²": 3530,
      "à±Ģà°Ĥ,": 3531,
      "à°Ĺà°®à°¨": 3532,
      "à°ªà°µà°²": 3533,
      "à°ªà°¦à°¨": 3534,
      "Ġà°µà°£": 3535,
      "Ġà°¨à°¯": 3536,
      "Ġà°¨à°Ĺà°¨": 3537,
      "Ġà°Ĺà°Ĺà°¨": 3538,
      "Ġà°īà°§": 3539,
      "Ġà°®à°±": 3540,
      "à°ļà°¨à°¨": 3541,
      "Ġà°ħà°²à°¨": 3542,
      "Ġà°ħà°µà°²": 3543,
      "à±Ī)": 3544,
      "Ġà°¦à°Ł": 3545,
      "à°¬à°¹": 3546,
      "à°¬à°ķà°²": 3547,
      "à°¶à°¤": 3548,
      "Ġà°°à°ª": 3549,
      "Ġà°°à°¤à°¨": 3550,
      "Ġà°°à°ľà°¨": 3551,
      "Ġà°°à°ľà°ķ": 3552,
      "à°£à°²": 3553,
      "à°£à°¦": 3554,
      "Ġà°Ĩà°¬": 3555,
      "Ġà°Ĩà°·": 3556,
      "Ġà°Ĩà°³": 3557,
      "Ġà°Ĩà°¨à°°": 3558,
      "à±ģ.)": 3559,
      "à°·à°¦": 3560,
      "à°·à°ľ": 3561,
      "à°·à°µà°°": 3562,
      "Ġà°ľà°¯à°®": 3563,
      "Ġà°ľà°²à°Ĺ": 3564,
      "Ġà°ļà°µà°ķ": 3565,
      "Ġà°²à°ļ": 3566,
      "à°§à°®à°¯": 3567,
      "Ġà°¤à°ľ": 3568,
      "Ġà°¤à°¬à°²": 3569,
      "à°¹à°ª": 3570,
      "Ġà°¬à°Ĺ": 3571,
      "Ġà°¬à°ľ": 3572,
      "Ġà°¬à°³": 3573,
      "Ġà°¬à°Ĺà°¨": 3574,
      "à°¥à°ķà°°": 3575,
      "à±Ģ./": 3576,
      "Ġà°ĩà°¯": 3577,
      "à°³à°¨à°²": 3578,
      "Ġ106": 3579,
      "Ġ5000": 3580,
      "Ġ523": 3581,
      "Ġà°¶à°µà°ª": 3582,
      "Ġà°Ńà°¸": 3583,
      "Ġà°Ńà°°à°£": 3584,
      "Ġà°Ńà°¯à°ª": 3585,
      "Ġ220": 3586,
      "Ġ218": 3587,
      "Ġ210": 3588,
      "Ġ213": 3589,
      "Ġà°Ĵà°¸": 3590,
      "Ġà°Ĵà°¬": 3591,
      "Ġà°Ĵà°®à°¨": 3592,
      "à°°à°¤à°°": 3593,
      "Ġà°İà°µ": 3594,
      "Ġà°Īà°ª": 3595,
      "Ġà°ħà°¨à°°": 3596,
      "Ġà°ħà°¨à°¤": 3597,
      "Ġà°ħà°¨à°¸": 3598,
      "Ġà°ħà°¨à°¬à°¡": 3599,
      "Ġà°ħà°¨à°µà°ļ": 3600,
      "à°ĸà°²à°²": 3601,
      "à°²à°¨à°ķ": 3602,
      "Ġà°Ĵà°ķà°ļ": 3603,
      "Ġà°¹à°¤à°®": 3604,
      "à°µà°°à°¨": 3605,
      "à°µà°°à°ľ": 3606,
      "Ġà°¡à°°": 3607,
      "Ġà°¡à°ķ": 3608,
      "à°ªà°¤à°ķ": 3609,
      "à°°à°ķà°³": 3610,
      "Ġ208": 3611,
      "Ġà°ķà°³à°²à°¨": 3612,
      "Ġ1912": 3613,
      "Ġ1927": 3614,
      "à°¡à°²à°ª": 3615,
      "à°¯à°¨à°Ń": 3616,
      "à°°à°®à°¶": 3617,
      "à°¹à°¦à°ªà°¡": 3618,
      "à°¯à°ķà°³": 3619,
      "Ġover": 3620,
      "à°¦à°°à°°": 3621,
      "à°¦à°°à°Ĺ": 3622,
      "int": 3623,
      "ons": 3624,
      "à°¦à°²à°µ": 3625,
      "à°¦à°²à°ļ": 3626,
      "à°¦à°²à°ªà°²": 3627,
      "Ġ315": 3628,
      "Ġ317": 3629,
      "Ġ311": 3630,
      "à°Ĥ.)": 3631,
      "Ġà°¸à°¹à°µ": 3632,
      "Ġà°¸à°¹à°¸": 3633,
      "à°°à°µà°¨": 3634,
      "à°°à°µà°ķ": 3635,
      "à°µà°¤à°²à°ķ": 3636,
      "Ġà°ķà°²à°°": 3637,
      "Ġà°ķà°²à°ª": 3638,
      "à°¯à°¤à°¤": 3639,
      "à°°à°¸à°µ": 3640,
      "Ġà°īà°ªà°¸": 3641,
      "Ġsta": 3642,
      "Ġsome": 3643,
      "Ġ419": 3644,
      "Ġ495": 3645,
      "Ġà°ħà°µà°¤à°°": 3646,
      "Ġà°ħà°µà°¯à°µ": 3647,
      "Ġ700": 3648,
      "à°Ĺà°£à°¨à°²": 3649,
      "Ġà°ħà°²à°¹": 3650,
      "Ġput": 3651,
      "Ġpain": 3652,
      "Ġà°µà°°à°°": 3653,
      "Ġbro": 3654,
      "Ġblow": 3655,
      "Ġwhom": 3656,
      "Ġco": 3657,
      "Ġcourse": 3658,
      "Ġà°ħà°¯à°¸": 3659,
      "à°¸à°¨à°®": 3660,
      "à°¸à°¨à°¹à°³": 3661,
      "Ġà°ķà°¨à°ķ": 3662,
      "Ġanim": 3663,
      "à°ªà°°à°ļà°¬à°¡": 3664,
      "Ġfear": 3665,
      "hat": 3666,
      "Ġà°Ĺà°£à°¤": 3667,
      "Ġà°ħà°°à°Ł": 3668,
      "tioned": 3669,
      "oring": 3670,
      "à°¤à°®à°®": 3671,
      "Ġ62": 3672,
      "Ġ615": 3673,
      "Ġ635": 3674,
      "Ġinf": 3675,
      "Ġins": 3676,
      "à°µà°¯à°¸": 3677,
      "Ġà°§à°¨à°µ": 3678,
      "Ġdur": 3679,
      "Ġdanger": 3680,
      "à°ªà°¡à°Ĺ": 3681,
      "ane": 3682,
      "à°¦à°Łà°Ĺ": 3683,
      "Ġà°Ķà°°à°µ": 3684,
      "use": 3685,
      "usand": 3686,
      "eding": 3687,
      "Ġ183": 3688,
      "Ġ184": 3689,
      "Ġ186": 3690,
      "Ġ1896": 3691,
      "Ġ1887": 3692,
      "1914": 3693,
      "1941": 3694,
      "1989": 3695,
      "1986": 3696,
      "à°¤à°ķà°¦": 3697,
      "à°ķà°°à°£à°¨": 3698,
      "Ġ112": 3699,
      "lled": 3700,
      "Ġà°ĵà°·": 3701,
      "à°°à°¹à°°": 3702,
      "à°°à°¹à°£": 3703,
      "Ġhor": 3704,
      "Ġhuman": 3705,
      "ung": 3706,
      "Ġ99": 3707,
      "Ġ155": 3708,
      "Ġ1500": 3709,
      "ĠAttemp": 3710,
      "à°Ĩà°¤": 3711,
      "à°Ĩà°¯à°¨": 3712,
      "2020": 3713,
      "2012": 3714,
      "2017": 3715,
      "2013": 3716,
      "2014": 3717,
      "Ġforced": 3718,
      "Ġà°ĺà°¡": 3719,
      "Ġà°ĺà°ľà°¨": 3720,
      "Ġà°ĺà°Łà°¨": 3721,
      "Ġ173": 3722,
      "Ġ177": 3723,
      "Ġ178": 3724,
      "Ġ127": 3725,
      "Ġ160": 3726,
      "Ġ161": 3727,
      "Ġ162": 3728,
      "Ġ165": 3729,
      "Ġ169": 3730,
      "Ġ140": 3731,
      "Ġ143": 3732,
      "à°®à°ķà°®": 3733,
      "à°ĩà°¸": 3734,
      "Ġ135": 3735,
      "Ġ136": 3736,
      "ayst": 3737,
      "à°¯à°£à°¸": 3738,
      "à°°à°ļà°¯": 3739,
      "à°ļà°²à°ªà°²": 3740,
      "Ġà°ªà°¡à°¡": 3741,
      "Ġà°ªà°¡à°®à°°": 3742,
      "Ġ577": 3743,
      "Ġgro": 3744,
      "à°ªà°¨à°ªà°²": 3745,
      "à°¯à°ªà°°à°®": 3746,
      "ited": 3747,
      "ĠSi": 3748,
      "ret": 3749,
      "reat": 3750,
      "Ġ580": 3751,
      "sew": 3752,
      "section": 3753,
      "185": 3754,
      "Ġconceal": 3755,
      "Ġ222": 3756,
      "Ġ234": 3757,
      "Ġ241": 3758,
      "Ġ242": 3759,
      "Ġ249": 3760,
      "Ġà°®à°²à°¬": 3761,
      "Ġ592": 3762,
      "Ġ370": 3763,
      "Ġ374": 3764,
      "Ġ378": 3765,
      "ĠHome": 3766,
      "à°¡à°Ĺà°Ł": 3767,
      "167": 3768,
      "Ġ264": 3769,
      "Ġ268": 3770,
      "Ġ403": 3771,
      "à°¨à°¡à°ķà°¨": 3772,
      "à°Ľà°¨": 3773,
      "à°Ľà°®": 3774,
      "Ġunlawful": 3775,
      "à°¢à°ļ": 3776,
      "à°Ĺà°³à°µ": 3777,
      "Ġà°ıà°ķà°µà°ļà°¨": 3778,
      "ection": 3779,
      "Ġà°¦à°¶à°°à°¥": 3780,
      "Ġ335": 3781,
      "ĠBD": 3782,
      "ĠBCCI": 3783,
      "ube": 3784,
      "à±ģ\",": 3785,
      "à±ģ\".": 3786,
      "Ġ298": 3787,
      "ĠMS": 3788,
      "Ġoffici": 3789,
      "à¤°": 3790,
      "à°īà°·": 3791,
      "Ġonly": 3792,
      "Ġnor": 3793,
      "à±į',": 3794,
      "Ġred": 3795,
      "Ġà°Ĺà°¡à°ļ": 3796,
      "Ġsecret": 3797,
      "playst": 3798,
      "Ġ448": 3799,
      "Ġ462": 3800,
      "Ġ465": 3801,
      "Ġ451": 3802,
      "2003": 3803,
      "Ġà°ĭà°¤": 3804,
      "Ġdisease": 3805,
      "ĠNational": 3806,
      "ĠWBC": 3807,
      "Ġà°µà°²à°¸à°ª": 3808,
      "Ġintended": 3809,
      "Ġline": 3810,
      "Ġless": 3811,
      "Ġà°®à°ķà°°à°ľ": 3812,
      "Ġà°Ńà°°à°¤à°¨": 3813,
      "à±įâĢį,": 3814,
      "à°±à°ķ": 3815,
      "perin": 3816,
      "Ġà°ħà°µà°¸à°°à°®à°¯": 3817,
      "Ġbody": 3818,
      "agement": 3819,
      "ĠUS": 3820,
      "Ġenti": 3821,
      "Ġmanagement": 3822,
      "Ġabducting": 3823,
      "Ġpreparation": 3824,
      "à°¯à°Łà°¨à°ķ": 3825,
      "Ġfire": 3826,
      "Ġobstru": 3827,
      "à°«à°²à°®à°¯": 3828,
      "Ġcare": 3829,
      "Ġpassion": 3830,
      "ĠProvocation": 3831,
      "lower": 3832,
      "à°ķà°Łà°°à°®à°£": 3833,
      "Ġguardian": 3834,
      "Ġ{\\": 3835,
      "Ġthough": 3836,
      "Ġthousand": 3837,
      "Ġpowers": 3838,
      "strument": 3839,
      "Ġdisposing": 3840,
      "Ġdisposed": 3841,
      "ilit": 3842,
      "ook": 3843,
      "Ġroad": 3844,
      "Ġbuys": 3845,
      "ĠStates": 3846,
      "ĠINS": 3847,
      "Ġrestrains": 3848,
      "Ġfollow": 3849,
      "Ġlabour": 3850,
      "ĠGovt": 3851,
      "Ajnala": 3852,
      "Ġapp": 3853,
      "Ġseduced": 3854,
      "Ġweap": 3855,
      "Ġfires": 3856,
      "Ġimm": 3857,
      "Ġgesture": 3858,
      "Ġpremedit": 3859,
      "Ġmentioned": 3860,
      "Ġ','": 3861,
      "displayst": 3862,
      "youtube": 3863,
      "Ġstaff": 3864,
      "Ġanimal": 3865,
      "Ġduring": 3866,
      "Ġofficial": 3867,
      "displaystyle": 3868,
      "')": 3869,
      "120": 3870,
      "110": 3871,
      "2000": 3872,
      "300": 3873,
      "600": 3874,
      "AR": 3875,
      "AT": 3876,
      "BS": 3877,
      "CO": 3878,
      "CT": 3879,
      "Cha": 3880,
      "Car": 3881,
      "CAG": 3882,
      "HD": 3883,
      "HS": 3884,
      "Htt": 3885,
      "IM": 3886,
      "IS": 3887,
      "In": 3888,
      "JP": 3889,
      "NA": 3890,
      "TC": 3891,
      "TM": 3892,
      "ae": 3893,
      "ati": 3894,
      "ali": 3895,
      "aid": 3896,
      "ast": 3897,
      "be": 3898,
      "bing": 3899,
      "bid": 3900,
      "band": 3901,
      "cing": 3902,
      "cul": 3903,
      "des": 3904,
      "either": 3905,
      "ets": 3906,
      "fthly": 3907,
      "go": 3908,
      "hy": 3909,
      "ifthly": 3910,
      "lu": 3911,
      "les": 3912,
      "mar": 3913,
      "mas": 3914,
      "mity": 3915,
      "og": 3916,
      "ove": 3917,
      "offic": 3918,
      "pha": 3919,
      "ple": 3920,
      "su": 3921,
      "ug": 3922,
      "ught": 3923,
      "vi": 3924,
      "ved": 3925,
      "who": 3926,
      "wat": 3927,
      "xthly": 3928,
      "ÙĨ": 3929,
      "à¯": 3930,
      "ĠâĢĮ": 3931,
      "Ġ.-": 3932,
      "ĢÕ¡Õ": 3933,
      "ĪĴ": 3934,
      "à±įâĢĻ": 3935,
      "à°¿(": 3936,
      "à°¾'": 3937,
      "à°¾à°ģ": 3938,
      "à°°à°¸à°°": 3939,
      "à°°à°ľà°¨": 3940,
      "à°°à°Ĺà°¨": 3941,
      "à°°à°ĺà°Ł": 3942,
      "à±ģà°ĥ": 3943,
      "à°²à°Ĺà°²": 3944,
      "à°²à°ªà°Ł": 3945,
      "à°²à°µà°²à°¸": 3946,
      "à°¨à°ªà°²": 3947,
      "à°¨à°ĺà°Ł": 3948,
      "à°ķà°Ń": 3949,
      "à°ķà°Ĺà°²": 3950,
      "à°ķà°¤à°ķ": 3951,
      "à°ķà°¥à°²": 3952,
      "à±ĭ'": 3953,
      "à±ĭ:": 3954,
      "à°¦à°¬à°¡": 3955,
      "à°¦à°²à°¨": 3956,
      "à°¦à°°à°®": 3957,
      "à°¦à°¸à°°": 3958,
      "à°¤à°®à°¨": 3959,
      "à°¤à°µà°¯à°¸": 3960,
      "à°®à°³": 3961,
      "à°®à°ł": 3962,
      "à°®à°°à°¸": 3963,
      "à°®à°²à°¤": 3964,
      "à°®à°²à°®": 3965,
      "à°¡à°ļ": 3966,
      "à°Łà°ļ": 3967,
      "à°Łà°¨à°°": 3968,
      "à°Łà°Ĺà°²": 3969,
      "à°Łà°µà°¶": 3970,
      "Ġà°ªà°§à°ķ": 3971,
      "à±ĩ!": 3972,
      "à±ĩ..": 3973,
      "à±ĩ\",": 3974,
      "à°¸à°ªà°¤": 3975,
      "Ġà°ķà°ķ": 3976,
      "Ġà°ķà°°à°ķ": 3977,
      "Ġà°ķà°°à°®": 3978,
      "Ġà°ķà°ľà°ķ": 3979,
      "Ġà°ķà°ľà°Ĺ": 3980,
      "à°Ĺà°¶": 3981,
      "à°Ĺà°ķà°°": 3982,
      "à°Ĺà°¬à°¡": 3983,
      "à°Ĺà°²à°µ": 3984,
      "Ġà°¸à°ļ": 3985,
      "Ġà°¸à°«à°²": 3986,
      "à°¿.?": 3987,
      "à°ªà°µà°°": 3988,
      "à°ªà°µà°ļ": 3989,
      "à°ªà°¡à°µà°ļ": 3990,
      "à°ªà°ĩà°¤à°°": 3991,
      "Ġà°µà°Ł": 3992,
      "à±Ĩ-": 3993,
      "à±Ĥ'": 3994,
      "Ġà°¨à°ª": 3995,
      "Ġà°¨à°ļ": 3996,
      "Ġà°Ĺà°¯": 3997,
      "Ġà°īà°¬": 3998,
      "Ġà°īà°¡à°¯": 3999,
      "Ġà°®à°¨à°²": 4000,
      "Ġà°®à°¨à°®": 4001,
      "à°ļà°²à°¨": 4002,
      "à°ļà°¦à°Ĺ": 4003,
      "à°ļà°¯à°®à°¯": 4004,
      "Ġà°ħà°³": 4005,
      "Ġà°ħà°Ĺà°°": 4006,
      "à°¬à°ľ": 4007,
      "à°¶à°µà°°": 4008,
      "à°¶à°¨à°¨": 4009,
      "à°¶à°°à°¥": 4010,
      "à°£à°¬": 4011,
      "à°£à°ľ": 4012,
      "Ġà°Ĩà°¤à°¨": 4013,
      "à°ľà°Ł": 4014,
      "à°ľà°¯à°ķ": 4015,
      "à°ľà°¯à°°": 4016,
      "à°·à°µ": 4017,
      "à°·à°²à°®": 4018,
      "Ġà°ľà°¤": 4019,
      "Ġà°ľà°«à°°": 4020,
      "Ġà°ľà°¯à°¶": 4021,
      "Ġà°ļà°ļ": 4022,
      "à±Ĭ.": 4023,
      "Ġà°²à°Ĺ": 4024,
      "Ġà°²à°ĸ": 4025,
      "à°§à°Ĺ": 4026,
      "à°§à°®à°¨": 4027,
      "Ġà°¤à°¥": 4028,
      "Ġà°¤à°²à°¨": 4029,
      "à°¹à°¯": 4030,
      "à°¹à°Ń": 4031,
      "à°¹à°¨à°¨": 4032,
      "à°¹à°°à°£à°²": 4033,
      "Ġà°¬à°«à°°": 4034,
      "à±Ģ.,": 4035,
      "à°Ńà°¤": 4036,
      "à°Ńà°Ł": 4037,
      "à°Ńà°°à°£à°®": 4038,
      "Ġà°ĩà°¥": 4039,
      "âĢĶ": 4040,
      "à°³à°²à°ķ": 4041,
      "à°³à°µà°ļ": 4042,
      "à°¾à°Ĥ.": 4043,
      "Ġ107": 4044,
      "Ġ109": 4045,
      "Ġ514": 4046,
      "Ġ542": 4047,
      "Ġà°¶à°°à°¤": 4048,
      "Ġà°Ńà°Ĺà°µà°¤": 4049,
      "Ġà°Ĵà°¬à°°": 4050,
      "Ġà°İà°ľ": 4051,
      "Ġà°Īà°ķ": 4052,
      "à°²à°²à°¤": 4053,
      "à°²à°²à°ª": 4054,
      "à°²à°¨à°Ł": 4055,
      "Ġà°Ĵà°ķà°¨": 4056,
      "Ġà°¹à°¯à°¸": 4057,
      "à°ªà°¤à°®": 4058,
      "à°°à°ķà°²": 4059,
      "Ġà°Łà°¬": 4060,
      "Ġ203": 4061,
      "Ġà°¸à°°à°³": 4062,
      "à°łà°Ń": 4063,
      "à°łà°Ńà°°": 4064,
      "Ġà°«à°²à°ķ": 4065,
      "Ġà°¯à°ķ": 4066,
      "Ġà°¯à°¶": 4067,
      "Ġà°¯à°¡à°µà°²": 4068,
      "à°¤à°¨à°ķ": 4069,
      "à°¤à°¨à°²à°¨": 4070,
      "Ġ192": 4071,
      "à°¡à°²à°°": 4072,
      "à°¡à°²à°¤": 4073,
      "Ġà°ľà°°à°Ĺà°¡": 4074,
      "à°°à°£à°¨": 4075,
      "à°¯à°¨à°Ł": 4076,
      "à°°à°®à°ķ": 4077,
      "à°°à°®à°µ": 4078,
      "Ġtri": 4079,
      "Ġtra": 4080,
      "Ġtime": 4081,
      "à°²à°ķà°¡": 4082,
      "à°²à°ķà°£": 4083,
      "à°¯à°ķà°ª": 4084,
      "Ġall": 4085,
      "Ġafor": 4086,
      "eren": 4087,
      "Ġ320": 4088,
      "Ġ318": 4089,
      "Ġ310": 4090,
      "Ġ324": 4091,
      "Ġ325": 4092,
      "Ġ322": 4093,
      "Ġ328": 4094,
      "Ġ396": 4095,
      "Ġ397": 4096,
      "Ġ321": 4097,
      "Ġ329": 4098,
      "Ġ398": 4099,
      "Ġ391": 4100,
      "à°Ĥ.\"": 4101,
      "Ġà°¸à°¹à°ľà°µ": 4102,
      "Ġà°¤à°°à°¬à°¡": 4103,
      "Ġà°·à°¬": 4104,
      "à°µà°¤à°ķ": 4105,
      "à°·à°£à°Ĺ": 4106,
      "Ġà°İà°ķà°¨à°®": 4107,
      "à°İà°¡": 4108,
      "à°ľà°¨à°²": 4109,
      "à°ľà°¨à°ķ": 4110,
      "Ġà°īà°ªà°ķà°°à°£": 4111,
      "à°Ĺà°£à°®": 4112,
      "Ġà°Ĩà°®à°¦": 4113,
      "Ġà°®à°¹à°²": 4114,
      "Ġsent": 4115,
      "Ġsit": 4116,
      "Ġste": 4117,
      "Ġ4000": 4118,
      "Ġ410": 4119,
      "Ġ413": 4120,
      "Ġ496": 4121,
      "Ġ421": 4122,
      "Ġ429": 4123,
      "Ġ475": 4124,
      "Ġ499": 4125,
      "hes": 4126,
      "Ġà°ħà°µà°¡": 4127,
      "Ġ750": 4128,
      "à°¬à°°à°²": 4129,
      "Ġbus": 4130,
      "Ġborn": 4131,
      "Ġwhere": 4132,
      "Ġcan": 4133,
      "Ġcla": 4134,
      "Ġcount": 4135,
      "isos": 4136,
      "Ġà°®à°°à°£à°¶": 4137,
      "Ġà°ªà°¦à°ķ": 4138,
      "Ġà°ħà°¸à°¤": 4139,
      "Ġà°ħà°¸à°®": 4140,
      "tia": 4141,
      "à°ļà°¬à°¡à°Ł": 4142,
      "Ġà°ĸà°¡": 4143,
      "Ġà°ĸà°Ł": 4144,
      "à°®à°¨à°¸": 4145,
      "Ġà°ķà°¨à°¬à°°": 4146,
      "Ġfri": 4147,
      "Ġfac": 4148,
      "Ġfolk": 4149,
      "hale": 4150,
      "Ġà°ħà°°à°ļ": 4151,
      "oral": 4152,
      "esaid": 4153,
      "à°¯à°²à°Ĺ": 4154,
      "Ġ694": 4155,
      "Ġ682": 4156,
      "Ġ850": 4157,
      "Ġinstrument": 4158,
      "Ġinhale": 4159,
      "ingh": 4160,
      "Ġà°ħà°§à°°": 4161,
      "Ġà°Ĩà°Łà°¤": 4162,
      "Ġà°§à°¨à°¯": 4163,
      "Ġà°µà°ļà°¨": 4164,
      "à°Ĺà°µà°ļ": 4165,
      "Ġmph": 4166,
      "Ġmarriage": 4167,
      "usband": 4168,
      "à°®à°°à°²": 4169,
      "edi": 4170,
      "à°¯à°ķà°°à°®": 4171,
      "Ġ181": 4172,
      "Ġ182": 4173,
      "Ġ189": 4174,
      "Ġ1894": 4175,
      "Ġ1893": 4176,
      "Ġ1895": 4177,
      "Ġ1862": 4178,
      "Ġ1864": 4179,
      "190": 4180,
      "1940": 4181,
      "1957": 4182,
      "1939": 4183,
      "1947": 4184,
      "1938": 4185,
      "1994": 4186,
      "1948": 4187,
      "1991": 4188,
      "1993": 4189,
      "1943": 4190,
      "1960": 4191,
      "à°¤à°ķà°®": 4192,
      "à°¤à°ķà°³": 4193,
      "Ġà°īà°¦à°¯à°ª": 4194,
      "Ġà°Ĳà°¨": 4195,
      "Ġà°Ĳà°¤": 4196,
      "Ġbefore": 4197,
      "ark": 4198,
      "Ġhusband": 4199,
      "une": 4200,
      "Ġ92": 4201,
      "Ġ98": 4202,
      "Ġ900": 4203,
      "Ġ926": 4204,
      "Ġ993": 4205,
      "à°²à°®à°Ł": 4206,
      "à°ħà°Ń": 4207,
      "à°ħà°¨à°Ĺ": 4208,
      "Ġ151": 4209,
      "Ġ154": 4210,
      "ĠAb": 4211,
      "à°Ĩà°¦": 4212,
      "à°Ĩà°ªà°°": 4213,
      "enter": 4214,
      "2018": 4215,
      "2024": 4216,
      ".-\"": 4217,
      "Ġà°ĺà°¨à°ªà°°": 4218,
      "Ġ175": 4219,
      "Ġ1700": 4220,
      "Ġ1775": 4221,
      "live": 4222,
      "Ġ123": 4223,
      "Ġibid": 4224,
      "Ġ168": 4225,
      "hicles": 4226,
      "Ġà°Ĩà°¡à°¡": 4227,
      "Ġà°®à°¨à°µà°°": 4228,
      "Ġ144": 4229,
      "Ġ145": 4230,
      "Ġ146": 4231,
      "Ġ148": 4232,
      "alpha": 4233,
      "Ġ08": 4234,
      "Ġà°ªà°²à°®à°¨": 4235,
      "à±į).": 4236,
      "à°ĩà°°": 4237,
      "à°ĩà°¨": 4238,
      "à°ĩà°Ł": 4239,
      "à°¨à°ķà°ª": 4240,
      "Ġ131": 4241,
      "Ġ134": 4242,
      "Ġ137": 4243,
      "à°²à°Ĺà°µà°²à°¸à°²": 4244,
      "Ġ502": 4245,
      "Ġ5015": 4246,
      "Ġ5043": 4247,
      "Ġ5082": 4248,
      "Ġà°¤à°²à°¦": 4249,
      "Ġà°¤à°²à°ªà°¡à°Ĺ": 4250,
      "Ġà°ªà°¡à°ķ": 4251,
      "Ġà°ªà°¡à°µà°²": 4252,
      "à°ľà°¯à°²à°ķ": 4253,
      "Ġà°ķà°¥à°²à°¤": 4254,
      "Ġdemand": 4255,
      "Ġdeem": 4256,
      "Ġdetains": 4257,
      "Ġà°¨à°²à°¬": 4258,
      "Ġ302": 4259,
      "Ġ303": 4260,
      "Ġ305": 4261,
      "Ġ306": 4262,
      "ĠSingh": 4263,
      "à°§à°¨à°²à°¨": 4264,
      "à°§à°¨à°²à°ķ": 4265,
      "Ġ252": 4266,
      "Ġ259": 4267,
      "Ġ588": 4268,
      "Ġ5825": 4269,
      "à°ªà°ķà°³": 4270,
      "182": 4271,
      "Ġlimit": 4272,
      "Ġ226": 4273,
      "Ġkm": 4274,
      "Ġkn": 4275,
      "108": 4276,
      "Ġà°ªà°¤à°ªà°¦": 4277,
      "mple": 4278,
      "tendent": 4279,
      "à°°à°Ĺà°Ł": 4280,
      "Ġproce": 4281,
      "ather": 4282,
      "Ġ244": 4283,
      "rades": 4284,
      "Ġ280": 4285,
      "ating": 4286,
      "Ġà°¨à°¡à°ķ": 4287,
      "Ġà°¬à°²à°ªà°¡": 4288,
      "Ġ5926": 4289,
      "ute": 4290,
      "ĠHTT": 4291,
      "ĠHook": 4292,
      "Ġ265": 4293,
      "Ġthus": 4294,
      "Ġ405": 4295,
      "Ġ407": 4296,
      "130": 4297,
      "232": 4298,
      "Ġunso": 4299,
      "Ġunwho": 4300,
      "à°Ĺà°³à°°": 4301,
      "Ġ362": 4302,
      "Ġ363": 4303,
      "Ġ368": 4304,
      "à°Ĳà°Ĳ": 4305,
      "à°®à°¯à°ªà°²": 4306,
      "Ġà°¦à°¶à°²à°²": 4307,
      "Ġ330": 4308,
      "Ġ331": 4309,
      "ĠBut": 4310,
      "ĠBJP": 4311,
      "247": 4312,
      "à±ģ:-": 4313,
      "Ġ293": 4314,
      "Ġ296": 4315,
      "ĠMost": 4316,
      "therland": 4317,
      "227": 4318,
      "Ġ351": 4319,
      "Ġ352": 4320,
      "Ġ357": 4321,
      "à¤²": 4322,
      "à¤¿": 4323,
      "à¤Ĥ": 4324,
      "à¤Ĺ": 4325,
      "ĠThis": 4326,
      "à°īà°²": 4327,
      "ghten": 4328,
      "Ġneither": 4329,
      "Ġà°İà°¡à°µà°²": 4330,
      "Ġ432": 4331,
      "Ġ433": 4332,
      "Ġ437": 4333,
      "Ġ439": 4334,
      "Ġknown": 4335,
      "à°°à°®à°£à°²": 4336,
      "Ġ345": 4337,
      "ĠCo": 4338,
      "ĠCAG": 4339,
      "Ġcommitting": 4340,
      "à°²à°¬à°¸": 4341,
      "à°²à°Ńà°ª": 4342,
      "977": 4343,
      "ourthly": 4344,
      "Ġà°Ĩà°ļà°°à°£": 4345,
      "Ġ1902": 4346,
      "Ġ1906": 4347,
      "Ġ1909": 4348,
      "Ġ466": 4349,
      "Ġrem": 4350,
      "Ġreas": 4351,
      "Ġrelati": 4352,
      "Ġ607": 4353,
      "sive": 4354,
      "2001": 4355,
      "2004": 4356,
      "2006": 4357,
      "2009": 4358,
      "Ġà°ĭà°Ĺ": 4359,
      "amu": 4360,
      "Ġmember": 4361,
      "ĠFifthly": 4362,
      "ĠFourthly": 4363,
      "Ġabets": 4364,
      "Ġ381": 4365,
      "Ġboar": 4366,
      "Ġà°Ĺà°µà°°à°µà°°": 4367,
      "à±ĭ):": 4368,
      "Ġlo": 4369,
      "ĠDVDà°²": 4370,
      "ĠDVDà°¨": 4371,
      "Ġà°®à°ķà°°à°°": 4372,
      "Ġà°®à°ķà°°à°µ": 4373,
      "Ġstri": 4374,
      "Ġstupe": 4375,
      "Ġinjure": 4376,
      "Ġtwel": 4377,
      "Ġsuffici": 4378,
      "ĠUK": 4379,
      "à°ĺà°Łà°¨à°¨": 4380,
      "à°ĺà°Łà°¨à°²à°¨": 4381,
      "Ġwrongful": 4382,
      "Ġriding": 4383,
      "Ġà°ķà°£à°ľ": 4384,
      "Ġà°°à°ľà°¤": 4385,
      "Ġpres": 4386,
      "Ġkidnapping": 4387,
      "Ġkidnapped": 4388,
      "tained": 4389,
      "Ġadmin": 4390,
      "à°ļà°°à°£à°¨": 4391,
      "Ġface": 4392,
      "Ġprovisos": 4393,
      "à°ªà°¹à°°à°£": 4394,
      "phy": 4395,
      "Ġcarri": 4396,
      "Ġcircle": 4397,
      "Ġ50825": 4398,
      "Ġ50940": 4399,
      "ĠProcur": 4400,
      "Ġattempts": 4401,
      "cks": 4402,
      "Ġprivation": 4403,
      "aceae": 4404,
      "Ġsix": 4405,
      "Ġsimple": 4406,
      "Ġmiscarriage": 4407,
      "ssical": 4408,
      "Ġspeci": 4409,
      "uthor": 4410,
      "ĠÙħ": 4411,
      "Ġsubjected": 4412,
      "Ġannoyance": 4413,
      "fying": 4414,
      "Ġmight": 4415,
      "Ġhttp": 4416,
      "Ġexcuse": 4417,
      "Ġkeeping": 4418,
      "Ġhereinbe": 4419,
      "mathbf": 4420,
      "Ġlast": 4421,
      "à°Ĩà°Ĺà°·": 4422,
      "à°ľà°¯à°¦à°¶à°®": 4423,
      "ermanent": 4424,
      "Ġreceiv": 4425,
      "Ġdisfigure": 4426,
      "ĠNetherland": 4427,
      "Ġmaiming": 4428,
      "ext": 4429,
      "Ġvehicles": 4430,
      "Ġhorsew": 4431,
      "Ġgroup": 4432,
      "ĠSixthly": 4433,
      "Ġà°¦à°¶à°°à°¥à°°": 4434,
      "perintendent": 4435,
      "Ġentices": 4436,
      "ilitate": 4437,
      "Ġfollowing": 4438,
      "Ġappre": 4439,
      "Ġimmoral": 4440,
      "Ġpremeditation": 4441,
      "lesome": 4442,
      "officer": 4443,
      "Ġà°ħà°³à°Ĺà°°": 4444,
      "Ġtraffic": 4445,
      "Ġaforesaid": 4446,
      "Ġsentence": 4447,
      "Ġfrighten": 4448,
      "Ġfacilitate": 4449,
      "Ġdeemed": 4450,
      "radesh": 4451,
      "ĠHooker": 4452,
      "Ġunsound": 4453,
      "Ġunwholesome": 4454,
      "Ġstupefying": 4455,
      "Ġtwelve": 4456,
      "Ġsufficient": 4457,
      "ĠProcuration": 4458,
      "Ġhereinbefore": 4459,
      "ĠNetherlands": 4460,
      "Ġhorsewhip": 4461,
      "\")": 4462,
      "\"/": 4463,
      ")'": 4464,
      ".\"": 4465,
      ".)": 4466,
      "119": 4467,
      "118": 4468,
      "117": 4469,
      "212": 4470,
      "640": 4471,
      "800": 4472,
      "810": 4473,
      ":-": 4474,
      "=\"": 4475,
      "BO": 4476,
      "By": 4477,
      "Bha": 4478,
      "CS": 4479,
      "Chi": 4480,
      "DL": 4481,
      "EG": 4482,
      "Ex": 4483,
      "GB": 4484,
      "Ii": 4485,
      "IFA": 4486,
      "KA": 4487,
      "Kath": 4488,
      "LO": 4489,
      "Lo": 4490,
      "MA": 4491,
      "Mat": 4492,
      "ND": 4493,
      "OSM": 4494,
      "PAN": 4495,
      "Permanent": 4496,
      "RA": 4497,
      "SC": 4498,
      "SP": 4499,
      "Sath": 4500,
      "That": 4501,
      "US": 4502,
      "When": 4503,
      "].": 4504,
      "ahi": 4505,
      "after": 4506,
      "bi": 4507,
      "born": 4508,
      "box": 4509,
      "cin": 4510,
      "cal": 4511,
      "dom": 4512,
      "dra": 4513,
      "dic": 4514,
      "dhra": 4515,
      "ey": 4516,
      "een": 4517,
      "ech": 4518,
      "eign": 4519,
      "ellow": 4520,
      "fo": 4521,
      "her": 4522,
      "iti": 4523,
      "iri": 4524,
      "ild": 4525,
      "iala": 4526,
      "iol": 4527,
      "kha": 4528,
      "kes": 4529,
      "lation": 4530,
      "line": 4531,
      "long": 4532,
      "less": 4533,
      "ma": 4534,
      "my": 4535,
      "mer": 4536,
      "mab": 4537,
      "mow": 4538,
      "mate": 4539,
      "ness": 4540,
      "national": 4541,
      "op": 4542,
      "outh": 4543,
      "tection": 4544,
      "uated": 4545,
      "vided": 4546,
      "wa": 4547,
      "ws": 4548,
      "war": 4549,
      "way": 4550,
      "xic": 4551,
      "yon": 4552,
      "ying": 4553,
      "||": 4554,
      "Äģ": 4555,
      "Õ¿": 4556,
      "ÕĢÕ¡Õ": 4557,
      "Ø²": 4558,
      "ÙĦ": 4559,
      "Ġ}": 4560,
      "Ġ000": 4561,
      "Ġest": 4562,
      "Ġà¨": 4563,
      "à°Ĭ": 4564,
      "Ġà°Ĥ": 4565,
      "à±į*": 4566,
      "à±įà°Ĥ": 4567,
      "à°¿âĢĻ": 4568,
      "à°¾(": 4569,
      "à°¾',": 4570,
      "à°°à°ĺ": 4571,
      "à°°à°¯à°²": 4572,
      "à°Ĥ!": 4573,
      "à°²à°ķà°°": 4574,
      "à°²à°¦à°¨": 4575,
      "à°¨à°ľ": 4576,
      "à°¨à°µà°¸": 4577,
      "à°¨à°¨à°²": 4578,
      "à°¨à°§à°ª": 4579,
      "à°ķà°¹": 4580,
      "à°¯à°¬à°¦": 4581,
      "à°¯à°µà°²à°¸à°²": 4582,
      "à±ĭ;": 4583,
      "à°¦à°²à°²": 4584,
      "à°¦à°Ĺà°²": 4585,
      "à°¦à°¨à°¤": 4586,
      "à°¦à°ªà°¡": 4587,
      "à°¦à°¯à°¸": 4588,
      "à°¦à°µà°ļ": 4589,
      "à°¦à°ľà°²": 4590,
      "à°¦à°¬à°¦": 4591,
      "à°¤à°²à°¤": 4592,
      "à°¤à°¤à°²": 4593,
      "à°¤à°µà°²à°¸": 4594,
      "à°®à°¡à°²": 4595,
      "à°®à°°à°£": 4596,
      "à°®à°²à°¯": 4597,
      "à°®à°µà°¤": 4598,
      "à°®à°ªà°ķ": 4599,
      "à°®à°µà°²à°¸": 4600,
      "à°¡à°Ĺà°²": 4601,
      "à°¡à°Łà°®": 4602,
      "à°µà°ªà°°": 4603,
      "à°µà°¦à°¨": 4604,
      "à°µà°µà°²à°¸": 4605,
      "à°µà°ľà°¸": 4606,
      "à°µà°¤à°°à°Ĺà°¤": 4607,
      "à°Łà°¨à°µ": 4608,
      "à°Łà°Ĺà°¦": 4609,
      "Ġà°ªà°¥à°®": 4610,
      "Ġà°ªà°Ĺà°²": 4611,
      "à±ĩ'": 4612,
      "à°¸à°¦": 4613,
      "à°¸à°Ĺà°Ł": 4614,
      "Ġà°ķà°ľ": 4615,
      "Ġà°ķà°µà°¯": 4616,
      "Ġà°ķà°²à°¨à°²": 4617,
      "à±ĢâĢĻ": 4618,
      "à°Ĺà°§": 4619,
      "à°Ĺà°¤à°¨": 4620,
      "à°Ĺà°¡à°ª": 4621,
      "Ġà°¸à°°à°ķ": 4622,
      "Ġà°¸à°Ĺà°°": 4623,
      "à°¿.\"": 4624,
      "à°ªà°ķà°°": 4625,
      "à°ªà°²à°¨": 4626,
      "à°ªà°µà°¨": 4627,
      "à°ªà°ªà°¬": 4628,
      "Ġà°µà°®": 4629,
      "Ġà°µà°¯à°¨": 4630,
      "Ġà°µà°²à°¯": 4631,
      "Ġà°µà°¡à°®": 4632,
      "Ġà°µà°±à°ķ": 4633,
      "à±Ĥ-": 4634,
      "à±Ĥ:": 4635,
      "à±Ĥ..": 4636,
      "Ġà°¨à°¹": 4637,
      "Ġà°¨à°³": 4638,
      "Ġà°¨à°Ĺà°¦": 4639,
      "Ġà°¨à°¡à°µà°¡": 4640,
      "Ġà°Ĺà°ļ": 4641,
      "Ġà°Ĺà°¡à°µ": 4642,
      "Ġà°Ĺà°ľà°²": 4643,
      "Ġà°®à°·": 4644,
      "Ġà°®à°¹à°¦": 4645,
      "Ġà°®à°°à°µ": 4646,
      "Ġà°®à°¤à°®": 4647,
      "à°ļà°°à°¤": 4648,
      "à°ļà°µà°°": 4649,
      "à°ļà°²à°ķ": 4650,
      "à°ļà°¯à°®": 4651,
      "à°ļà°µà°²": 4652,
      "à°ļà°¨à°®": 4653,
      "à°ļà°²à°®": 4654,
      "à°ļà°¯à°ª": 4655,
      "Ġà°ħà°°à°£": 4656,
      "Ġà°ħà°¯à°¨": 4657,
      "Ġà°¦à°²": 4658,
      "Ġà°¦à°¸": 4659,
      "à°¬à°²à°®": 4660,
      "à°¶à°µà°¸": 4661,
      "à°¶à°²à°²": 4662,
      "à°¶à°°à°£": 4663,
      "à°¶à°²à°ķ": 4664,
      "à°¶à°®à°¯": 4665,
      "à°¶à°¨à°®à°¯": 4666,
      "à°¶à°Ńà°ķ": 4667,
      "Ġà°°à°¬": 4668,
      "à°£à°Ĺ": 4669,
      "à°£à°ļ": 4670,
      "à°£à°¶à°ķ": 4671,
      "Ġà°Ĩà°°à°¤": 4672,
      "Ġà°Ĩà°«à°°": 4673,
      "Ġà°Ĩà°¸à°°": 4674,
      "Ġà°Ĩà°µà°¶": 4675,
      "à°·à°²à°¤": 4676,
      "Ġà°ľà°¯à°¤": 4677,
      "Ġà°ľà°²à°ª": 4678,
      "Ġà°ľà°Ĺà°¤": 4679,
      "Ġà°ľà°¯à°¦": 4680,
      "Ġà°²à°¡": 4681,
      "Ġà°²à°ľ": 4682,
      "Ġà°²à°¯à°¨": 4683,
      "à°§à°¶": 4684,
      "à°§à°µà°°": 4685,
      "Ġà°¤à°®à°°à°ªà°²": 4686,
      "à°¹à°¶": 4687,
      "à°¹à°°à°®": 4688,
      "à°¹à°¨à°°": 4689,
      "à°¹à°¨à°®": 4690,
      "Ġà°¬à°¬": 4691,
      "à°¥à°Ĺ": 4692,
      "à°¥à°¶": 4693,
      "à°¥à°ªà°²": 4694,
      "à°¥à°¨à°²": 4695,
      "à±Ģ.)": 4696,
      "à°Ńà°Ĺ": 4697,
      "à°Ńà°§": 4698,
      "à°Ńà°²à°¤": 4699,
      "Ġà°ĩà°µà°¨": 4700,
      "Ġà°ĩà°İà°¸": 4701,
      "âĢĭ": 4702,
      "à°³à°¯": 4703,
      "à°³à°ªà°¤": 4704,
      "à°ķà°°à°ķ": 4705,
      "à°Ĥ,,": 4706,
      "Ġ103": 4707,
      "Ġ104": 4708,
      "Ġ1018": 4709,
      "Ġ1030": 4710,
      "Ġ1056": 4711,
      "Ġ1071": 4712,
      "à°µà°¸à°°à°®": 4713,
      "Ġ518": 4714,
      "Ġ510": 4715,
      "Ġ515": 4716,
      "Ġ513": 4717,
      "Ġ511": 4718,
      "Ġ550": 4719,
      "Ġ538": 4720,
      "Ġ555": 4721,
      "Ġà°Ńà°ľà°¨": 4722,
      "Ġà°¸à°®à°¤": 4723,
      "Ġà°¸à°®à°¶": 4724,
      "à±Į,": 4725,
      "Ġ217": 4726,
      "Ġ211": 4727,
      "à°¬à°¡à°¤": 4728,
      "Ġà°Ĵà°¹": 4729,
      "à°°à°¤à°Ĺ": 4730,
      "à°°à°¤à°°à°¤": 4731,
      "Ġà°İà°²à°®": 4732,
      "Ġà°İà°²à°°": 4733,
      "Ġà°İà°Łà°ª": 4734,
      "Ġà°ħà°¨à°¨": 4735,
      "Ġà°ħà°¨à°¬": 4736,
      "Ġà°ħà°¨à°ªà°°": 4737,
      "à°ĸà°¡": 4738,
      "à°ĸà°Ń": 4739,
      "à°ĸà°°à°ª": 4740,
      "Ġà°¹à°¯à°¤": 4741,
      "Ġà°¹à°°à°ª": 4742,
      "à°µà°°à°ª": 4743,
      "à°µà°°à°ªà°²": 4744,
      "Ġà°¡à°ª": 4745,
      "à±į,,": 4746,
      "à°°à°ķà°¨": 4747,
      "à°°à°ķà°³à°²": 4748,
      "Ġà°Łà°®": 4749,
      "Ġà°Łà°¸": 4750,
      "Ġà°Łà°ª": 4751,
      "Ġ('": 4752,
      "Ġà°ľà°¨à°®": 4753,
      "Ġà°ıà°¡à°µ": 4754,
      "Ġà°ıà°ķà°ª": 4755,
      "Ġà°«à°¤": 4756,
      "Ġà°ķà°³à°²à°²": 4757,
      "Ġà°¯à°°": 4758,
      "Ġà°ªà°°à°ļ": 4759,
      "Ġà°ªà°°à°Ĺà°£": 4760,
      "Ġà°ªà°°à°ļà°¡": 4761,
      "Ġà°ªà°°à°µà°¶": 4762,
      "Ġà°ľà°°à°Ĺà°¬": 4763,
      "à°°à°£à°¬": 4764,
      "à°°à°£à°¯à°ķ": 4765,
      "à°¯à°¨à°ª": 4766,
      "à°¥à°®à°¨": 4767,
      "à°°à°®à°²à°ķ": 4768,
      "à°°à°®à°¬à°¦": 4769,
      "Ġtext": 4770,
      "à°²à°ķà°¨": 4771,
      "à°²à°ķà°Ł": 4772,
      "à°²à°ķà°ª": 4773,
      "à°¯à°ķà°µ": 4774,
      "à°¦à°°à°²": 4775,
      "ini": 4776,
      "inds": 4777,
      "Ġalive": 4778,
      "Ġauthor": 4779,
      "era": 4780,
      "onduct": 4781,
      "à°ķà°²à°®": 4782,
      "à°¦à°²à°ª": 4783,
      "Ġ326": 4784,
      "Ġ327": 4785,
      "Ġ395": 4786,
      "à°¨à°°à°ª": 4787,
      "Ġà°¸à°¹à°ľà°¸": 4788,
      "Ġà°¤à°°à°µ": 4789,
      "Ġà°·à°²": 4790,
      "à°°à°µà°®": 4791,
      "à°°à°µà°ª": 4792,
      "à°µà°¤à°²à°¨": 4793,
      "à°·à°£à°²à°²": 4794,
      "à°·à°£à°²à°¨": 4795,
      "Ġà°ķà°²à°¤": 4796,
      "Ġà°¤à°¨à°¤": 4797,
      "à°ªà°²à°ª": 4798,
      "à°İà°Ĺ": 4799,
      "à°İà°İ": 4800,
      "à°°à°¸à°¨à°²": 4801,
      "à°ĺà°µà°¯": 4802,
      "Ġà°īà°ªà°ľ": 4803,
      "Ġà°īà°ªà°ķà°°": 4804,
      "Ġà°īà°ªà°¨à°¦": 4805,
      "Ġsat": 4806,
      "Ġside": 4807,
      "Ġsong": 4808,
      "Ġsays": 4809,
      "Ġsna": 4810,
      "Ġ418": 4811,
      "Ġ423": 4812,
      "Ġ414": 4813,
      "Ġ450": 4814,
      "Ġ425": 4815,
      "Ġ422": 4816,
      "Ġ428": 4817,
      "Ġ426": 4818,
      "Ġ440": 4819,
      "Ġ490": 4820,
      "Ġ470": 4821,
      "Ġ498": 4822,
      "Ġ491": 4823,
      "Ġà°ħà°µà°¨": 4824,
      "Ġà°®à°°à°ļ": 4825,
      "Ġ758": 4826,
      "Ġ757": 4827,
      "Ġ794": 4828,
      "Ġ745": 4829,
      "Ġ784": 4830,
      "Ġ737": 4831,
      "Ġ771": 4832,
      "Ġ769": 4833,
      "Ġà°ħà°²à°°": 4834,
      "Ġà°ħà°²à°®": 4835,
      "à°Ĺà°²à°®à°°": 4836,
      "à°°à°§à°®": 4837,
      "Ġper": 4838,
      "Ġpal": 4839,
      "Ġpay": 4840,
      "Ġpos": 4841,
      "Ġpist": 4842,
      "à°¯à°¶à°°": 4843,
      "Ġà°ħà°®à°°à°ļ": 4844,
      "à°¨à°µà°Ĺ": 4845,
      "à°¨à°µà°ª": 4846,
      "à°¨à°µà°ļ": 4847,
      "Ġà°µà°°à°ª": 4848,
      "Ġblo": 4849,
      "Ġbring": 4850,
      "à°°à°ªà°¦": 4851,
      "à°°à°ªà°°à°ļ": 4852,
      "à°°à°ªà°¡à°Ł": 4853,
      "Ġwhoever": 4854,
      "Ġcro": 4855,
      "Ġclo": 4856,
      "ish": 4857,
      "isfy": 4858,
      "Ġà°ħà°ķà°¸": 4859,
      "à°ľà°ķà°¤": 4860,
      "Ġà°ħà°¸à°Ń": 4861,
      "Ġà°ħà°¸à°«": 4862,
      "tig": 4863,
      "tit": 4864,
      "008": 4865,
      "à°¨à°ªà°¡": 4866,
      "à°¨à°ªà°¡à°Ł": 4867,
      "Ġà°ĸà°¤": 4868,
      "Ġà°ĸà°ļ": 4869,
      "à°®à°¨à°Ĺ": 4870,
      "à°®à°¨à°Ĺà°°": 4871,
      "à°®à°¨à°ªà°²": 4872,
      "à°¦à°ķà°¦": 4873,
      "Ġthem": 4874,
      "Ġthey": 4875,
      "Ġtheir": 4876,
      "Ġfur": 4877,
      "Ġfee": 4878,
      "Ġfather": 4879,
      "Ġà°ħà°°à°Ĺ": 4880,
      "ors": 4881,
      "order": 4882,
      "ordin": 4883,
      "à°¤à°®à°Ĺ": 4884,
      "Ġ610": 4885,
      "Ġ640": 4886,
      "Ġ680": 4887,
      "Ġ667": 4888,
      "Ġ633": 4889,
      "Ġ677": 4890,
      "Ġ689": 4891,
      "Ġ8000": 4892,
      "Ġ810": 4893,
      "Ġ815": 4894,
      "Ġ830": 4895,
      "Ġ858": 4896,
      "Ġ857": 4897,
      "Ġ839": 4898,
      "Ġ866": 4899,
      "Ġ889": 4900,
      "Ġ876": 4901,
      "Ġinc": 4902,
      "Ġincl": 4903,
      "ingdom": 4904,
      "Ġà°Ĩà°Łà°¨": 4905,
      "Ġà°§à°°à°ķ": 4906,
      "Ġà°§à°°à°£": 4907,
      "Ġdid": 4908,
      "Ġdue": 4909,
      "Ġà°Ĩà°¶à°¯": 4910,
      "anth": 4911,
      "anpur": 4912,
      "Ġmg": 4913,
      "Ġmak": 4914,
      "Ġà°Ķà°·à°¦": 4915,
      "à°¦à°¨à°Ĺ": 4916,
      "à°¦à°¨à°²à°¨": 4917,
      "ĠâĢĻ": 4918,
      "à°®à°°à°µà°°": 4919,
      "Ġ185": 4920,
      "Ġ187": 4921,
      "Ġ1815": 4922,
      "Ġ1839": 4923,
      "Ġ1898": 4924,
      "Ġ1846": 4925,
      "Ġ1860": 4926,
      "Ġ1884": 4927,
      "Ġ1885": 4928,
      "Ġ1849": 4929,
      "Ġ1889": 4930,
      "Ġ1879": 4931,
      "Ġ1874": 4932,
      "1918": 4933,
      "1915": 4934,
      "1917": 4935,
      "1996": 4936,
      "1958": 4937,
      "1980": 4938,
      "1921": 4939,
      "1936": 4940,
      "1998": 4941,
      "1956": 4942,
      "1975": 4943,
      "1937": 4944,
      "1967": 4945,
      "1999": 4946,
      "1903": 4947,
      "1971": 4948,
      "1972": 4949,
      "1951": 4950,
      "1973": 4951,
      "1968": 4952,
      "1992": 4953,
      "à°¤à°ķà°µ": 4954,
      "à°¤à°ķà°Ł": 4955,
      "à°¤à°ķà°µà°ļ": 4956,
      "Ġà°īà°¦à°¯à°Ĺ": 4957,
      "à°Łà°ķà°®": 4958,
      "Ġà°Ĳà°¨à°ª": 4959,
      "Ġà°Ĳà°İà°¸": 4960,
      "Ġ111": 4961,
      "Ġ113": 4962,
      "Ġ114": 4963,
      "Ġ1186": 4964,
      "Ġ1107": 4965,
      "Ġà°ĵà°²": 4966,
      "Ġà°ĵà°·à°¨": 4967,
      "Ġbelong": 4968,
      "Ġbeyon": 4969,
      "Ġà°ħà°ªà°¹à°°à°£": 4970,
      "arry": 4971,
      "à°°à°ľà°²à°¤": 4972,
      "omic": 4973,
      "Ġ939": 4974,
      "Ġ955": 4975,
      "à°²à°®à°§": 4976,
      "à°ħà°¡": 4977,
      "à°ħà°§": 4978,
      "à°ħà°¹": 4979,
      "Ġ153": 4980,
      "Ġà°¤à°®à°²": 4981,
      "à°Ĩà°²": 4982,
      "à°Ĩà°¯": 4983,
      "à°Ĩà°Ĺà°¸": 4984,
      "enty": 4985,
      "2022": 4986,
      "2021": 4987,
      "à°¯à°¡à°®": 4988,
      "Ġforeign": 4989,
      "erse": 4990,
      "Ġà°ĺà°Łà°ķ": 4991,
      "Ġ171": 4992,
      "Ġ1763": 4993,
      "Ġ1751": 4994,
      "Ġ1647": 4995,
      "hite": 4996,
      "ations": 4997,
      "à°¡à°°à°¨": 4998,
      "à°®à°¤à°²": 4999
    },
    "merges": [
      [
        "à",
        "°"
      ],
      [
        "à",
        "±"
      ],
      [
        "Ġ",
        "à°"
      ],
      [
        "à±",
        "į"
      ],
      [
        "à°",
        "¿"
      ],
      [
        "à°",
        "¾"
      ],
      [
        "à°",
        "°"
      ],
      [
        "à°",
        "Ĥ"
      ],
      [
        "à±",
        "ģ"
      ],
      [
        "à°",
        "²"
      ],
      [
        "à°",
        "¨"
      ],
      [
        "à°",
        "ķ"
      ],
      [
        "à°",
        "¯"
      ],
      [
        "à±",
        "ĭ"
      ],
      [
        "à°",
        "¦"
      ],
      [
        "à°",
        "¤"
      ],
      [
        "à°",
        "®"
      ],
      [
        "à°",
        "¡"
      ],
      [
        "à°",
        "µ"
      ],
      [
        "à°",
        "Ł"
      ],
      [
        "Ġà°",
        "ª"
      ],
      [
        "à±",
        "ĩ"
      ],
      [
        "à°",
        "¸"
      ],
      [
        "Ġà°",
        "ķ"
      ],
      [
        "à±",
        "Ģ"
      ],
      [
        "à°",
        "Ĺ"
      ],
      [
        "Ġà°",
        "¸"
      ],
      [
        "à°¿",
        "."
      ],
      [
        "à°",
        "ª"
      ],
      [
        "Ġà°",
        "µ"
      ],
      [
        "à±",
        "Ĩ"
      ],
      [
        "à±",
        "Ĥ"
      ],
      [
        "Ġà°",
        "¨"
      ],
      [
        "Ġà°",
        "Ĺ"
      ],
      [
        "Ġà°",
        "ī"
      ],
      [
        "Ġà°",
        "®"
      ],
      [
        "à°",
        "ļ"
      ],
      [
        "Ġà°",
        "ħ"
      ],
      [
        "à°¿",
        "à°Ĥ"
      ],
      [
        "à±",
        "Ī"
      ],
      [
        "à±ģ",
        "à°Ĥ"
      ],
      [
        "Ġà°",
        "¦"
      ],
      [
        "à°",
        "¬"
      ],
      [
        "à°",
        "¶"
      ],
      [
        "Ġà°",
        "°"
      ],
      [
        "à°",
        "£"
      ],
      [
        "Ġà°",
        "Ĩ"
      ],
      [
        "à°",
        "ľ"
      ],
      [
        "à±ģ",
        "."
      ],
      [
        "à°",
        "·"
      ],
      [
        "Ġà°",
        "ľ"
      ],
      [
        "Ġà°",
        "ļ"
      ],
      [
        "Ġ",
        "1"
      ],
      [
        "à±",
        "Ĭ"
      ],
      [
        "Ġà°",
        "²"
      ],
      [
        "à°",
        "§"
      ],
      [
        "Ġà°",
        "¤"
      ],
      [
        "à°",
        "¹"
      ],
      [
        "Ġà°ī",
        "à°¨"
      ],
      [
        "Ġà°",
        "¬"
      ],
      [
        "à°",
        "¥"
      ],
      [
        "à±ģ",
        ","
      ],
      [
        "à±Ģ",
        "."
      ],
      [
        "à°",
        "Ń"
      ],
      [
        "Ġà°",
        "ĩ"
      ],
      [
        "â",
        "Ģ"
      ],
      [
        "à°",
        "«"
      ],
      [
        "à°",
        "³"
      ],
      [
        "âĢ",
        "Į"
      ],
      [
        "à°¾",
        "à°Ĥ"
      ],
      [
        "à°ķ",
        "à°°"
      ],
      [
        "à±į",
        "âĢĮ"
      ],
      [
        "à°Ĥ",
        ","
      ],
      [
        "Ġ1",
        "0"
      ],
      [
        "à±ĩ",
        "à°Ĥ"
      ],
      [
        "à°µ",
        "à°¸"
      ],
      [
        "Ġ",
        "5"
      ],
      [
        "à°¿",
        ","
      ],
      [
        "Ġà°",
        "¶"
      ],
      [
        "à±Ĩ",
        "à°Ĥ"
      ],
      [
        "Ġà°",
        "Ń"
      ],
      [
        "Ġà°¸",
        "à°®"
      ],
      [
        "à±",
        "Į"
      ],
      [
        "Ġ",
        "2"
      ],
      [
        "à±",
        "ĥ"
      ],
      [
        "à°¬",
        "à°¡"
      ],
      [
        "à°¯",
        "à°µà°¸"
      ],
      [
        "Ġà°",
        "Ĵ"
      ],
      [
        "à°°",
        "à°¤"
      ],
      [
        "Ġà°",
        "İ"
      ],
      [
        "Ġà°",
        "Ī"
      ],
      [
        "à°²",
        "à°²"
      ],
      [
        "Ġà°ħ",
        "à°¨"
      ],
      [
        "à°",
        "ĸ"
      ],
      [
        "à°²",
        "à°¨"
      ],
      [
        "Ġà°Ĵ",
        "à°ķ"
      ],
      [
        "Ġà°",
        "¹"
      ],
      [
        "à°µ",
        "à°°"
      ],
      [
        "Ġà°",
        "¡"
      ],
      [
        "à°ª",
        "à°¤"
      ],
      [
        "à±į",
        ","
      ],
      [
        "à°°",
        "à°ķ"
      ],
      [
        "Ġà°Ĩ",
        "à°°"
      ],
      [
        "Ġà°",
        "Ł"
      ],
      [
        "Ġ2",
        "0"
      ],
      [
        "Ġà°¸",
        "à°°"
      ],
      [
        "Ġ",
        "("
      ],
      [
        "à°",
        "ł"
      ],
      [
        "Ġà°ľ",
        "à°¨"
      ],
      [
        "à°Ł",
        "à°°"
      ],
      [
        "Ġà°",
        "ı"
      ],
      [
        "à°ł",
        "à°¶"
      ],
      [
        "Ġà°",
        "«"
      ],
      [
        "Ġà°ķ",
        "à°³"
      ],
      [
        "Ġà°",
        "¯"
      ],
      [
        "à°¤",
        "à°°"
      ],
      [
        "Ġà°ª",
        "à°°"
      ],
      [
        "à°¤",
        "à°¨"
      ],
      [
        "Ġ1",
        "9"
      ],
      [
        "à°·",
        "à°¨"
      ],
      [
        "à°°",
        "à°Ń"
      ],
      [
        "à°¡",
        "à°²"
      ],
      [
        "à°«",
        "à°°"
      ],
      [
        "Ġà°ľ",
        "à°°"
      ],
      [
        "à°°",
        "à°£"
      ],
      [
        "Ġà°¸à°°",
        "à°«à°°"
      ],
      [
        "à°¯",
        "à°¨"
      ],
      [
        "à°¥",
        "à°®"
      ],
      [
        "à°°",
        "à°®"
      ],
      [
        "Ġ",
        "t"
      ],
      [
        "à°Ł",
        "à°²"
      ],
      [
        "à°²",
        "à°¯"
      ],
      [
        "à°²",
        "à°ķ"
      ],
      [
        "à°¾",
        ","
      ],
      [
        "à°¹",
        "à°¦"
      ],
      [
        "à°¯",
        "à°ķ"
      ],
      [
        "Ġà°ĩ",
        "à°¦"
      ],
      [
        "à°¯",
        "à°°"
      ],
      [
        "Ġ",
        "o"
      ],
      [
        "à°¦",
        "à°°"
      ],
      [
        "Ġà°°",
        "à°¹à°¦"
      ],
      [
        "i",
        "n"
      ],
      [
        "Ġ",
        "a"
      ],
      [
        "à°¸",
        "à°°"
      ],
      [
        "à±ĭ",
        "à°Ĥ"
      ],
      [
        "à±Ĭ",
        "à°Ĥ"
      ],
      [
        "e",
        "r"
      ],
      [
        "Ġ20",
        "1"
      ],
      [
        "o",
        "n"
      ],
      [
        "à°ķ",
        "à°²"
      ],
      [
        "à°¦",
        "à°²"
      ],
      [
        "Ġà°Ĩ",
        "à°«"
      ],
      [
        "Ġ",
        "3"
      ],
      [
        "à°¨",
        "à°°"
      ],
      [
        "à°¯",
        "à°®"
      ],
      [
        "à°Ĥ",
        "."
      ],
      [
        "Ġà°¸",
        "à°¹"
      ],
      [
        "Ġà°ī",
        "à°¤"
      ],
      [
        "Ġà°¤",
        "à°°"
      ],
      [
        "Ġà°",
        "·"
      ],
      [
        "à°°",
        "à°µ"
      ],
      [
        "à°µ",
        "à°¤"
      ],
      [
        "à°·",
        "à°£"
      ],
      [
        "à±ĭ",
        ","
      ],
      [
        "Ġà°İ",
        "à°ķ"
      ],
      [
        "Ġà°Ĩ",
        "à°¸"
      ],
      [
        "à°µ",
        "à°²"
      ],
      [
        "Ġà°ķ",
        "à°²"
      ],
      [
        "Ġà°ħ",
        "à°¤à°¨"
      ],
      [
        "à°Ĺ",
        "à°°"
      ],
      [
        "Ġà°¤",
        "à°¨"
      ],
      [
        "à°ª",
        "à°²"
      ],
      [
        "à°¯",
        "à°¤"
      ],
      [
        "à°",
        "İ"
      ],
      [
        "à°°",
        "à°¸"
      ],
      [
        "à°",
        "ĺ"
      ],
      [
        "Ġ",
        "-"
      ],
      [
        "à°ľ",
        "à°¨"
      ],
      [
        "Ġà°ħ",
        "à°Ń"
      ],
      [
        "Ġà°ī",
        "à°ª"
      ],
      [
        "à°Ĺ",
        "à°£"
      ],
      [
        "Ġà°Ĩ",
        "à°®"
      ],
      [
        "Ġà°®",
        "à°¹"
      ],
      [
        "à°²",
        "à°¤"
      ],
      [
        "Ġ",
        "s"
      ],
      [
        "Ġ",
        "4"
      ],
      [
        "à°²",
        "à°µ"
      ],
      [
        "Ġ",
        "\""
      ],
      [
        "h",
        "e"
      ],
      [
        "Ġà°ħ",
        "à°µ"
      ],
      [
        "à°¡",
        "à°µ"
      ],
      [
        "e",
        "n"
      ],
      [
        "à±Ģ",
        ","
      ],
      [
        "Ġà°¬",
        "à°¸"
      ],
      [
        "Ġà°®",
        "à°°"
      ],
      [
        "Ġà°ª",
        "à°¬"
      ],
      [
        "Ġ",
        "7"
      ],
      [
        "à°¥",
        "à°ķ"
      ],
      [
        "à°Ĺà°£",
        "à°¨"
      ],
      [
        "à°¬",
        "à°°"
      ],
      [
        "Ġà°ľà°¨",
        "à°Ĺà°£à°¨"
      ],
      [
        "Ġà°ħ",
        "à°²"
      ],
      [
        "à°Ĺ",
        "à°²"
      ],
      [
        "t",
        "h"
      ],
      [
        "à°°",
        "à°§"
      ],
      [
        "Ġ",
        "p"
      ],
      [
        "à°¯",
        "à°¶"
      ],
      [
        "Ġà°ħ",
        "à°®"
      ],
      [
        "à°¨",
        "à°µ"
      ],
      [
        "à°µà°¸",
        "à°°"
      ],
      [
        "Ġ",
        "/"
      ],
      [
        "Ġà°ª",
        "à°¥à°ķ"
      ],
      [
        "Ġà°µ",
        "à°°"
      ],
      [
        "Ġ",
        "b"
      ],
      [
        "Ġà°ª",
        "à°Ł"
      ],
      [
        "à°°",
        "à°ª"
      ],
      [
        "Ġà°Ĵà°ķ",
        "à°Ł"
      ],
      [
        "Ġ",
        "w"
      ],
      [
        "Ġà°ĩ",
        "à°¤à°°"
      ],
      [
        "Ġ",
        "c"
      ],
      [
        "Ġo",
        "f"
      ],
      [
        "i",
        "s"
      ],
      [
        "à°ª",
        "à°Ł"
      ],
      [
        "Ġà°ħ",
        "à°ķ"
      ],
      [
        "Ġà°®",
        "à°°à°£"
      ],
      [
        "Ġt",
        "o"
      ],
      [
        "Ġ20",
        "0"
      ],
      [
        "à°°",
        "à°¦"
      ],
      [
        "Ġà°ħ",
        "à°¯"
      ],
      [
        "Ġà°ª",
        "à°¦"
      ],
      [
        "à°ľ",
        "à°ķ"
      ],
      [
        "Ġo",
        "r"
      ],
      [
        "Ġà°ħ",
        "à°¸"
      ],
      [
        "t",
        "i"
      ],
      [
        "à°ļ",
        "à°¡"
      ],
      [
        "à°ķ",
        "à°¨"
      ],
      [
        "0",
        "0"
      ],
      [
        "à°ļ",
        "à°¬à°¡"
      ],
      [
        "Ġà°İ",
        "à°¨"
      ],
      [
        "à°¨",
        "à°ª"
      ],
      [
        "Ġà°",
        "ĸ"
      ],
      [
        "Ġà°ı",
        "à°¡"
      ],
      [
        "Ġà°µ",
        "à°¸"
      ],
      [
        "Ġà°ħ",
        "à°¤"
      ],
      [
        "à°¸",
        "à°¨"
      ],
      [
        "à°®",
        "à°¨"
      ],
      [
        "Ġà°¬",
        "à°¹"
      ],
      [
        "Ġà°ķ",
        "à°¨"
      ],
      [
        "Ġa",
        "n"
      ],
      [
        "à°¦",
        "à°ķ"
      ],
      [
        "Ġà°ª",
        "à°¨"
      ],
      [
        "à°Ĺ",
        "à°¨"
      ],
      [
        "Ġt",
        "he"
      ],
      [
        "à°ª",
        "à°°"
      ],
      [
        "Ġ",
        "f"
      ],
      [
        "h",
        "a"
      ],
      [
        "Ġà°Ĺ",
        "à°£"
      ],
      [
        "Ġà°ħ",
        "à°°"
      ],
      [
        "ti",
        "on"
      ],
      [
        "o",
        "r"
      ],
      [
        "à°¨",
        "à°¤"
      ],
      [
        "à°Ł",
        "à°£"
      ],
      [
        "Ġà°µ",
        "à°°à°ķ"
      ],
      [
        "Ġà°µ",
        "à°¦"
      ],
      [
        "Ġà°¨",
        "à°®"
      ],
      [
        "e",
        "s"
      ],
      [
        "à°¯",
        "à°²"
      ],
      [
        "à°¤",
        "à°®"
      ],
      [
        "Ġ",
        "6"
      ],
      [
        "Ġà°ª",
        "à°¶"
      ],
      [
        "à°¸",
        "à°Ń"
      ],
      [
        "Ġ",
        "8"
      ],
      [
        "Ġ",
        "in"
      ],
      [
        "à°¨",
        "à°¦"
      ],
      [
        "in",
        "g"
      ],
      [
        "Ġà°ħ",
        "à°§"
      ],
      [
        "Ġà°Ĩ",
        "à°Ł"
      ],
      [
        "à°µ",
        "à°¯"
      ],
      [
        "Ġà°",
        "§"
      ],
      [
        "à°·",
        "à°ķ"
      ],
      [
        "à°¸",
        "à°®"
      ],
      [
        "Ġ",
        "d"
      ],
      [
        "à°¨",
        "à°²"
      ],
      [
        "Ġà°µ",
        "à°ļ"
      ],
      [
        "à°°à°µ",
        "à°¹"
      ],
      [
        "Ġà°Ĩ",
        "à°¶"
      ],
      [
        "Ġ201",
        "1"
      ],
      [
        "à°Ĺ",
        "à°µ"
      ],
      [
        "à°ª",
        "à°¡"
      ],
      [
        "a",
        "n"
      ],
      [
        "à±į",
        "."
      ],
      [
        "Ġ",
        "m"
      ],
      [
        "Ġà°°",
        "à°µ"
      ],
      [
        "à±ĥ",
        "à°Ĥ"
      ],
      [
        "à°¦",
        "à°Ł"
      ],
      [
        "Ġà°",
        "Ķ"
      ],
      [
        "à°¯",
        "à°µ"
      ],
      [
        "à°¦",
        "à°¨"
      ],
      [
        "Ġà°ª",
        "à°ķ"
      ],
      [
        "à°°",
        "à°¬"
      ],
      [
        "Ġà°¬",
        "à°¯"
      ],
      [
        "Ġà°ı",
        "à°°"
      ],
      [
        "Ġ",
        "âĢ"
      ],
      [
        "Ġà°°",
        "à°ķ"
      ],
      [
        "à°ķ",
        "à°¡"
      ],
      [
        "u",
        "s"
      ],
      [
        "i",
        "th"
      ],
      [
        "Ġà°®",
        "à°§"
      ],
      [
        "à°®",
        "à°°"
      ],
      [
        "à°¿",
        ":"
      ],
      [
        "Ġà°¸à°¹",
        "à°ķ"
      ],
      [
        "Ġà°ķ",
        "à°°"
      ],
      [
        "à°ľà°ķ",
        "à°µà°°"
      ],
      [
        "e",
        "d"
      ],
      [
        "à°¯",
        "à°ķà°°"
      ],
      [
        "Ġ1",
        "8"
      ],
      [
        "1",
        "9"
      ],
      [
        "à°°",
        "à°¯"
      ],
      [
        "Ġ20",
        "2"
      ],
      [
        "Ġà°ħ",
        "à°µà°¸à°°"
      ],
      [
        "à°¤",
        "à°ķ"
      ],
      [
        "à°ķà°°",
        "à°£"
      ],
      [
        "à°·",
        "à°§"
      ],
      [
        "Ġà°ħ",
        "à°¦"
      ],
      [
        "Ġà°¸",
        "à°¬"
      ],
      [
        "Ġà°ĩ",
        "à°³"
      ],
      [
        "Ġà°ī",
        "à°¦"
      ],
      [
        "Ġà°ı",
        "à°Ł"
      ],
      [
        "Ġà°Ķ",
        "à°·à°§"
      ],
      [
        "à°Ł",
        "à°ķ"
      ],
      [
        "Ġà°",
        "Ĳ"
      ],
      [
        "Ġà°®",
        "à°Ĺà°µ"
      ],
      [
        "à°¨",
        "à°®"
      ],
      [
        "Ġà°Ĩ",
        "à°Łà°²"
      ],
      [
        "à°²",
        "à°¬à°¡"
      ],
      [
        "Ġ1",
        "1"
      ],
      [
        "Ġà°ľà°¨",
        "à°¨"
      ],
      [
        "l",
        "l"
      ],
      [
        "Ġà°",
        "ĵ"
      ],
      [
        "Ġà°Ĩ",
        "à°¡à°µ"
      ],
      [
        "à°İ",
        "à°®"
      ],
      [
        "u",
        "r"
      ],
      [
        "Ġb",
        "e"
      ],
      [
        "à±Ĥ",
        "à°Ĥ"
      ],
      [
        "Ġà°ħ",
        "à°ª"
      ],
      [
        "c",
        "h"
      ],
      [
        "à°µ",
        "à°¨"
      ],
      [
        "Ġà°Ĩ",
        "à°¯à°¨"
      ],
      [
        "Ġà°ªà°°",
        "à°ªà°¤"
      ],
      [
        "Ġà°¨",
        "à°Ł"
      ],
      [
        "à°°à°¤",
        "à°¦"
      ],
      [
        "à°Łà°£",
        "à°®"
      ],
      [
        "à°µ",
        "à°¡"
      ],
      [
        "Ġà°µ",
        "à°¨à°°"
      ],
      [
        "Ġà°¨",
        "à°Ĺà°°"
      ],
      [
        "a",
        "r"
      ],
      [
        "à°°",
        "à°¹"
      ],
      [
        "Ġà°ħà°®",
        "à°²à°µ"
      ],
      [
        "à°¶",
        "à°ķ"
      ],
      [
        "Ġ",
        ","
      ],
      [
        "à°°",
        "à°ľ"
      ],
      [
        "à°¸à°¨",
        "à°¸à°Ń"
      ],
      [
        "à±į",
        "-"
      ],
      [
        "à°µ",
        "à°¹"
      ],
      [
        "Ġ",
        "h"
      ],
      [
        "Ġ19",
        "9"
      ],
      [
        "u",
        "n"
      ],
      [
        "Ġà°°",
        "à°ļ"
      ],
      [
        "Ġà°Ĩ",
        "à°§"
      ],
      [
        "à°°",
        "à°²"
      ],
      [
        "Ġà°¦",
        "à°°"
      ],
      [
        ")",
        ","
      ],
      [
        "à°²",
        "à°ª"
      ],
      [
        "o",
        "m"
      ],
      [
        "Ġw",
        "ith"
      ],
      [
        "Ġ",
        "9"
      ],
      [
        "à°²",
        "à°®"
      ],
      [
        "Ġ",
        "'"
      ],
      [
        "à°",
        "ħ"
      ],
      [
        "à°¯",
        "à°¸"
      ],
      [
        "Ġà°²",
        "à°ķ"
      ],
      [
        "Ġ1",
        "5"
      ],
      [
        "Ġà°ľ",
        "à°Ł"
      ],
      [
        "Ġ",
        "Â"
      ],
      [
        "Ġà°ļ",
        "à°°"
      ],
      [
        "Ġ",
        "A"
      ],
      [
        "ĠâĢ",
        "¢"
      ],
      [
        "à°ķ",
        "à°Ł"
      ],
      [
        "à°¥",
        "à°²"
      ],
      [
        "Ġà°¤",
        "à°®"
      ],
      [
        "Ġ",
        "e"
      ],
      [
        "à°",
        "Ĩ"
      ],
      [
        "en",
        "t"
      ],
      [
        "à°µ",
        "à°ļ"
      ],
      [
        "2",
        "0"
      ],
      [
        "à°¯",
        "à°¡"
      ],
      [
        "Ġà°¸",
        "à°Ń"
      ],
      [
        ".",
        "-"
      ],
      [
        "à°ļ",
        "à°°"
      ],
      [
        "Ġf",
        "or"
      ],
      [
        "à°ľ",
        "à°°"
      ],
      [
        "Ġan",
        "y"
      ],
      [
        "er",
        "s"
      ],
      [
        "Ġà°",
        "ĺ"
      ],
      [
        "Ġ1",
        "7"
      ],
      [
        "Ġà°¸à°®",
        "à°¯"
      ],
      [
        "l",
        "i"
      ],
      [
        "à°Ĺ",
        "à°¤"
      ],
      [
        "Ġ1",
        "2"
      ],
      [
        "ĠÂ",
        "·"
      ],
      [
        "Ġ",
        "Z"
      ],
      [
        "Ġ",
        "i"
      ],
      [
        "Ġà°īà°ª",
        "à°¯"
      ],
      [
        "c",
        "e"
      ],
      [
        "à°®",
        "à°²"
      ],
      [
        "Ġ19",
        "8"
      ],
      [
        "r",
        "i"
      ],
      [
        "à°Ł",
        "à°¨"
      ],
      [
        "Ġ1",
        "6"
      ],
      [
        "h",
        "i"
      ],
      [
        "à°°",
        "à°µà°°"
      ],
      [
        "a",
        "tion"
      ],
      [
        "Ġà°¦",
        "à°ķ"
      ],
      [
        "Ġà°Ĩ",
        "à°¡"
      ],
      [
        "Ġà°®",
        "à°¨"
      ],
      [
        "Ġà°ľ",
        "à°²à°µ"
      ],
      [
        "Ġ1",
        "4"
      ],
      [
        "à°®",
        "à°ķ"
      ],
      [
        "Ġà°ľà°²à°µ",
        "à°¨à°°"
      ],
      [
        "à°¡",
        "à°°"
      ],
      [
        "à°®",
        "à°¤"
      ],
      [
        "Ġ19",
        "5"
      ],
      [
        "Ġs",
        "u"
      ],
      [
        "Ġà°Ĩ",
        "à°²à°¯"
      ],
      [
        "Ġà°²",
        "à°Ń"
      ],
      [
        "ers",
        "on"
      ],
      [
        "a",
        "l"
      ],
      [
        "Ġà°Ĵ",
        "à°ķà°°"
      ],
      [
        "Ġp",
        "erson"
      ],
      [
        "Ġ",
        "."
      ],
      [
        "à±Ī",
        "à°Ĥ"
      ],
      [
        "à°µà°°",
        "à°£"
      ],
      [
        "Ġ",
        "0"
      ],
      [
        "à±ģ",
        ")"
      ],
      [
        "à°¨",
        "à°¨"
      ],
      [
        "Ġà°ª",
        "à°²"
      ],
      [
        "à±į",
        ")"
      ],
      [
        "Ġà°ĩ",
        "à°ķ"
      ],
      [
        "Ġà°ħ",
        "à°¡"
      ],
      [
        "à°",
        "ĩ"
      ],
      [
        "à°ķà°°à°£",
        "à°ķ"
      ],
      [
        "Ġà°µ",
        "à°¹"
      ],
      [
        "Ġc",
        "a"
      ],
      [
        "Ġà°ļ",
        "à°¦"
      ],
      [
        "Ġà°§",
        "à°°"
      ],
      [
        "à°¨",
        "à°ķ"
      ],
      [
        "à°¯",
        "à°¬à°¡"
      ],
      [
        "l",
        "y"
      ],
      [
        "Ġà°ķ",
        "à°ļ"
      ],
      [
        "Ġà°¸",
        "à°¤"
      ],
      [
        "à°¾",
        "."
      ],
      [
        "Ġ1",
        "3"
      ],
      [
        "à°²",
        "à°°"
      ],
      [
        "à°¤",
        "à°²"
      ],
      [
        "à±ĩ",
        ","
      ],
      [
        "à°Ĺ",
        "à°®"
      ],
      [
        "r",
        "o"
      ],
      [
        "Ġà°ķ",
        "à°®"
      ],
      [
        "Ġ201",
        "6"
      ],
      [
        "Ġb",
        "y"
      ],
      [
        "à°¹",
        "à°°"
      ],
      [
        "Ġà°ĩ",
        "à°µ"
      ],
      [
        "à°ª",
        "à°¦"
      ],
      [
        "Ġà°®",
        "à°¦"
      ],
      [
        "Ġ19",
        "7"
      ],
      [
        "à°²",
        "à°Ĺ"
      ],
      [
        "à°¤",
        "à°Ĺ"
      ],
      [
        "Ġca",
        "us"
      ],
      [
        "a",
        "y"
      ],
      [
        "t",
        "en"
      ],
      [
        "Ġan",
        "d"
      ],
      [
        "Ġ5",
        "0"
      ],
      [
        "Ġ",
        "is"
      ],
      [
        "à°",
        "ŀ"
      ],
      [
        "à°¯",
        "à°£"
      ],
      [
        "Ġà°¤",
        "à°²"
      ],
      [
        "à°³",
        "à°²"
      ],
      [
        "e",
        "v"
      ],
      [
        "à°°",
        "à°ļ"
      ],
      [
        "à°¯",
        "à°Ł"
      ],
      [
        "Ġà°¨",
        "à°µ"
      ],
      [
        "à°¨",
        "à°Ł"
      ],
      [
        "Ġà°Ĩ",
        "à°ķ"
      ],
      [
        "Ġà°ļ",
        "à°Ł"
      ],
      [
        "à°ļ",
        "à°²"
      ],
      [
        "Ġà°ª",
        "à°¡"
      ],
      [
        "à°İ",
        "à°¸"
      ],
      [
        "à°°",
        "à°¨"
      ],
      [
        "à°ķ",
        "à°¯"
      ],
      [
        "à°¿",
        ")"
      ],
      [
        "Ġ5",
        "7"
      ],
      [
        "Ġà°Ĩ",
        "à°¦"
      ],
      [
        "l",
        "e"
      ],
      [
        "Ġà°µ",
        "à°²"
      ],
      [
        "Ġà°",
        "Ľ"
      ],
      [
        "à°¸",
        "à°µ"
      ],
      [
        "à±Ģ",
        "à°Ĥ"
      ],
      [
        "à°ľ",
        "à°¯"
      ],
      [
        "Ġt",
        "ha"
      ],
      [
        "c",
        "t"
      ],
      [
        "à°¨",
        "à°¸"
      ],
      [
        "Ġà°Ĩ",
        "à°Ĺ"
      ],
      [
        "Ġ",
        "g"
      ],
      [
        "à°ķ",
        "à°ª"
      ],
      [
        "Ġà°ķ",
        "à°¥"
      ],
      [
        "à°·",
        "à°²"
      ],
      [
        "Ġà°¶",
        "à°¤"
      ],
      [
        "Ġe",
        "x"
      ],
      [
        "à°ª",
        "à°¨"
      ],
      [
        "à°Ń",
        "à°µ"
      ],
      [
        "n",
        "o"
      ],
      [
        "à°µ",
        "à°µ"
      ],
      [
        "Ġ19",
        "4"
      ],
      [
        "h",
        "o"
      ],
      [
        "à°¯",
        "à°ª"
      ],
      [
        "Ġs",
        "ha"
      ],
      [
        "00",
        "0"
      ],
      [
        "Ġd",
        "e"
      ],
      [
        "à°°à°ľ",
        "à°²"
      ],
      [
        "Ġà°¨",
        "à°²"
      ],
      [
        "Ġ19",
        "6"
      ],
      [
        "Ġ3",
        "0"
      ],
      [
        "Ġà°ħà°¤",
        "à°¡"
      ],
      [
        "Ġsha",
        "ll"
      ],
      [
        "i",
        "t"
      ],
      [
        "Ġà°¤",
        "à°ª"
      ],
      [
        "à°¡",
        "à°¨"
      ],
      [
        "Ġtha",
        "t"
      ],
      [
        "Ġ",
        "S"
      ],
      [
        "à±Ĥ",
        ","
      ],
      [
        "à°§",
        "à°¨"
      ],
      [
        "Ġà°ĩ",
        "à°¨"
      ],
      [
        "à°¶",
        "à°¨"
      ],
      [
        "Ġà°ĩ",
        "à°ļ"
      ],
      [
        "Ġà°¶",
        "à°ķ"
      ],
      [
        "à°ĸ",
        "à°ªà°Ł"
      ],
      [
        "à°¶à°ķ",
        "à°¤"
      ],
      [
        "Ġ2",
        "5"
      ],
      [
        "r",
        "e"
      ],
      [
        "Ġ5",
        "8"
      ],
      [
        "à°ª",
        "à°ķ"
      ],
      [
        "i",
        "d"
      ],
      [
        "s",
        "e"
      ],
      [
        "Ġw",
        "hi"
      ],
      [
        "m",
        "ent"
      ],
      [
        "à±į",
        ":"
      ],
      [
        "Ġà°Ĩ",
        "à°²"
      ],
      [
        "1",
        "8"
      ],
      [
        "Ġ",
        "li"
      ],
      [
        "Ġà°¤",
        "à°Ĺ"
      ],
      [
        "Ġwhi",
        "ch"
      ],
      [
        "à°°",
        "à°¦à°°"
      ],
      [
        "Ġc",
        "on"
      ],
      [
        "à°¨",
        "à°Ĺà°°"
      ],
      [
        "à°¡",
        "à°®"
      ],
      [
        "Ġà°ķ",
        "à°ª"
      ],
      [
        "Ġà°µ",
        "à°¯à°¸"
      ],
      [
        "d",
        "er"
      ],
      [
        "Ġ",
        "I"
      ],
      [
        "Ġm",
        "ay"
      ],
      [
        "à°ļ",
        "à°¨"
      ],
      [
        "Ġ2",
        "2"
      ],
      [
        "Ġà°İ",
        "à°²"
      ],
      [
        "u",
        "l"
      ],
      [
        "Ġ",
        "k"
      ],
      [
        "à°µ",
        "à°Ĺ"
      ],
      [
        "Ġà°ĩ",
        "à°¤à°¨"
      ],
      [
        "Ġ2",
        "3"
      ],
      [
        "1",
        "0"
      ],
      [
        "Ġà°ª",
        "à°¤"
      ],
      [
        "à±ģ",
        "-"
      ],
      [
        "à°Ł",
        "à°®"
      ],
      [
        "Ġà°İ",
        "à°®"
      ],
      [
        ".-",
        "-"
      ],
      [
        "m",
        "p"
      ],
      [
        "Ġà°®à°¹",
        "à°¬"
      ],
      [
        "Ġà°Ĳ",
        "à°¦"
      ],
      [
        "ten",
        "d"
      ],
      [
        "à°°",
        "à°Ĺ"
      ],
      [
        "à°Ĥ",
        ")"
      ],
      [
        "à°®",
        "à°£"
      ],
      [
        "à°¸",
        "à°²"
      ],
      [
        "à±Į",
        "à°Ĥ"
      ],
      [
        "Ġp",
        "ro"
      ],
      [
        "Ġà°İ",
        "à°µà°°"
      ],
      [
        "à°¡à°µ",
        "à°ļ"
      ],
      [
        "Ġsu",
        "ch"
      ],
      [
        "à°·à°¨",
        "à°²"
      ],
      [
        "a",
        "th"
      ],
      [
        "Ġ2",
        "4"
      ],
      [
        "r",
        "a"
      ],
      [
        "a",
        "b"
      ],
      [
        "à°£",
        "à°®"
      ],
      [
        "Ġà°Ĩ",
        "à°¨"
      ],
      [
        "Ġà°¤",
        "à°¯"
      ],
      [
        "à±įâĢĮ",
        ","
      ],
      [
        "in",
        "e"
      ],
      [
        ".",
        "."
      ],
      [
        "à°®",
        "à°¦"
      ],
      [
        "Ġà°ķ",
        "à°µ"
      ],
      [
        "Ġà°ĩ",
        "à°¸"
      ],
      [
        "à°ķ",
        "à°²à°²"
      ],
      [
        "Ġ2",
        "8"
      ],
      [
        "Ġ200",
        "1"
      ],
      [
        "Ġ202",
        "2"
      ],
      [
        "1",
        "5"
      ],
      [
        "Ġà°µ",
        "à°¨"
      ],
      [
        "Ġ19",
        "3"
      ],
      [
        "a",
        "t"
      ],
      [
        "i",
        "c"
      ],
      [
        "Ġà°¨",
        "à°¡"
      ],
      [
        "Ġà°ļ",
        "à°ķ"
      ],
      [
        "à°ĺ",
        "à°¨"
      ],
      [
        "Ġà°",
        "Ĭ"
      ],
      [
        "Ġà°µ",
        "à°²à°¨"
      ],
      [
        "Ġà°¨",
        "à°¦"
      ],
      [
        "à°Ĩ",
        "à°°"
      ],
      [
        "Ġà°®",
        "à°Ł"
      ],
      [
        "e",
        "ar"
      ],
      [
        "à°¤",
        "à°ª"
      ],
      [
        "à°ľ",
        "à°¯à°µ"
      ],
      [
        "Ġà°¬",
        "à°²"
      ],
      [
        "Ġà°ĩ",
        "à°ª"
      ],
      [
        "à°·",
        "à°¯"
      ],
      [
        "1",
        "2"
      ],
      [
        "Ġ",
        "y"
      ],
      [
        "à°°",
        "à°¯à°¤"
      ],
      [
        "Ġà°Ĺ",
        "à°°"
      ],
      [
        "à°°à°ķ",
        "à°Ł"
      ],
      [
        "Ġà°ı",
        "à°ª"
      ],
      [
        "Ġà°ī",
        "à°·"
      ],
      [
        "Ġà°®",
        "à°²"
      ],
      [
        "Ġ5",
        "9"
      ],
      [
        "Ġ3",
        "7"
      ],
      [
        "u",
        "t"
      ],
      [
        "Ġ",
        "H"
      ],
      [
        "à°Ĥ",
        ":"
      ],
      [
        "à°¡",
        "à°Ĺ"
      ],
      [
        "à°µ",
        "à°ķ"
      ],
      [
        "s",
        "t"
      ],
      [
        "à°·",
        "à°°"
      ],
      [
        "Ġà°¹",
        "à°°"
      ],
      [
        "à°µ",
        "à°®"
      ],
      [
        "1",
        "6"
      ],
      [
        "Ġà°ľà°¨",
        "à°µà°°"
      ],
      [
        "un",
        "is"
      ],
      [
        "Ġà°°à°ļ",
        "à°¯"
      ],
      [
        "à°",
        "Ī"
      ],
      [
        "Ġà°Ń",
        "à°ķ"
      ],
      [
        "Ġ2",
        "6"
      ],
      [
        "Ġt",
        "h"
      ],
      [
        "Ġ4",
        "0"
      ],
      [
        "à°¨",
        "à°¡"
      ],
      [
        "à°¤",
        "à°µ"
      ],
      [
        "Ġà°İ",
        "à°¤"
      ],
      [
        "ab",
        "le"
      ],
      [
        "à°ķ",
        "à°¤"
      ],
      [
        "Ġà°ĩ",
        "à°Ł"
      ],
      [
        "Ġà°¶",
        "à°°"
      ],
      [
        "Ġà°ĵ",
        "à°Ł"
      ],
      [
        "Ġy",
        "ear"
      ],
      [
        "1",
        "7"
      ],
      [
        "v",
        "o"
      ],
      [
        "à°ķ",
        "à°®"
      ],
      [
        "Ġà°ķ",
        "à°Ł"
      ],
      [
        "Ġà°¦",
        "à°Ĺ"
      ],
      [
        "Ġà°Ĩ",
        "à°¤"
      ],
      [
        "à°ľ",
        "à°®"
      ],
      [
        "à°¹",
        "à°¨"
      ],
      [
        "Ġ201",
        "9"
      ],
      [
        "l",
        "a"
      ],
      [
        "Ġà°Ĩ",
        "à°¹"
      ],
      [
        "Ġà°",
        "¢"
      ],
      [
        "à°",
        "Ľ"
      ],
      [
        "à°·",
        "à°¤"
      ],
      [
        "Ġà°ĩ",
        "à°²"
      ],
      [
        "ev",
        "er"
      ],
      [
        "Ġde",
        "ath"
      ],
      [
        "1",
        "3"
      ],
      [
        "Ġ",
        "he"
      ],
      [
        "Ġ",
        "ha"
      ],
      [
        "Ġyear",
        "s"
      ],
      [
        "2",
        "3"
      ],
      [
        "à°¯",
        "à°§"
      ],
      [
        "Ġà°®",
        "à°¤"
      ],
      [
        "Ġa",
        "s"
      ],
      [
        "v",
        "e"
      ],
      [
        "Ġ",
        "un"
      ],
      [
        "à°",
        "¢"
      ],
      [
        "à°",
        "ı"
      ],
      [
        "Ġà°ľ",
        "à°²"
      ],
      [
        "Ġà°ĩ",
        "à°¤"
      ],
      [
        "Ġà°İ",
        "à°¸"
      ],
      [
        "ho",
        "ever"
      ],
      [
        "à°¯",
        "à°Ĺ"
      ],
      [
        "à°Ĺ",
        "à°³"
      ],
      [
        "Ġ3",
        "6"
      ],
      [
        "Ġp",
        "unis"
      ],
      [
        "g",
        "e"
      ],
      [
        "à°²",
        "à°ªà°²"
      ],
      [
        "à°¬",
        "à°¨"
      ],
      [
        "à°³",
        "à°¨"
      ],
      [
        "Ġà°İ",
        "à°¦"
      ],
      [
        "Ġà°ı",
        "à°ķ"
      ],
      [
        "Ġi",
        "mp"
      ],
      [
        "1",
        "4"
      ],
      [
        "W",
        "hoever"
      ],
      [
        "à°°",
        "à°¶"
      ],
      [
        "is",
        "on"
      ],
      [
        "e",
        "c"
      ],
      [
        "à°",
        "Ĳ"
      ],
      [
        "à°®",
        "à°¯"
      ],
      [
        "à°¡",
        "à°¤"
      ],
      [
        "à°Ĺ",
        "à°Ł"
      ],
      [
        "Ġà°¦",
        "à°¶"
      ],
      [
        "Ġc",
        "om"
      ],
      [
        "Ġà°ĵ",
        "à°¡"
      ],
      [
        "p",
        "tion"
      ],
      [
        "à°ª",
        "à°¬à°¡"
      ],
      [
        "à°ľ",
        "à°¯à°¨"
      ],
      [
        "Ġà°¤",
        "à°ķ"
      ],
      [
        "Ġ3",
        "3"
      ],
      [
        "Ġà°ħà°µ",
        "à°ķ"
      ],
      [
        "Ġin",
        "t"
      ],
      [
        "Ġ",
        "B"
      ],
      [
        "Ġà°¸",
        "à°¨"
      ],
      [
        "er",
        "m"
      ],
      [
        "Ġ200",
        "9"
      ],
      [
        "Ġex",
        "tend"
      ],
      [
        "1",
        "1"
      ],
      [
        "à°Ł",
        "à°¡"
      ],
      [
        "Ġà°«",
        "à°²"
      ],
      [
        "à°ľà°¯à°¨",
        "à°Ĺà°°"
      ],
      [
        "Ġà°¤",
        "à°¦"
      ],
      [
        "Ġà°Ī",
        "à°¯à°¨"
      ],
      [
        "à°µà°°",
        "à°ķ"
      ],
      [
        "he",
        "d"
      ],
      [
        "Ġà°ªà°¦",
        "à°µ"
      ],
      [
        "r",
        "ison"
      ],
      [
        "u",
        "b"
      ],
      [
        "Ġà°¨",
        "à°°"
      ],
      [
        "Ġà°¹",
        "à°¤"
      ],
      [
        "Ġimp",
        "rison"
      ],
      [
        "Ġimprison",
        "ment"
      ],
      [
        "2",
        "4"
      ],
      [
        "à°¾",
        ")"
      ],
      [
        "à±ģ",
        ":"
      ],
      [
        "Ġà°ħ",
        "à°¬"
      ],
      [
        "Ġ2",
        "7"
      ],
      [
        "Ġ201",
        "3"
      ],
      [
        "5",
        "0"
      ],
      [
        "à±į",
        "\""
      ],
      [
        "à°¡",
        "à°Ł"
      ],
      [
        "Ġà°ķ",
        "à°¥à°²"
      ],
      [
        "à°ļ",
        "à°Ĺ"
      ],
      [
        "à°·",
        "à°ª"
      ],
      [
        "Ġà°¸à°®",
        "à°¸"
      ],
      [
        "Ġ201",
        "8"
      ],
      [
        "Ġ",
        "no"
      ],
      [
        "à°",
        "Ĵ"
      ],
      [
        "Ġà°",
        "¥"
      ],
      [
        "à±ģ",
        "\""
      ],
      [
        "à°¦",
        "à°®"
      ],
      [
        "à±Ĩ",
        "."
      ],
      [
        "à°¹",
        "à°®"
      ],
      [
        "Ġ2",
        "9"
      ],
      [
        "à°Ł",
        "à°ª"
      ],
      [
        "à±ĩ",
        "."
      ],
      [
        "à°ª",
        "à°£"
      ],
      [
        "âĢ",
        "ĵ"
      ],
      [
        "Ġà°Ń",
        "à°¦"
      ],
      [
        "Ġt",
        "erm"
      ],
      [
        "ith",
        "er"
      ],
      [
        "Ġpunis",
        "hed"
      ],
      [
        "2",
        "5"
      ],
      [
        "a",
        "s"
      ],
      [
        "à°ľ",
        "à°²"
      ],
      [
        "à°§",
        "à°®"
      ],
      [
        "Ġf",
        "ine"
      ],
      [
        "ur",
        "t"
      ],
      [
        "à°¡",
        "à°ª"
      ],
      [
        "à°¶",
        "à°®"
      ],
      [
        "Ġà°¬",
        "à°°"
      ],
      [
        "Ġà°Ĵ",
        "à°¡"
      ],
      [
        "Ġà°¸à°°",
        "à°¸"
      ],
      [
        "à°İ",
        "à°²"
      ],
      [
        "c",
        "ri"
      ],
      [
        "Ġ",
        "M"
      ],
      [
        "Ġ201",
        "4"
      ],
      [
        "Ġà°¤à°°",
        "à°ª"
      ],
      [
        "en",
        "ce"
      ],
      [
        "th",
        "er"
      ],
      [
        "Ġà°ĸ",
        "à°®"
      ],
      [
        "Ġd",
        "es"
      ],
      [
        "Ġno",
        "t"
      ],
      [
        "c",
        "ation"
      ],
      [
        "à°µ",
        "à°¦"
      ],
      [
        "Ġà°°à°ļ",
        "à°¨"
      ],
      [
        "Ġà°ĩà°¤",
        "à°¡"
      ],
      [
        "à°µ",
        "à°Ł"
      ],
      [
        "à°ª",
        "à°¬"
      ],
      [
        "Ġà°ħ",
        "à°¶"
      ],
      [
        "Ġà°ĩ",
        "à°°"
      ],
      [
        "Ġà°«",
        "à°¸"
      ],
      [
        "er",
        "e"
      ],
      [
        "Ġà°Ĩà°Ĺ",
        "à°¸"
      ],
      [
        "2",
        "2"
      ],
      [
        "o",
        "d"
      ],
      [
        "Ġ",
        "E"
      ],
      [
        "à°¡",
        "à°¯"
      ],
      [
        "Ġà°¨",
        "à°ķ"
      ],
      [
        "Ġ3",
        "5"
      ],
      [
        "Ġ200",
        "8"
      ],
      [
        "Ġh",
        "urt"
      ],
      [
        "Ġe",
        "ither"
      ],
      [
        "Ġcom",
        "m"
      ],
      [
        "à°§",
        "à°¤"
      ],
      [
        "Ġà°Ĵ",
        "à°ª"
      ],
      [
        "à°ĸ",
        "à°°"
      ],
      [
        "Ġ202",
        "1"
      ],
      [
        "Ġcaus",
        "e"
      ],
      [
        "Ġdes",
        "cri"
      ],
      [
        "p",
        "o"
      ],
      [
        "à°¡",
        "à°ķ"
      ],
      [
        "Ġà°Ĺ",
        "à°²"
      ],
      [
        "à°£",
        "à°¯"
      ],
      [
        "Ġà°ļ",
        "à°²à°¨"
      ],
      [
        "à°Ń",
        "à°®"
      ],
      [
        "Ġà°ı",
        "à°¦"
      ],
      [
        "Ġà°¤à°°",
        "à°Ĺà°¤"
      ],
      [
        "Ġof",
        "f"
      ],
      [
        "Ġ202",
        "0"
      ],
      [
        "Ġdescri",
        "ption"
      ],
      [
        "i",
        "r"
      ],
      [
        "à",
        "¤"
      ],
      [
        "Ġ",
        "T"
      ],
      [
        "à°",
        "ī"
      ],
      [
        "à°§",
        "à°°"
      ],
      [
        "Ġo",
        "n"
      ],
      [
        "Ġa",
        "l"
      ],
      [
        "un",
        "t"
      ],
      [
        "vo",
        "cation"
      ],
      [
        "2",
        "8"
      ],
      [
        "Ġ",
        ")"
      ],
      [
        "Ġ",
        ":"
      ],
      [
        "Ġà°ħ",
        "à°ľ"
      ],
      [
        "Ġà°°",
        "à°·"
      ],
      [
        "Ġà°Ń",
        "à°µà°¨"
      ],
      [
        "i",
        "ly"
      ],
      [
        "à°Ĺ",
        "à°¦"
      ],
      [
        "Ġà°®",
        "à°³"
      ],
      [
        "Ġà°Ń",
        "à°°"
      ],
      [
        "Ġ2",
        "1"
      ],
      [
        "k",
        "e"
      ],
      [
        "à°µ",
        "à°ª"
      ],
      [
        "Ġà°Ĺ",
        "à°¤"
      ],
      [
        "g",
        "h"
      ],
      [
        "à°°",
        "à°³"
      ],
      [
        "à±ģ",
        "/"
      ],
      [
        "à°¦",
        "à°µ"
      ],
      [
        "à°®",
        "à°®"
      ],
      [
        "à°µ",
        "à°¬à°¡"
      ],
      [
        "Ġà°ħà°¨",
        "à°ķ"
      ],
      [
        "Ġà°Ĩà°Ł",
        "à°Ĺ"
      ],
      [
        "Ġi",
        "t"
      ],
      [
        "Ġ",
        "n"
      ],
      [
        "à°¤",
        "à°¸"
      ],
      [
        "à°®",
        "à°¹"
      ],
      [
        "à°ļ",
        "à°ķ"
      ],
      [
        "Ġà°ħ",
        "à°Ĺ"
      ],
      [
        "Ġà°¬",
        "à°¦"
      ],
      [
        "Ġà°İ",
        "à°¡"
      ],
      [
        "Ġ4",
        "3"
      ],
      [
        "Ġpro",
        "vocation"
      ],
      [
        "à°Ĵ",
        "à°ķ"
      ],
      [
        "i",
        "m"
      ],
      [
        "à°ķ",
        "à°ľ"
      ],
      [
        "à°®",
        "à°¡"
      ],
      [
        "Ġà°¸",
        "à°Ĺà°Ł"
      ],
      [
        "Ġà°Ĩ",
        "à°¯"
      ],
      [
        "Ġà°ľ",
        "à°®"
      ],
      [
        "an",
        "t"
      ],
      [
        "à°ĩ",
        "à°¦"
      ],
      [
        "no",
        "w"
      ],
      [
        "Ġk",
        "now"
      ],
      [
        "9",
        "6"
      ],
      [
        "Ġ",
        "*"
      ],
      [
        "Ġ",
        "D"
      ],
      [
        "à±į",
        "'"
      ],
      [
        "Ġà°ħ",
        "à°Ł"
      ],
      [
        "à°¬",
        "à°²"
      ],
      [
        "Ġà°Ĩ",
        "à°ª"
      ],
      [
        "Ġà°İ",
        "à°°"
      ],
      [
        "à°°à°®",
        "à°£"
      ],
      [
        "à°µà°²",
        "à°¸"
      ],
      [
        "Ġ200",
        "6"
      ],
      [
        "2",
        "6"
      ],
      [
        "à°²",
        "à°¸"
      ],
      [
        "à°¯",
        "à°ªà°¡"
      ],
      [
        "à°¦",
        "à°Ĺ"
      ],
      [
        "à°ļ",
        "à°¯"
      ],
      [
        "à°¯à°ķ",
        "à°¤"
      ],
      [
        "Ġ3",
        "4"
      ],
      [
        "à°ľà°¨",
        "à°¨"
      ],
      [
        "3",
        "0"
      ],
      [
        "s",
        "o"
      ],
      [
        "Ġ",
        "C"
      ],
      [
        "Ġ",
        "r"
      ],
      [
        "Ġ",
        "us"
      ],
      [
        "Ġ201",
        "2"
      ],
      [
        "à°¨à°ª",
        "à°¦"
      ],
      [
        "es",
        "t"
      ],
      [
        "à°¯à°µ",
        "à°¹à°°"
      ],
      [
        "Ġcomm",
        "it"
      ],
      [
        "4",
        "0"
      ],
      [
        "5",
        "8"
      ],
      [
        "9",
        "0"
      ],
      [
        "à°²",
        "à°¬"
      ],
      [
        "à°ļ",
        "à°µà°ļ"
      ],
      [
        "Ġà°¦",
        "à°³"
      ],
      [
        "à°¶",
        "à°ª"
      ],
      [
        "Ġ201",
        "7"
      ],
      [
        "ĠE",
        "x"
      ],
      [
        "5",
        "7"
      ],
      [
        "8",
        "0"
      ],
      [
        "l",
        "d"
      ],
      [
        "Ġ",
        "P"
      ],
      [
        "à°®",
        "à°µ"
      ],
      [
        "Ġà°¸",
        "à°¦"
      ],
      [
        "Ġà°®",
        "à°£"
      ],
      [
        "Ġà°²",
        "à°²"
      ],
      [
        "à°¹",
        "à°¸"
      ],
      [
        "à°¥",
        "à°¨"
      ],
      [
        "Ġha",
        "s"
      ],
      [
        "à°²",
        "à°Ń"
      ],
      [
        "Ġà°Ĺ",
        "à°¡"
      ],
      [
        "Ġà°ħ",
        "à°£"
      ],
      [
        "Ġà°«",
        "à°°"
      ],
      [
        "Ġa",
        "ct"
      ],
      [
        "Ġs",
        "ec"
      ],
      [
        "Ġ200",
        "7"
      ],
      [
        "an",
        "d"
      ],
      [
        "à°µà°¹",
        "à°£"
      ],
      [
        "Ġi",
        "f"
      ],
      [
        "Ġcon",
        "f"
      ],
      [
        "Ġà°Ĭ",
        "à°°"
      ],
      [
        "p",
        "e"
      ],
      [
        "p",
        "l"
      ],
      [
        "t",
        "e"
      ],
      [
        "t",
        "y"
      ],
      [
        "à°ª",
        "à°®"
      ],
      [
        "Ġà°Ĺ",
        "à°¦"
      ],
      [
        "Ġà°ļ",
        "à°²"
      ],
      [
        "Ġà°Ī",
        "à°®"
      ],
      [
        "Ġh",
        "is"
      ],
      [
        "'",
        "s"
      ],
      [
        "9",
        "7"
      ],
      [
        "o",
        "w"
      ],
      [
        "o",
        "ur"
      ],
      [
        "r",
        "om"
      ],
      [
        "à°Ĥ",
        "\""
      ],
      [
        "à°¦",
        "à°¤"
      ],
      [
        "à°µ",
        "à°²à°¨"
      ],
      [
        "à°Ĺ",
        "à°¸"
      ],
      [
        "à±Ĥ",
        "."
      ],
      [
        "Ġà°ī",
        "à°°"
      ],
      [
        "à°ļ",
        "à°Ł"
      ],
      [
        "à°¬",
        "à°Ł"
      ],
      [
        "à°§",
        "à°ķ"
      ],
      [
        "Ġ4",
        "4"
      ],
      [
        "Ġf",
        "rom"
      ],
      [
        "id",
        "e"
      ],
      [
        ")",
        "."
      ],
      [
        "2",
        "1"
      ],
      [
        "i",
        "ll"
      ],
      [
        "à°¨",
        "à°Ĺ"
      ],
      [
        "Ġà°Ĩ",
        "à°ļ"
      ],
      [
        "Ġà°¹",
        "à°¨"
      ],
      [
        "Ġà°¡",
        "à°¯"
      ],
      [
        "Ġ19",
        "0"
      ],
      [
        "Ġ201",
        "0"
      ],
      [
        "Ġà°¤à°¨",
        "à°ķ"
      ],
      [
        "ll",
        "y"
      ],
      [
        "Ġli",
        "able"
      ],
      [
        "Ġli",
        "ke"
      ],
      [
        "Ġun",
        "der"
      ],
      [
        "Ġlike",
        "ly"
      ],
      [
        "2",
        "9"
      ],
      [
        "3",
        "5"
      ],
      [
        "v",
        "ant"
      ],
      [
        "à°ķ",
        "à°²à°¨"
      ],
      [
        "à°®",
        "à°ª"
      ],
      [
        "Ġà°¸",
        "à°²"
      ],
      [
        "à°ľ",
        "à°§"
      ],
      [
        "Ġ4",
        "6"
      ],
      [
        "Ġ202",
        "3"
      ],
      [
        "Ġ",
        "re"
      ],
      [
        "à°¿",
        "-"
      ],
      [
        "à°¯",
        "à°¦"
      ],
      [
        "à°¡",
        "à°¡"
      ],
      [
        "à±Ī",
        ","
      ],
      [
        "à°¬",
        "à°¦"
      ],
      [
        "Ġà°°",
        "à°¦"
      ],
      [
        "Ġà°°",
        "à°¸"
      ],
      [
        "à°Ń",
        "à°ľ"
      ],
      [
        "Ġà°ħà°®",
        "à°²"
      ],
      [
        "Ġ6",
        "0"
      ],
      [
        "Ġà°Ĳ",
        "à°°"
      ],
      [
        "Ġal",
        "so"
      ],
      [
        "3",
        "9"
      ],
      [
        "7",
        "0"
      ],
      [
        "a",
        "p"
      ],
      [
        "f",
        "f"
      ],
      [
        "s",
        "i"
      ],
      [
        "à°ķ",
        "à°µ"
      ],
      [
        "à°¤",
        "à°¯"
      ],
      [
        "Ġà°ķ",
        "à°²à°ķ"
      ],
      [
        "à°¶",
        "à°²"
      ],
      [
        "à°¶",
        "à°µ"
      ],
      [
        "Ġà°ĩ",
        "à°¬"
      ],
      [
        "Ġà°¸à°®",
        "à°ķ"
      ],
      [
        "Ġà°Ł",
        "à°°"
      ],
      [
        "Ġà°ı",
        "à°²"
      ],
      [
        "Ġà°Ĩà°¸",
        "à°ķ"
      ],
      [
        "Ġ4",
        "5"
      ],
      [
        "à°°à°ª",
        "à°¡"
      ],
      [
        "ĠâĢ",
        "ĺ"
      ],
      [
        "Ġà°°à°ļ",
        "à°¨à°²"
      ],
      [
        "2",
        "00"
      ],
      [
        "o",
        "us"
      ],
      [
        "Ġà°",
        "ĭ"
      ],
      [
        "à°¿",
        "\""
      ],
      [
        "à°°",
        "à°ªà°¤"
      ],
      [
        "à°²",
        "à°ľ"
      ],
      [
        "à°ª",
        "à°¥"
      ],
      [
        "Ġà°ī",
        "à°®"
      ],
      [
        "âĢ",
        "Ļ"
      ],
      [
        "Ġà°¡",
        "à°¬"
      ],
      [
        "Ġ200",
        "4"
      ],
      [
        "Ġd",
        "is"
      ],
      [
        "Ġ202",
        "4"
      ],
      [
        "Ġh",
        "om"
      ],
      [
        "Ġcaus",
        "es"
      ],
      [
        "à°¶à°¨",
        "à°Ĺ"
      ],
      [
        "2",
        "7"
      ],
      [
        "3",
        "6"
      ],
      [
        "9",
        "8"
      ],
      [
        "d",
        "u"
      ],
      [
        "à°²",
        "à°ļ"
      ],
      [
        "à°¤",
        "à°Ł"
      ],
      [
        "à°ª",
        "à°Ĺ"
      ],
      [
        "Ġ10",
        "0"
      ],
      [
        "Ġ5",
        "6"
      ],
      [
        "à°°à°£",
        "à°ķ"
      ],
      [
        "Ġo",
        "ther"
      ],
      [
        "Ġc",
        "hi"
      ],
      [
        "an",
        "s"
      ],
      [
        "an",
        "ation"
      ],
      [
        "li",
        "c"
      ],
      [
        "pl",
        "anation"
      ],
      [
        "Ġchi",
        "ld"
      ],
      [
        "Ġ",
        "N"
      ],
      [
        "à±ģ",
        "),"
      ],
      [
        "Ġà°Ĵà°ķ",
        "à°ª"
      ],
      [
        "Ġà°ªà°°",
        "à°®"
      ],
      [
        "on",
        "g"
      ],
      [
        "à°İ",
        "à°¨"
      ],
      [
        "Ġd",
        "o"
      ],
      [
        "Ġm",
        "ur"
      ],
      [
        "ĠH",
        "D"
      ],
      [
        "Ġoff",
        "ence"
      ],
      [
        "Ġà°ķà°²à°ķ",
        "à°¤"
      ],
      [
        "4",
        "7"
      ],
      [
        "a",
        "m"
      ],
      [
        "à°¨",
        "à°¯"
      ],
      [
        "à°ķ",
        "à°Ĺ"
      ],
      [
        "à°Ĺ",
        "à°¡"
      ],
      [
        "à°Ĺ",
        "à°¢"
      ],
      [
        "Ġà°¨",
        "à°°à°¸"
      ],
      [
        "à°ľ",
        "à°¸"
      ],
      [
        "Ġa",
        "t"
      ],
      [
        "Ġw",
        "om"
      ],
      [
        "Ġà°ĸ",
        "à°°"
      ],
      [
        "or",
        "t"
      ],
      [
        "Ġfor",
        "ce"
      ],
      [
        "Ġmur",
        "der"
      ],
      [
        "3",
        "8"
      ],
      [
        "8",
        "7"
      ],
      [
        "i",
        "v"
      ],
      [
        "o",
        "ut"
      ],
      [
        "Ġ",
        "W"
      ],
      [
        "à°¿",
        "'"
      ],
      [
        "à°¯",
        "à°¦à°°"
      ],
      [
        "à°µ",
        "à°¶"
      ],
      [
        "Ġà°İ",
        "à°Ĺ"
      ],
      [
        "à°²à°¨",
        "à°²"
      ],
      [
        "Ġs",
        "er"
      ],
      [
        "Ġp",
        "ur"
      ],
      [
        "Ġm",
        "e"
      ],
      [
        "Ġà°¬à°¯",
        "à°Ł"
      ],
      [
        "us",
        "t"
      ],
      [
        "Ġà°µà°²",
        "à°¸"
      ],
      [
        "ĠEx",
        "planation"
      ],
      [
        "9",
        "4"
      ],
      [
        "f",
        "e"
      ],
      [
        "f",
        "ul"
      ],
      [
        "Ġ",
        "F"
      ],
      [
        "à°°",
        "à°¡"
      ],
      [
        "à°®",
        "à°Ł"
      ],
      [
        "Ġà°®",
        "à°²à°¯"
      ],
      [
        "à°·",
        "à°¸"
      ],
      [
        "Ġà°ľ",
        "à°¯"
      ],
      [
        "Ġà°ı",
        "à°®"
      ],
      [
        "Ġà°ı",
        "à°³"
      ],
      [
        "Ġa",
        "b"
      ],
      [
        "Ġà°¤à°°",
        "à°²"
      ],
      [
        "Ġ199",
        "0"
      ],
      [
        "Ġ198",
        "0"
      ],
      [
        "ic",
        "ide"
      ],
      [
        "Ġser",
        "vant"
      ],
      [
        "5",
        "6"
      ],
      [
        "Ġ",
        "K"
      ],
      [
        "à°°",
        "à°Ł"
      ],
      [
        "à°¦",
        "à°¯"
      ],
      [
        "Ġà°Ĩ",
        "à°ľ"
      ],
      [
        "Ġà°Ĩ",
        "à°ķà°°"
      ],
      [
        "Ġà°¬",
        "à°Ł"
      ],
      [
        "à°ĸ",
        "à°²"
      ],
      [
        "er",
        "c"
      ],
      [
        "on",
        "e"
      ],
      [
        "Ġ3",
        "8"
      ],
      [
        "Ġb",
        "o"
      ],
      [
        "ten",
        "tion"
      ],
      [
        "ĠI",
        "n"
      ],
      [
        "Ġpur",
        "po"
      ],
      [
        "4",
        "8"
      ],
      [
        "V",
        "D"
      ],
      [
        "à°°",
        "à°°"
      ],
      [
        "à°¯",
        "à°¯à°¨"
      ],
      [
        "à°µ",
        "à°Ń"
      ],
      [
        "à°¸",
        "à°Ĺ"
      ],
      [
        "Ġà°Ĺ",
        "à°µà°°"
      ],
      [
        "Ġà°Ĺ",
        "à°®à°¨"
      ],
      [
        "Ġà°Ī",
        "à°¸"
      ],
      [
        "Ġ201",
        "5"
      ],
      [
        "Ġp",
        "ub"
      ],
      [
        "Ġin",
        "tend"
      ],
      [
        "Ġsec",
        "tion"
      ],
      [
        "Ġpub",
        "lic"
      ],
      [
        "4",
        "6"
      ],
      [
        "5",
        "5"
      ],
      [
        "9",
        "1"
      ],
      [
        "l",
        "unt"
      ],
      [
        "t",
        "a"
      ],
      [
        "à°¯",
        "à°¯"
      ],
      [
        "à°¯",
        "à°²à°¨"
      ],
      [
        "à±ĭ",
        ")"
      ],
      [
        "à°®",
        "à°¸"
      ],
      [
        "à°®",
        "à°¶"
      ],
      [
        "à°®",
        "à°µà°°"
      ],
      [
        "Ġà°ª",
        "à°µ"
      ],
      [
        "à°Ĺ",
        "à°ª"
      ],
      [
        "à°ª",
        "à°ļ"
      ],
      [
        "à°ļ",
        "à°µ"
      ],
      [
        "Ġ200",
        "0"
      ],
      [
        "Ġà°ħà°¸",
        "à°²"
      ],
      [
        "Ġ8",
        "0"
      ],
      [
        "Ġm",
        "o"
      ],
      [
        "ĠâĢ",
        "ĵ"
      ],
      [
        "ar",
        "ily"
      ],
      [
        "Ġth",
        "is"
      ],
      [
        "la",
        "w"
      ],
      [
        "Ġà°ļà°²à°¨",
        "à°ļ"
      ],
      [
        "lunt",
        "arily"
      ],
      [
        "3",
        "1"
      ],
      [
        "4",
        "2"
      ],
      [
        "7",
        "5"
      ],
      [
        "m",
        "in"
      ],
      [
        "Ġ",
        ".--"
      ],
      [
        "à°¾",
        "-"
      ],
      [
        "à°°",
        "à°¥"
      ],
      [
        "à°¦",
        "à°¡"
      ],
      [
        "à±Ģ",
        ")"
      ],
      [
        "à±Ģ",
        "-"
      ],
      [
        "Ġà°®",
        "à°¸"
      ],
      [
        "Ġà°Ĩ",
        "à°µ"
      ],
      [
        "Ġà°ļ",
        "à°¨"
      ],
      [
        "à°§",
        "à°ªà°¡"
      ],
      [
        "à°Ń",
        "à°¦"
      ],
      [
        "à°ķà°°",
        "à°®"
      ],
      [
        "Ġà°¸à°®",
        "à°°"
      ],
      [
        "Ġà°®à°¹",
        "à°°"
      ],
      [
        "Ġ4",
        "8"
      ],
      [
        "Ġ200",
        "2"
      ],
      [
        "Ġin",
        "tention"
      ],
      [
        "à°ķà°°à°£",
        "à°²"
      ],
      [
        "Ġh",
        "im"
      ],
      [
        "d",
        "i"
      ],
      [
        "Ġ",
        "&"
      ],
      [
        "à°¿",
        ";"
      ],
      [
        "à°¡",
        "à°µà°°"
      ],
      [
        "à°Ĺ",
        "à°ľ"
      ],
      [
        "à°§",
        "à°¨à°²"
      ],
      [
        "Ġà°Ń",
        "à°¯"
      ],
      [
        "Ġà°ľà°¨",
        "à°¤"
      ],
      [
        "à°¯à°ķ",
        "à°²"
      ],
      [
        "Ġà°¤à°°",
        "à°«"
      ],
      [
        "Ġ7",
        "5"
      ],
      [
        "à°°à°ľ",
        "à°²à°ķ"
      ],
      [
        "Ġà°ĺ",
        "à°¨"
      ],
      [
        "Ġà°¦à°¶",
        "à°²"
      ],
      [
        "Ġwom",
        "an"
      ],
      [
        "9",
        "3"
      ],
      [
        "n",
        "ap"
      ],
      [
        "u",
        "m"
      ],
      [
        "Ġ",
        "l"
      ],
      [
        "à°²",
        "à°¡"
      ],
      [
        "à°ķ",
        "à°ķ"
      ],
      [
        "Ġà°ª",
        "à°¤à°ķ"
      ],
      [
        "Ġà°ħ",
        "à°¹"
      ],
      [
        "Ġà°ħà°¨",
        "à°Ĺ"
      ],
      [
        "à°°à°£",
        "à°®"
      ],
      [
        "à°¯à°¤",
        "à°²"
      ],
      [
        "à°ĺ",
        "à°Ł"
      ],
      [
        "Ġ7",
        "0"
      ],
      [
        "Ġ200",
        "3"
      ],
      [
        "Ġà°īà°¦",
        "à°¯"
      ],
      [
        "id",
        "nap"
      ],
      [
        "Ġknow",
        "ing"
      ],
      [
        "ĠD",
        "VD"
      ],
      [
        "our",
        "se"
      ],
      [
        "4",
        "3"
      ],
      [
        "4",
        "5"
      ],
      [
        "6",
        "0"
      ],
      [
        "8",
        "2"
      ],
      [
        "8",
        "4"
      ],
      [
        "9",
        "5"
      ],
      [
        "r",
        "ong"
      ],
      [
        "t",
        "ed"
      ],
      [
        "Ġ",
        "!"
      ],
      [
        "à°Ĥ",
        "'"
      ],
      [
        "à°¯",
        "à°Ń"
      ],
      [
        "à°®",
        "à°ļ"
      ],
      [
        "Ġà°®",
        "à°ķà°°"
      ],
      [
        "Ġà°¬",
        "à°¡"
      ],
      [
        "Ġà°¬",
        "à°²à°®"
      ],
      [
        "à°³",
        "à°ķ"
      ],
      [
        "Ġt",
        "en"
      ],
      [
        "Ġ3",
        "1"
      ],
      [
        "à°·à°£",
        "à°²"
      ],
      [
        "à°ĺ",
        "à°²"
      ],
      [
        "à°¨à°ª",
        "à°°"
      ],
      [
        "Ġ199",
        "6"
      ],
      [
        "Ġsu",
        "b"
      ],
      [
        "Ġcaus",
        "ing"
      ],
      [
        "Ġg",
        "u"
      ],
      [
        "ĠS",
        "ub"
      ],
      [
        "ĠSub",
        "s"
      ],
      [
        "3",
        "7"
      ],
      [
        "i",
        "l"
      ],
      [
        "t",
        "s"
      ],
      [
        "Ġ",
        "V"
      ],
      [
        "à±į",
        "âĢ"
      ],
      [
        "à°¦",
        "à°ª"
      ],
      [
        "Ġà°¨",
        "à°µà°²"
      ],
      [
        "Ġà°Ĺ",
        "à°ľ"
      ],
      [
        "Ġà°ħ",
        "à°µà°¸"
      ],
      [
        "à±Ī",
        "."
      ],
      [
        "à°°à°£",
        "à°²"
      ],
      [
        "Ġ4",
        "7"
      ],
      [
        "à°ªà°°",
        "à°ļ"
      ],
      [
        "ri",
        "ev"
      ],
      [
        "Ġ195",
        "2"
      ],
      [
        "Ġcon",
        "s"
      ],
      [
        "at",
        "e"
      ],
      [
        "Ġus",
        "ed"
      ],
      [
        "riev",
        "ous"
      ],
      [
        "6",
        "7"
      ],
      [
        "9",
        "9"
      ],
      [
        "»",
        "¿"
      ],
      [
        "Â",
        "°"
      ],
      [
        "ï",
        "»¿"
      ],
      [
        "Ġ",
        "ra"
      ],
      [
        "à°Ł",
        "à°Ĺ"
      ],
      [
        "à°¸",
        "à°¹"
      ],
      [
        "Ġà°ķ",
        "à°¦à°²"
      ],
      [
        "Ġà°µ",
        "à°¶"
      ],
      [
        "Ġà°ī",
        "à°ļ"
      ],
      [
        "à°¬",
        "à°¤"
      ],
      [
        "Ġà°ľ",
        "à°Ĺ"
      ],
      [
        "Ġà°ľ",
        "à°¹"
      ],
      [
        "à°¹",
        "à°¤"
      ],
      [
        "Ġà°¬",
        "à°²à°µ"
      ],
      [
        "Ġà°Ń",
        "à°Ł"
      ],
      [
        "Ġà°Ń",
        "à°°à°¤"
      ],
      [
        "Ġs",
        "o"
      ],
      [
        "à°°à°ª",
        "à°°"
      ],
      [
        "Ġà°Ĺà°£",
        "à°¨"
      ],
      [
        "or",
        "e"
      ],
      [
        "Ġà°§",
        "à°¨"
      ],
      [
        "Ġà°Ĳ",
        "à°¸"
      ],
      [
        "Ġ199",
        "5"
      ],
      [
        "Ġwith",
        "out"
      ],
      [
        "Ġhom",
        "icide"
      ],
      [
        "Ġbo",
        "th"
      ],
      [
        "à±įâĢ",
        "į"
      ],
      [
        "c",
        "es"
      ],
      [
        "p",
        "able"
      ],
      [
        "à°",
        "±"
      ],
      [
        "à°®",
        "à°Ĺ"
      ],
      [
        "Ġà°ª",
        "à°¸"
      ],
      [
        "à°ª",
        "à°¸"
      ],
      [
        "Ġà°Ĺ",
        "à°¨"
      ],
      [
        "à°¹",
        "à°ķ"
      ],
      [
        "Ġà°¬",
        "à°¯à°²"
      ],
      [
        "Ġà°ĩ",
        "à°®"
      ],
      [
        "Ġà°Ĵ",
        "à°²"
      ],
      [
        "Ġà°İ",
        "à°ª"
      ],
      [
        "Ġà°İ",
        "à°«"
      ],
      [
        "Ġ200",
        "5"
      ],
      [
        "à°¨à°®",
        "à°¯"
      ],
      [
        "ĠA",
        "ct"
      ],
      [
        "Ġcaus",
        "ed"
      ],
      [
        "Ġ196",
        "0"
      ],
      [
        "ul",
        "pable"
      ],
      [
        "Ġth",
        "ere"
      ],
      [
        "si",
        "on"
      ],
      [
        "Ġcons",
        "ent"
      ],
      [
        "p",
        "er"
      ],
      [
        "Ġà°¨",
        "à°°à°¹"
      ],
      [
        "Ġà°ī",
        "à°²"
      ],
      [
        "Ġà°ħ",
        "à°°à°ķ"
      ],
      [
        "Ġà°ħ",
        "à°µà°¤"
      ],
      [
        "Ġà°²",
        "à°¨"
      ],
      [
        "à°Ń",
        "à°ľà°¨"
      ],
      [
        "Ġà°¡",
        "à°ļ"
      ],
      [
        "Ġbe",
        "ing"
      ],
      [
        "Ġ199",
        "8"
      ],
      [
        "Ġg",
        "rievous"
      ],
      [
        "erc",
        "ourse"
      ],
      [
        "Ġpurpo",
        "se"
      ],
      [
        "Ġà°ħà°µà°¸",
        "à°°à°®"
      ],
      [
        "3",
        "3"
      ],
      [
        "7",
        "7"
      ],
      [
        "a",
        "d"
      ],
      [
        "j",
        "ur"
      ],
      [
        "t",
        "er"
      ],
      [
        "Ġ",
        "law"
      ],
      [
        "à±ģ",
        "'"
      ],
      [
        "à±ģ",
        ";"
      ],
      [
        "à°¤",
        "à°¤"
      ],
      [
        "à°Ĺ",
        "à°¯"
      ],
      [
        "Ġà°µ",
        "à°¨à°ªà°°"
      ],
      [
        "à±Ĩ",
        ","
      ],
      [
        "Ġà°ħ",
        "à°ĸ"
      ],
      [
        "Ġà°ħ",
        "à°¡à°µ"
      ],
      [
        "à°ľ",
        "à°ª"
      ],
      [
        "Ġà°ļ",
        "à°¤"
      ],
      [
        "Ġà°ľà°¨",
        "à°°à°²"
      ],
      [
        "Ġs",
        "e"
      ],
      [
        "Ġ4",
        "1"
      ],
      [
        "Ġb",
        "od"
      ],
      [
        "is",
        "e"
      ],
      [
        "Ġd",
        "one"
      ],
      [
        "Ġm",
        "in"
      ],
      [
        "Ġà°Ĩà°¯à°¨",
        "à°ķ"
      ],
      [
        "Ġh",
        "er"
      ],
      [
        "Ġ199",
        "2"
      ],
      [
        "Ġ199",
        "3"
      ],
      [
        "Ġà°¨à°µ",
        "à°²à°²"
      ],
      [
        "Ġ194",
        "7"
      ],
      [
        "gh",
        "t"
      ],
      [
        "Ġà°¨à°°à°¹",
        "à°¤"
      ],
      [
        "6",
        "6"
      ],
      [
        "8",
        "5"
      ],
      [
        "i",
        "g"
      ],
      [
        "q",
        "u"
      ],
      [
        "s",
        "a"
      ],
      [
        "Ġ",
        "O"
      ],
      [
        "Ġ",
        "R"
      ],
      [
        "à±ģ",
        "?"
      ],
      [
        "à°¨",
        "à°¹"
      ],
      [
        "à°¡",
        "à°¦"
      ],
      [
        "à°µ",
        "à°£"
      ],
      [
        "Ġà°ķ",
        "à°¦"
      ],
      [
        "à°ª",
        "à°·"
      ],
      [
        "à±Ĥ",
        "à°Ĥ,"
      ],
      [
        "Ġà°®",
        "à°Ĺ"
      ],
      [
        "Ġà°ħ",
        "à°ľà°°"
      ],
      [
        "Ġà°Ń",
        "à°Ĺà°µ"
      ],
      [
        "à°µà°°",
        "à°°"
      ],
      [
        "Ġà°¤à°°",
        "à°ļ"
      ],
      [
        "Ġà°¤à°¨",
        "à°¨"
      ],
      [
        "Ġw",
        "ho"
      ],
      [
        "Ġc",
        "ri"
      ],
      [
        "an",
        "g"
      ],
      [
        "Ġà°ħà°¦",
        "à°¨à°ª"
      ],
      [
        "Ġ199",
        "4"
      ],
      [
        "à°ħ",
        "à°µ"
      ],
      [
        "Ġ198",
        "2"
      ],
      [
        "Ġ198",
        "9"
      ],
      [
        "Ġ195",
        "5"
      ],
      [
        "Ġ197",
        "0"
      ],
      [
        "ĠS",
        "ch"
      ],
      [
        "Ġconf",
        "in"
      ],
      [
        "du",
        "ct"
      ],
      [
        "min",
        "al"
      ],
      [
        ".",
        ","
      ],
      [
        "4",
        "4"
      ],
      [
        "4",
        "9"
      ],
      [
        "a",
        "ge"
      ],
      [
        "l",
        "o"
      ],
      [
        "o",
        "s"
      ],
      [
        "à°ķ",
        "à°²à°ķ"
      ],
      [
        "à°¯",
        "à°ľ"
      ],
      [
        "à°¤",
        "à°ªà°²"
      ],
      [
        "à°µ",
        "à°ľ"
      ],
      [
        "à°Ł",
        "à°¸"
      ],
      [
        "à°Ł",
        "à°®à°¨"
      ],
      [
        "Ġà°®",
        "à°®"
      ],
      [
        "à°ļ",
        "à°¦"
      ],
      [
        "à°¶",
        "à°¨à°®"
      ],
      [
        "à±įâĢĮ",
        "."
      ],
      [
        "Ġà°¹",
        "à°ķ"
      ],
      [
        "à°µà°²",
        "à°¸à°²"
      ],
      [
        "Ġà°®à°¹",
        "à°®"
      ],
      [
        "Ġs",
        "t"
      ],
      [
        "Ġ4",
        "2"
      ],
      [
        "Ġà°ħà°®",
        "à°°"
      ],
      [
        "Ġin",
        "jur"
      ],
      [
        "Ġà°Ķ",
        "à°°"
      ],
      [
        "Ġ199",
        "1"
      ],
      [
        "ĠÂ",
        "°"
      ],
      [
        "20",
        "16"
      ],
      [
        "Ġ198",
        "4"
      ],
      [
        "à°¯à°£",
        "à°ª"
      ],
      [
        "Ġà°¤à°ª",
        "à°¸"
      ],
      [
        "st",
        "an"
      ],
      [
        "Ġme",
        "ans"
      ],
      [
        "sa",
        "ul"
      ],
      [
        "Ġcri",
        "minal"
      ],
      [
        "0",
        "3"
      ],
      [
        "3",
        "2"
      ],
      [
        "4",
        "1"
      ],
      [
        "7",
        "1"
      ],
      [
        "8",
        "9"
      ],
      [
        "C",
        "C"
      ],
      [
        "a",
        "lly"
      ],
      [
        "à±į",
        "),"
      ],
      [
        "à°¾",
        "\""
      ],
      [
        "à±ĭ",
        "-"
      ],
      [
        "à°µ",
        "à°³"
      ],
      [
        "à°Ł",
        "à°¬à°¦"
      ],
      [
        "à°Ĺ",
        "à°µà°°"
      ],
      [
        "Ġà°¸",
        "à°ª"
      ],
      [
        "Ġà°ī",
        "à°Ĺ"
      ],
      [
        "Ġà°®",
        "à°ļ"
      ],
      [
        "Ġà°ħ",
        "à°ļ"
      ],
      [
        "Ġà°Ĩ",
        "à°¦à°°"
      ],
      [
        "Ġà°Ĩ",
        "à°ķà°²"
      ],
      [
        "Ġà°ļ",
        "à°°à°£"
      ],
      [
        "Ġà°ĩ",
        "à°·"
      ],
      [
        "Ġà°İ",
        "à°Ł"
      ],
      [
        "Ġà°Ī",
        "à°¶"
      ],
      [
        "à°µà°°",
        "à°²"
      ],
      [
        "Ġt",
        "w"
      ],
      [
        "Ġa",
        "ge"
      ],
      [
        "Ġ3",
        "2"
      ],
      [
        "Ġà°ķà°²",
        "à°¦"
      ],
      [
        "Ġs",
        "a"
      ],
      [
        "Ġw",
        "ill"
      ],
      [
        "es",
        "s"
      ],
      [
        "à°¨à°¦",
        "à°¨"
      ],
      [
        "à°¯à°µ",
        "à°ļ"
      ],
      [
        "Ġ199",
        "7"
      ],
      [
        "Ġ199",
        "9"
      ],
      [
        "à°ķà°Ł",
        "à°Ĺ"
      ],
      [
        "Ġsu",
        "ff"
      ],
      [
        "Ġ197",
        "4"
      ],
      [
        "Ġ196",
        "2"
      ],
      [
        "Ġli",
        "fe"
      ],
      [
        "ra",
        "in"
      ],
      [
        "Ġ37",
        "6"
      ],
      [
        "vo",
        "luntarily"
      ],
      [
        "Ġint",
        "ent"
      ],
      [
        "Ġmin",
        "or"
      ],
      [
        "3",
        "4"
      ],
      [
        "6",
        "1"
      ],
      [
        "f",
        "u"
      ],
      [
        "o",
        "unt"
      ],
      [
        "s",
        "ti"
      ],
      [
        "Ġ",
        "U"
      ],
      [
        "Ġ",
        "en"
      ],
      [
        "à°",
        "ģ"
      ],
      [
        "à°ķ",
        "à°¸"
      ],
      [
        "à°¯",
        "à°¸à°Ń"
      ],
      [
        "à°¦",
        "à°¬"
      ],
      [
        "Ġà°¸",
        "à°ľ"
      ],
      [
        "Ġà°µ",
        "à°ķ"
      ],
      [
        "Ġà°µ",
        "à°¡"
      ],
      [
        "à±Ĩ",
        "à°Ĥ,"
      ],
      [
        "Ġà°Ĺ",
        "à°Ł"
      ],
      [
        "Ġà°°",
        "à°¤"
      ],
      [
        "à°£",
        "à°¨"
      ],
      [
        "à°£",
        "à°ķ"
      ],
      [
        "Ġà°ľ",
        "à°ª"
      ],
      [
        "à°¥",
        "à°°"
      ],
      [
        "Ġà°Ĵà°ķ",
        "à°¡"
      ],
      [
        "à°Łà°²",
        "à°ķ"
      ],
      [
        "à°Ĥ.",
        "."
      ],
      [
        "Ġà°µà°°",
        "à°²"
      ],
      [
        "Ġà°ĸ",
        "à°Ĺ"
      ],
      [
        "Ġm",
        "an"
      ],
      [
        "à°¯à°µ",
        "à°¹"
      ],
      [
        "Ġ11",
        "7"
      ],
      [
        "à°ħ",
        "à°®"
      ],
      [
        "Ġ198",
        "3"
      ],
      [
        "Ġ198",
        "6"
      ],
      [
        "Ġ195",
        "1"
      ],
      [
        "ĠT",
        "he"
      ],
      [
        "Ġr",
        "est"
      ],
      [
        "fu",
        "lly"
      ],
      [
        "5",
        "4"
      ],
      [
        "6",
        "3"
      ],
      [
        "6",
        "5"
      ],
      [
        "7",
        "2"
      ],
      [
        "7",
        "9"
      ],
      [
        "8",
        "6"
      ],
      [
        "p",
        "ing"
      ],
      [
        "s",
        "es"
      ],
      [
        "Ġ",
        "â"
      ],
      [
        "Ġ",
        "voluntarily"
      ],
      [
        "à°¦",
        "à°²à°¯"
      ],
      [
        "Ġà°ķ",
        "à°¡"
      ],
      [
        "Ġà°ķ",
        "à°·"
      ],
      [
        "à°Ĺ",
        "à°ªà°¡"
      ],
      [
        "Ġà°®",
        "à°ķ"
      ],
      [
        "à°ļ",
        "à°Ĺà°²"
      ],
      [
        "Ġà°°",
        "à°¥"
      ],
      [
        "à°ľ",
        "à°µ"
      ],
      [
        "Ġà°ĩ",
        "à°ľ"
      ],
      [
        "Ġà°Ń",
        "à°µ"
      ],
      [
        "Ġà°¯",
        "à°ľ"
      ],
      [
        "Ġp",
        "o"
      ],
      [
        "Ġc",
        "ulpable"
      ],
      [
        "Ġ15",
        "0"
      ],
      [
        "Ġg",
        "iv"
      ],
      [
        "Ġà°ķà°¥",
        "à°¨"
      ],
      [
        "à°Łà°ª",
        "à°°à°®"
      ],
      [
        "Ġab",
        "duct"
      ],
      [
        "Ġintend",
        "ing"
      ],
      [
        "Ġbod",
        "ily"
      ],
      [
        "6",
        "2"
      ],
      [
        "6",
        "4"
      ],
      [
        "a",
        "c"
      ],
      [
        "a",
        "k"
      ],
      [
        "l",
        "f"
      ],
      [
        "Ġà°ª",
        "à°ł"
      ],
      [
        "Ġà°ķ",
        "à°¤"
      ],
      [
        "à°ª",
        "à°ľ"
      ],
      [
        "Ġà°¨",
        "à°·"
      ],
      [
        "à°ļ",
        "à°®"
      ],
      [
        "Ġà°¦",
        "à°¤"
      ],
      [
        "Ġà°¦",
        "à°¶à°ķ"
      ],
      [
        "à°¶",
        "à°°"
      ],
      [
        "à°£",
        "à°µ"
      ],
      [
        "à°·",
        "à°®"
      ],
      [
        "Ġà°ľ",
        "à°Ĺà°¨"
      ],
      [
        "Ġà°¤",
        "à°¤"
      ],
      [
        "à°¹",
        "à°°à°£à°ķ"
      ],
      [
        "à°Ń",
        "à°ķ"
      ],
      [
        "à°«",
        "à°²"
      ],
      [
        "Ġ5",
        "00"
      ],
      [
        "Ġà°¶",
        "à°¬à°°"
      ],
      [
        "à°µà°°",
        "à°¸"
      ],
      [
        "Ġ3",
        "9"
      ],
      [
        "à°İ",
        "à°«"
      ],
      [
        "à°ĺ",
        "à°Łà°¨"
      ],
      [
        "Ġs",
        "he"
      ],
      [
        "Ġw",
        "as"
      ],
      [
        "Ġw",
        "rong"
      ],
      [
        "Ġà°µà°¸",
        "à°¤"
      ],
      [
        "Ġà°°à°ķ",
        "à°®"
      ],
      [
        "Ġà°¸à°Ń",
        "à°²"
      ],
      [
        "Ġà°®à°¨",
        "à°¸"
      ],
      [
        "Ġ195",
        "6"
      ],
      [
        "Ġ194",
        "8"
      ],
      [
        "ĠI",
        "I"
      ],
      [
        "Ġpro",
        "per"
      ],
      [
        "à°®à°¹",
        "à°¤"
      ],
      [
        "Ġà°¸à°²",
        "à°¹"
      ],
      [
        "Ġmo",
        "tion"
      ],
      [
        "7",
        "4"
      ],
      [
        "b",
        "y"
      ],
      [
        "d",
        "ly"
      ],
      [
        "e",
        "g"
      ],
      [
        "m",
        "and"
      ],
      [
        "t",
        "ort"
      ],
      [
        "Ġ",
        "J"
      ],
      [
        "Ġ",
        "v"
      ],
      [
        "Ġ",
        "ri"
      ],
      [
        "à°°",
        "à°ĸ"
      ],
      [
        "à°¨",
        "à°¬à°¡"
      ],
      [
        "à°¨",
        "à°µà°°"
      ],
      [
        "à°¯",
        "à°¤à°¨"
      ],
      [
        "Ġà°ª",
        "à°¤à°¨"
      ],
      [
        "Ġà°ķ",
        "à°¸"
      ],
      [
        "Ġà°ķ",
        "à°£"
      ],
      [
        "à°Ĺ",
        "à°µà°¤"
      ],
      [
        "à°ª",
        "à°ķà°²"
      ],
      [
        "Ġà°¨",
        "à°Ĺ"
      ],
      [
        "Ġà°°",
        "à°®"
      ],
      [
        "Ġà°Ĩ",
        "à°ªà°°"
      ],
      [
        "à°¾à°Ĥ",
        ","
      ],
      [
        "Ġà°¶",
        "à°¨"
      ],
      [
        "Ġà°ĸ",
        "à°¨"
      ],
      [
        "Ġà°¬à°¯",
        "à°Łà°ķ"
      ],
      [
        "Ġà°Ĳ",
        "à°ª"
      ],
      [
        "ur",
        "e"
      ],
      [
        "à°ħ",
        "à°¨"
      ],
      [
        "Ġ195",
        "0"
      ],
      [
        "Ġ197",
        "3"
      ],
      [
        "Ġ197",
        "7"
      ],
      [
        "Ġex",
        "tort"
      ],
      [
        "Ġha",
        "ve"
      ],
      [
        "Ġint",
        "ercourse"
      ],
      [
        "Ġcommit",
        "s"
      ],
      [
        "Ġcommit",
        "ted"
      ],
      [
        "Ġdo",
        "es"
      ],
      [
        "Ġthere",
        "by"
      ],
      [
        "Ġinjur",
        "y"
      ],
      [
        "Ġproper",
        "ty"
      ],
      [
        "%",
        ","
      ],
      [
        "6",
        "9"
      ],
      [
        "Ġ",
        "G"
      ],
      [
        "à°¿",
        "),"
      ],
      [
        "à°°",
        "à°«"
      ],
      [
        "à±ĭ",
        "."
      ],
      [
        "à°¸",
        "à°ķ"
      ],
      [
        "à°¸",
        "à°¤"
      ],
      [
        "Ġà°ī",
        "à°¸"
      ],
      [
        "Ġà°ħ",
        "à°ªà°°"
      ],
      [
        "à°¶",
        "à°¨à°²"
      ],
      [
        "Ġà°°",
        "à°ľ"
      ],
      [
        "à°·",
        "à°²à°²"
      ],
      [
        "Ġ1",
        "19"
      ],
      [
        "âĢ",
        "²"
      ],
      [
        "à°³",
        "à°¤"
      ],
      [
        "à°²à°²",
        "à°ķ"
      ],
      [
        "à°¦à°²",
        "à°Ĺ"
      ],
      [
        "à°°à°¸",
        "à°¨"
      ],
      [
        "à°°à°¸",
        "à°¤"
      ],
      [
        "Ġ4",
        "9"
      ],
      [
        "Ġp",
        "r"
      ],
      [
        "Ġp",
        "re"
      ],
      [
        "à°ļà°¬à°¡",
        "à°¤"
      ],
      [
        "ĠâĢ",
        "ľ"
      ],
      [
        "Ġà°Ĳ",
        "à°ķ"
      ],
      [
        "Ġ9",
        "0"
      ],
      [
        "à°ħ",
        "à°ķ"
      ],
      [
        "Ġà°ĺ",
        "à°°"
      ],
      [
        "Ġ198",
        "8"
      ],
      [
        "Ġ195",
        "4"
      ],
      [
        "à°¯à°Ł",
        "à°¨à°²"
      ],
      [
        "Ġk",
        "ill"
      ],
      [
        "Ġk",
        "idnap"
      ],
      [
        "Ġ193",
        "0"
      ],
      [
        "Ġon",
        "e"
      ],
      [
        "Ġà°ĭ",
        "à°·"
      ],
      [
        "ta",
        "in"
      ],
      [
        "Ġà°Ĺà°ľ",
        "à°ªà°¤"
      ],
      [
        "à±Ī.",
        ")"
      ],
      [
        "Ġsuff",
        "er"
      ],
      [
        "sti",
        "t"
      ],
      [
        "5",
        "1"
      ],
      [
        "7",
        "3"
      ],
      [
        "7",
        "6"
      ],
      [
        "g",
        "ing"
      ],
      [
        "m",
        "ount"
      ],
      [
        "r",
        "u"
      ],
      [
        "u",
        "tion"
      ],
      [
        "à°²",
        "à°¦"
      ],
      [
        "à°¯",
        "à°ªà°²"
      ],
      [
        "à°¯",
        "à°Ĺà°²"
      ],
      [
        "à°¦",
        "à°³"
      ],
      [
        "à°¦",
        "à°°à°£"
      ],
      [
        "à°¡",
        "à°²à°²"
      ],
      [
        "à°ª",
        "à°µ"
      ],
      [
        "à°ļ",
        "à°®à°¨"
      ],
      [
        "Ġà°ħ",
        "à°«"
      ],
      [
        "Ġà°ħ",
        "à°°à°µ"
      ],
      [
        "Ġà°ħ",
        "à°¹à°®"
      ],
      [
        "à°ľ",
        "à°Ĺ"
      ],
      [
        "Ġ1",
        "20"
      ],
      [
        "à°³",
        "à°¹à°¸"
      ],
      [
        "Ġ5",
        "1"
      ],
      [
        "Ġ5",
        "2"
      ],
      [
        "Ġà°¶",
        "à°°à°£"
      ],
      [
        "Ġà°Ĵ",
        "à°°"
      ],
      [
        "Ġà°İ",
        "à°ķà°°"
      ],
      [
        "Ġà°Ĵà°ķ",
        "à°µ"
      ],
      [
        "Ġà°¹",
        "à°¬"
      ],
      [
        "à°°à°®",
        "à°²"
      ],
      [
        "à°²à°¯",
        "à°®"
      ],
      [
        "Ġa",
        "d"
      ],
      [
        "Ġa",
        "mount"
      ],
      [
        "Ġà°¸à°¹",
        "à°ľ"
      ],
      [
        "à°µà°¤",
        "à°²"
      ],
      [
        "th",
        "ly"
      ],
      [
        "Ġp",
        "la"
      ],
      [
        "Ġà°Ĺà°£",
        "à°ªà°¤"
      ],
      [
        "Ġd",
        "i"
      ],
      [
        "Ġà°ĵ",
        "à°µà°°"
      ],
      [
        "Ġà°ħà°ª",
        "à°¹à°°"
      ],
      [
        "à°µà°¨",
        "à°Ĺ"
      ],
      [
        "ar",
        "y"
      ],
      [
        "un",
        "d"
      ],
      [
        "Ġ195",
        "8"
      ],
      [
        "Ġ194",
        "6"
      ],
      [
        "it",
        "y"
      ],
      [
        "re",
        "e"
      ],
      [
        "à°°à°Ĺ",
        "à°¡"
      ],
      [
        "Ġà°¬à°²",
        "à°¹"
      ],
      [
        "Ġas",
        "saul"
      ],
      [
        "Ġint",
        "er"
      ],
      [
        "Ġconf",
        "ine"
      ],
      [
        "0",
        "4"
      ],
      [
        "6",
        "8"
      ],
      [
        "7",
        "8"
      ],
      [
        "D",
        "A"
      ],
      [
        "d",
        "d"
      ],
      [
        "h",
        "ment"
      ],
      [
        "r",
        "ation"
      ],
      [
        "t",
        "t"
      ],
      [
        "à°",
        "ĥ"
      ],
      [
        "à°°",
        "à°³à°²"
      ],
      [
        "à°Ĥ",
        "-"
      ],
      [
        "à°Ĥ",
        "),"
      ],
      [
        "à°¡",
        "à°µà°²"
      ],
      [
        "à°Ĺ",
        "à°¦à°°"
      ],
      [
        "à°¿.",
        "."
      ],
      [
        "à°ļ",
        "à°°à°£"
      ],
      [
        "Ġà°ħ",
        "à°·"
      ],
      [
        "à°¶",
        "à°¹à°°"
      ],
      [
        "à±ģ.",
        "."
      ],
      [
        "à°·",
        "à°Ĺ"
      ],
      [
        "Ġà°ľ",
        "à°Ĺà°¦"
      ],
      [
        "à°Ń",
        "à°¨"
      ],
      [
        "Ġ5",
        "5"
      ],
      [
        "Ġà°ı",
        "à°¨"
      ],
      [
        "à°¤à°¨",
        "à°®"
      ],
      [
        "Ġà°¸à°¹",
        "à°ķà°°"
      ],
      [
        "Ġ7",
        "2"
      ],
      [
        "Ġ7",
        "4"
      ],
      [
        "Ġ7",
        "9"
      ],
      [
        "Ġc",
        "ust"
      ],
      [
        "Ġf",
        "a"
      ],
      [
        "Ġ6",
        "9"
      ],
      [
        "à°¸à°¨à°¸à°Ń",
        "à°ķ"
      ],
      [
        "à°ħ",
        "à°°"
      ],
      [
        "Ġà°®à°¨",
        "à°ķ"
      ],
      [
        "Ġ197",
        "1"
      ],
      [
        "Ġ197",
        "5"
      ],
      [
        "ev",
        "en"
      ],
      [
        "Ġ194",
        "3"
      ],
      [
        "Ġde",
        "f"
      ],
      [
        "Ġpro",
        "v"
      ],
      [
        "Ġ193",
        "6"
      ],
      [
        "te",
        "mp"
      ],
      [
        "Ġlaw",
        "ful"
      ],
      [
        "Ġconfin",
        "es"
      ],
      [
        "Ġtw",
        "o"
      ],
      [
        "Ġwrong",
        "fully"
      ],
      [
        "Ġsuffer",
        "er"
      ],
      [
        "stit",
        "ution"
      ],
      [
        "\"",
        "."
      ],
      [
        "%",
        "."
      ],
      [
        "0",
        "7"
      ],
      [
        "a",
        "in"
      ],
      [
        "c",
        "tion"
      ],
      [
        "u",
        "gh"
      ],
      [
        "á",
        "Ģ"
      ],
      [
        "Ġ",
        "X"
      ],
      [
        "Ġ",
        "ï»¿"
      ],
      [
        "à°°",
        "à°¥à°®"
      ],
      [
        "à°¯",
        "à°ªà°°"
      ],
      [
        "à°¯",
        "à°Łà°¨"
      ],
      [
        "à°®",
        "à°²à°ķ"
      ],
      [
        "à°Ł",
        "à°¤"
      ],
      [
        "à°Ł",
        "à°µ"
      ],
      [
        "à°Ł",
        "à°¬à°¡"
      ],
      [
        "Ġà°ª",
        "à°µà°°"
      ],
      [
        "à°Ĺ",
        "à°Ĺ"
      ],
      [
        "à°ª",
        "à°°à°®"
      ],
      [
        "Ġà°Ĺ",
        "à°®"
      ],
      [
        "à°¶",
        "à°¯"
      ],
      [
        "à°£",
        "à°¤"
      ],
      [
        "à°§",
        "à°ª"
      ],
      [
        "à°¹",
        "à°²"
      ],
      [
        "Ġà°ĩ",
        "à°Łà°²"
      ],
      [
        "à°ĸ",
        "à°ķ"
      ],
      [
        "Ġà°¹",
        "à°¸"
      ],
      [
        "Ġà°¹",
        "à°¸à°¨"
      ],
      [
        "Ġà°¯",
        "à°¨à°®"
      ],
      [
        "à°¤à°°",
        "à°ª"
      ],
      [
        "Ġà°ªà°°",
        "à°¶"
      ],
      [
        "Ġ19",
        "20"
      ],
      [
        "à°°à°£",
        "à°®à°µ"
      ],
      [
        "à°¯à°®",
        "à°¯"
      ],
      [
        "Ġà°īà°ª",
        "à°°"
      ],
      [
        "Ġor",
        "der"
      ],
      [
        "Ġf",
        "i"
      ],
      [
        "ha",
        "n"
      ],
      [
        "Ġ6",
        "8"
      ],
      [
        "Ġ8",
        "5"
      ],
      [
        "om",
        "e"
      ],
      [
        "Ġi",
        "ll"
      ],
      [
        "ce",
        "ption"
      ],
      [
        "Ġ198",
        "5"
      ],
      [
        "Ġsu",
        "dd"
      ],
      [
        "al",
        "a"
      ],
      [
        "Ġ197",
        "8"
      ],
      [
        "à°¯à°£",
        "à°°"
      ],
      [
        "Ġà°Ľ",
        "à°¤"
      ],
      [
        "Ġ196",
        "7"
      ],
      [
        "se",
        "lf"
      ],
      [
        "Ġà°Ĭ",
        "à°¹"
      ],
      [
        "od",
        "y"
      ],
      [
        "po",
        "s"
      ],
      [
        "Ġre",
        "mand"
      ],
      [
        "Ġhim",
        "self"
      ],
      [
        "à°ĺà°Ł",
        "à°¨à°²"
      ],
      [
        "Ġgu",
        "il"
      ],
      [
        "Ġra",
        "pe"
      ],
      [
        "Ġà°¯à°¨à°®",
        "à°²à°ķ"
      ],
      [
        "Ġsudd",
        "en"
      ],
      [
        "Ġguil",
        "ty"
      ],
      [
        "A",
        "N"
      ],
      [
        "o",
        "l"
      ],
      [
        "p",
        "ar"
      ],
      [
        "r",
        "y"
      ],
      [
        "u",
        "pe"
      ],
      [
        "Ġ",
        "L"
      ],
      [
        "Ġ",
        "le"
      ],
      [
        "à°",
        "ĵ"
      ],
      [
        "Ġà°",
        "Ŀ"
      ],
      [
        "à°ķ",
        "à°µà°°"
      ],
      [
        "à°¤",
        "à°¡"
      ],
      [
        "à°¸",
        "à°¸"
      ],
      [
        "à°ª",
        "à°¹"
      ],
      [
        "Ġà°µ",
        "à°ľ"
      ],
      [
        "à°£",
        "à°ª"
      ],
      [
        "âĢ",
        "Ŀ"
      ],
      [
        "à±įâĢĮ",
        "'"
      ],
      [
        "Ġ5",
        "3"
      ],
      [
        "Ġà°¹",
        "à°®"
      ],
      [
        "Ġà°Ł",
        "à°¨"
      ],
      [
        "Ġà°¸à°°",
        "à°¸à°¨"
      ],
      [
        "à°ł",
        "à°ķ"
      ],
      [
        "Ġà°ı",
        "à°ľ"
      ],
      [
        "Ġ19",
        "24"
      ],
      [
        "Ġo",
        "b"
      ],
      [
        "à°µà°²",
        "à°ª"
      ],
      [
        "à°Ĺà°°",
        "à°Ĺ"
      ],
      [
        "Ġà°ħà°Ń",
        "à°¯"
      ],
      [
        "Ġà°īà°ª",
        "à°Ĺ"
      ],
      [
        "à°²à°µ",
        "à°¡"
      ],
      [
        "th",
        "ing"
      ],
      [
        "Ġ6",
        "5"
      ],
      [
        "Ġ6",
        "6"
      ],
      [
        "ll",
        "ust"
      ],
      [
        "Ġà°Ĩà°¯à°¨",
        "à°¨"
      ],
      [
        "Ġà°¨à°Ł",
        "à°¨"
      ],
      [
        "à°°à°ľ",
        "à°²à°²"
      ],
      [
        "Ġà°ĺ",
        "à°Ł"
      ],
      [
        "ri",
        "v"
      ],
      [
        "ev",
        "ent"
      ],
      [
        "Ġà°Ĩà°ķ",
        "à°¸"
      ],
      [
        "Ġtha",
        "n"
      ],
      [
        "Ġà°Ĩà°Ĺ",
        "à°·"
      ],
      [
        "Ġcon",
        "st"
      ],
      [
        "ĠI",
        "CC"
      ],
      [
        "ĠI",
        "llust"
      ],
      [
        "ĠH",
        "ere"
      ],
      [
        "est",
        "ed"
      ],
      [
        "Ġà°ĭ",
        "à°£"
      ],
      [
        "à°¦à°¬",
        "à°¯à°²"
      ],
      [
        "Ġpr",
        "event"
      ],
      [
        "Ġpla",
        "ce"
      ],
      [
        "Ġcust",
        "ody"
      ],
      [
        "Ġconst",
        "rain"
      ],
      [
        "0",
        "6"
      ],
      [
        "0",
        "8"
      ],
      [
        "e",
        "m"
      ],
      [
        "e",
        "ct"
      ],
      [
        "f",
        "or"
      ],
      [
        "f",
        "ore"
      ],
      [
        "p",
        "h"
      ],
      [
        "t",
        "ing"
      ],
      [
        "u",
        "al"
      ],
      [
        "w",
        "w"
      ],
      [
        "w",
        "ise"
      ],
      [
        "à",
        "¥"
      ],
      [
        "à",
        "¨"
      ],
      [
        "à±į",
        "/"
      ],
      [
        "à±į",
        ";"
      ],
      [
        "à°²",
        "à°µà°°"
      ],
      [
        "à°ķ",
        "à°³"
      ],
      [
        "à°¯",
        "à°¬"
      ],
      [
        "à°¯",
        "à°²à°ķ"
      ],
      [
        "à°¤",
        "à°µà°°"
      ],
      [
        "à°®",
        "à°ľ"
      ],
      [
        "à°Ł",
        "à°²à°¨"
      ],
      [
        "à°¸",
        "à°°à°®"
      ],
      [
        "Ġà°ķ",
        "à°¶"
      ],
      [
        "Ġà°¸",
        "à°Ĺ"
      ],
      [
        "à°ª",
        "à°ª"
      ],
      [
        "Ġà°¨",
        "à°¨"
      ],
      [
        "Ġà°ħ",
        "à°¥"
      ],
      [
        "Ġà°ħ",
        "à°¦à°¨"
      ],
      [
        "Ġà°¦",
        "à°¸à°°"
      ],
      [
        "Ġà°¦",
        "à°¹à°¨"
      ],
      [
        "à°¬",
        "à°®"
      ],
      [
        "Ġà°ľ",
        "à°¸"
      ],
      [
        "Ġà°²",
        "à°¤"
      ],
      [
        "à°¹",
        "à°¬"
      ],
      [
        "à°¹",
        "à°£"
      ],
      [
        "à°Ń",
        "à°¯"
      ],
      [
        "à°«",
        "à°²à°®"
      ],
      [
        "Ġà°İ",
        "à°¯"
      ],
      [
        "Ġà°İ",
        "à°¥"
      ],
      [
        "à°ĸ",
        "à°¨"
      ],
      [
        "Ġà°¯",
        "à°ľà°®"
      ],
      [
        "à°¤à°°",
        "à°£"
      ],
      [
        "à°·à°¨",
        "à°°"
      ],
      [
        "à°¯à°®",
        "à°¨"
      ],
      [
        "Ġà°ķà°²",
        "à°µ"
      ],
      [
        "Ġà°īà°ª",
        "à°¨"
      ],
      [
        "he",
        "n"
      ],
      [
        "à°¨à°µ",
        "à°¨"
      ],
      [
        "Ġc",
        "ar"
      ],
      [
        "Ġc",
        "ir"
      ],
      [
        "is",
        "t"
      ],
      [
        "Ġ8",
        "3"
      ],
      [
        "à°ªà°¡",
        "à°¤"
      ],
      [
        "à°ħ",
        "à°¤à°¨"
      ],
      [
        "à°Ĩ",
        "à°§"
      ],
      [
        "à°Ĩ",
        "à°«"
      ],
      [
        "à°µà°ļ",
        "à°¨"
      ],
      [
        "Ġ198",
        "7"
      ],
      [
        "Ġ195",
        "7"
      ],
      [
        "Ġà°ªà°¡",
        "à°Ĺ"
      ],
      [
        "Ġg",
        "ra"
      ],
      [
        "Ġex",
        "ce"
      ],
      [
        "Ġ196",
        "9"
      ],
      [
        "id",
        "ed"
[...]
